3E129D2D
3C84BD8A
3D7678C3
BC544795
BDA40C0D
BD96AD55
BE40FF2C
BDEA890B
3D1920E3
BDEEAD27
BDEDE6C3
3E487CE3
3E955E36
3E1279EB
3BAFAB1A
3D773AD5
3C65BDF5
3CAC0C63
3C51A98B
3CE44702
3CB2E6DD
3DF23DE3
3DC1C4C1
3CE97077
3BFD18A3
BE72B529
BDCEB52D
BDA49477
3CD335D8
BE0BAD19
3E0851F9
BE722D58
3E1A4E3E
BD52C8D8
BD7F2900
3DAC10DD
BEA211A3
BE1E90F2
3E6CEDF6
BDE1EAA1
3E8BE133
BE81C557
3E96CB96
BE035B99
3E854C8E
BD302EA1
3DC2F8C3
3DAEF700
3DCCCE5F
3C5CB71B
BE89F391
3E781308
3E2920B3
3EA8C844
BE61760E
BC5E47FF
3E88A998
BE1AAD67
BE21F319
3D92D426
3DF411A8
3DE4D03C
BE1120E2
3E530A2D
BE79976D
BD6428FF
BEA6E48B
3EA170D3
BE1939A8
BDD69F21
3E46669C
BE7D3DCF
BEA1FFB8
BD507523
BD8598E0
3E5946CA
BD5F8F14
BE44A772
BE4CBECD
BE312677
3D2A17EF
3D988AA5
BD871FEF
3E04D76B
BDA58EF8
B97F6C38
BE15ADCC
3DB0C337
3D1026FC
BD041FA7
BD4CCD30
BE812578
3DB95A3C
3EC16005
BE922802
3DA22142
3E1E7AE6
BACC89CB
3EA3CFE6
3CA53F90
3D471807
3E383BC5
3E15A598
3E1533ED
BE78DCDB
3E0357E0
3DE71C8A
BDE8FAE6
BE21D0CF
BE0D6005
3EE2B19F
BECF4C14
BDA334B8
BDAF9099
BD9621B7
BEA38D6B
BE0CCC8A
BE1981C5
BD874913
BDB0541A
3D0C2F13
3E4CCBC7
3CFDA89D
3E1BA803
3E2D16C0
3CD5F824
BD65E0E0
BE0F576A
BDC5A7A1
3E92B6DA
BE2FC6B2
BE300F4F
BE17B9E7
3CB73D69
3D694D77
3E2FB8B9
3E4AE239
BE202C47
BB8C477D
3D05DBBC
BDEA0ACB
BCD6C30B
BC25AC0C
BE6F6E97
3D32AE5E
3D0925A6
BD5D9D22
3DD823FE
3D677ABB
BE52FF16
BE9AC98E
3E187379
BE4E3758
3D038F71
BD731E28
3E87865D
BDF3EA7E
BDB32177
3E2A10E0
3E25D837
3D2ABB5D
3D06868A
BDBAFF6B
BDE267B9
BEA2CDA9
BE6C77A8
BE222036
BE891FAA
BEC6FD8A
BEA88CAE
BEF5CBD0
BE92D755
BBDF04C2
3DA614BA
3E9A10FB
3E6F9032
3D82E6C4
BD5858DA
BE2BEA8B
BED9CF83
BF1D25DA
BE6C1E6C
BEE2258C
BD53FB35
BD820F6C
3C337731
3B3E0737
BC79CD81
3DB47493
3E9AE705
3D9A1E0C
3C97C50E
3DBFB8AA
BE4F72E3
3DDF1887
3D4A4D2B
BCDE7678
3B95DE91
3E1BB77A
BD1A9306
BDE06E35
BD9C79E8
3D894A5F
3D9D4842
3D687C43
BCA895FC
3D21FCD5
BDAC3F9F
3E4C85E4
3E40117C
BDC7D1B5
3D44BA01
BD83266B
BE27A86B
3E1D96CF
BD16DC8B
3E42204A
BD5C3759
BDE8C93F
3DDBEB69
3CA42CE0
BDB19E85
BD322F68
3D9978CD
3D51D9A2
3D04706D
3E3743D5
3DD95B94
3D4141B4
BE1E102E
3DEC9F4B
3D7322BA
BE0FD2BA
BDCF3387
3DB6391E
BCAB2C6E
3E7B8214
BDAE1A74
3E14D134
3DB1AFED
3DD0FDF7
BCF9428C
3CCEA42D
BDE41B18
BDF4EA4B
3E581868
3AFEE8BA
BE00BF0D
BD103738
BCD83E90
3D98B0B5
3C7818B6
3D83ADC2
3E234DF0
3DFADE22
BDBB209C
3BD12769
BC400B13
BD98651F
BDFC3EED
BAFCFE21
3CCDCCD7
3DF1D855
3B345B85
BD3F73B1
3D905C3A
BB9F9D50
3DD538E2
3E0A350D
3ACC9E65
BD15A566
BDFF9592
3D9EFFF0
BC129971
3DE32DBF
BE1441EB
3E06376C
3E23DC3B
BCCAE81B
BC15D1BE
3E3045D6
BD03C0B5
3E4B7E91
BD953E02
BDED130E
BB4A6348
BDCD9ACB
BC61AF32
3D532884
BD20C017
3CFE0CB0
BD9918B1
3D8C8B95
BE8C7ACD
3D833737
BE8ECE11
BDA44EF9
3E0D494B
3C66BFD3
BDFE014B
BCCB7143
BE34E5F1
3E336EA7
3D64DA27
BDF4E3D8
BDB6CB41
BD4EEDA7
3C031FA7
BD2F209A
BDE0600D
BD9A82D8
3DE1E951
BDAF138D
BE3DF91D
BE75637B
BDAE04F2
3E86B47E
3E3ED1E1
3D94B3DF
BD898606
BC91D377
3DA58206
3E5C3915
3E908917
3E95F121
3E84BBD7
3E1A99FA
3D5E38CB
3BF021F1
BD681126
3D16E91E
3E1C730B
3D06E88D
BC8082CD
3DA7FC95
BDA37FED
3D411ECC
BBEAD8DE
3DD73988
3E173916
BDF8245C
3C54B935
BC884605
BD430451
3E30FC14
BD89AB35
3CAE47D7
3DA5AB3D
3E158219
3D9A88D9
3D9B65C7
3D669708
3D6E9207
BD7F7F72
3E0F2006
BE45B043
3D6D9966
3DDA7603
BE261BD2
BE2397AE
BDAE2E0D
3D37A4BD
BD86DD71
3E5C5D06
BE23EA70
3E012CD6
3D286DD5
BD17C6E9
3E1D5BD3
3D5A1B04
3E6B938A
3EAD56A6
BC9DB45B
3D03D96E
BD43B73F
3CCB222D
BD863AD8
3DB2C182
BDB177AF
3DEA3B22
3CEB2131
BE28DFD8
3E15EBB7
BD742442
3C869C97
3DA300F2
BD71FC2C
3DEFB019
3D66500E
BD29871D
BCC452A5
BE259C2F
BE2B9E42
3E0B2EED
3D99CC98
BD2F1656
3CEB154D
BE058707
3D2417D8
3CA2CA95
BC9DF29F
BD2797DF
3E67EBF9
3C0072C3
3D8F10FD
3D9D5862
BC92A54F
3E07EED4
3E4CC129
3DBB1FC6
3C812346
BE2CACB0
3DAE06E7
3E1C8762
BDDC6B56
BD54FB1C
3DB2C288
BDDD5E07
3B8A2294
BE6E4AE0
3E294AEE
3DFD2E29
3B172941
3D3C954A
3BC0EBFB
3C629348
BE29B505
BD834553
BDEDB171
BC7EBC3E
3DA141F0
3DAA94E4
BCB2F423
3B969484
3E400BB1
3D98034B
3DC142CE
3DCFEE7D
3D8435B9
3DD13A93
BE03AA01
BE06C2FD
BE354D0A
3D831C6B
3C56CF70
BC881035
3E1B81A2
BC965C93
BDC07970
3D0C64B0
3D89AE18
3E6C79DC
3DE0B476
BE55F387
BD28FBBF
BE21A84E
BD89C896
3D299344
3E373D91
BE6D4A2F
3E389A96
3D85600B
3D27041B
3DEE1686
BCFAC5B9
BD651375
BDB8A430
BD119BD4
BE0AFC7E
3DC6DB8B
BCC6F7AB
BE9C0ECC
BDB202B4
BD05B8B1
3DE4BF3F
3DC8FCB5
3D954460
BBF8F398
3D87E87F
BE0A0D6A
3CD7FE4E
3D4C9E29
3E305D16
3EA92A63
3E01A338
3B9F3606
BD82CA0E
BCC32EB4
BB23493D
BE3947DD
BE8D651B
BDF26EF6
BE55BC66
BDB1CDDC
BE17E840
BE32E3D3
3E216363
3DC65FFC
3DA71F50
BD5C1196
3AE9080E
BE68A541
BD2B7986
BD8BDE9B
BDD3E194
3C7D3266
3E5F5056
BD90D07E
3D7C72E2
BE7CB960
3E3E0FBC
BD93B13A
3E8156C8
3DEF8049
3E538115
3C00E610
3D83E6E5
3CCBFD6F
3D144519
3E419A0C
3DD6C1D6
3DABCFB6
3BCB52CF
3DF27151
3E198288
3D3F8D46
3E29B208
3E38296B
3DBEFF1B
BD929F6F
BE84EAE8
3E2367BC
BDFCC7A9
3E60AA6B
3D72E16C
BC374ABA
BBD6BD91
3D0EA2E8
BDCBECB3
BE45E918
BE05F34B
3C82463B
3D0A8E67
BCE8C693
3DA0C560
BE3BFF47
BD573437
BDF23374
BD932AAB
3E93D7BC
3DC01375
3E6A6F7C
3BF3D5A5
BD20B780
BD8F16B5
3D91A118
BE232BAD
BE90EC2A
BE66C652
BE367D78
BE0804B1
3E98A017
BDE4127F
BD761698
3C04336B
BE2FE4BD
BE279633
3EAC6F15
3E1449A6
BE881015
BE0CF02A
3DE6BBF7
BC502E2B
3E02F95F
3E04F730
BD8C325E
3E87BE34
BDCB5640
3E3F79A7
BE6569C6
3D730B83
BDA4894E
BE16CBE7
BDA96BB4
BDC2CBD3
BDDDB17F
BE5395CB
BDC6786F
BE26DF75
3D40601D
BD72984E
BE82192C
3CF00D59
3D3BF9FF
3E3B1E84
3D4C77F0
3E69FD59
3CB65E81
BDC4D572
BCA23732
BE67A15E
3EA592EE
BE029612
3E8BEA1C
3D7B8BEA
BD0C56B3
BE85EFD8
BD8F42E4
3DC725FA
3E3B62CE
3C7877AB
BE6B5866
3C59274E
BC5A5764
BE3B9786
3E46F24E
3DB64B65
BE550C51
BD947E4F
3E2A2C31
BD9839F8
BD30B074
3B1BAE0B
3B4B88AE
3E53F614
3E6392AC
BD773516
BE532611
BBBE9E52
3DFADD09
3E438B3A
3E342A09
3E19E710
3EBE7F29
3EFF9772
3E1704DE
3E0A965C
3E76F3DA
3E879E61
3E8E6C24
3D029195
BC268FE2
BE8B7924
BED786EA
BEBA056F
BE8024E6
BE11A9B9
BEC48FA8
BF3AC6FD
BEDB922D
BD0476BD
3E943A2B
3E7EE66E
BE223118
3D6C50B3
BE634EC7
3DF1A501
BCCBE826
BB870BF2
3E624FF3
BDF36CDF
BCFE0366
3E0DFAA2
BDA75361
3E89BAEB
BEF9D232
3D919CFD
BD93518A
BD85DAE4
BCCB5843
3E077696
3E01B2D1
3E6B5499
3D60FE85
BDB4C883
3E84BB8D
3E007C63
3E854926
BE575BDF
BE0569D3
BE0E2A58
BE46CD8E
3D7A7F88
3E02ACCC
3E548FE7
BE37CE6E
3C2E3F6E
3E6CA7C2
BE8B5B45
3AAB56B9
BD978E12
3DFA2C23
BEC30510
BE44F3AD
BDE1D4B7
BE8584E7
BE3ECCA3
BDAC140A
BC9B6EA6
3DD9AD00
BE90B707
BEA310E6
BE3115ED
BEB2CAF2
3D303F0A
3E3C6FEC
3E0C97FA
3E98CC51
BDCD50EC
BDC0BEAF
3E1E95F4
BE489071
3D89C62B
3DA5F0C4
BBDEE07E
BECFB6EA
BB2583A1
3E8665A4
BD3E5157
BC3E2E2E
3DA52A18
3E64330D
3CBCF85E
3C73EE85
3D9B4EF7
3DC285FF
3D68C803
BC9BDAC2
BD9E005C
3CA49729
3DA81EC1
BE5FBB5F
3CABB1F5
BE43890D
3DE7A5F4
3DB21F62
3B146118
BE0168EB
BDD2A96B
BE605E66
3D0E17AB
BD400170
3CB90CB7
BDF3DF45
BE87B4FD
BD28B2AC
BD3AFC50
3D43F662
3E0E78E2
BC6C0B0B
3E0CB33E
3D39810B
3DAEC59A
3D835BEB
BD6155EE
BDB959BD
BDE5A518
3DB1E785
BE6BD110
3E2B91A7
3E9E2A51
BEEB9EDD
BE783DCA
3BD25259
3C2AB0D9
3E668273
BD83217B
BD5BA5E1
3D2F3C1B
BCA1FADC
3DB6B721
3E6AECA1
3E0FC0FB
BD507B8E
3C363D89
3DFD8806
BE82CEBC
BE327562
3CB1E7D4
3DEFD96A
3E3A51B4
3E0B7E69
3B9C4A66
BBD92B42
3DF60B70
3D9FFE2C
BD8A32BC
3BB1D91C
3E19F6E6
3E35B1BB
3E793E4C
3E148374
3E2E2959
3D4B7D5F
BD08002A
3D184F32
3E006E6A
3E34C9E4
BDD64D14
BD45F654
BD9863ED
3BA1F5A5
3E1AF00A
3E357E09
BDD63737
BE2162F8
3DEC9A0D
3DB024B6
3DBA8D79
BE9BBCE4
3DA974D8
BDFE542E
BDABC4B5
BE058073
3B7BB15E
3E61A218
BDD252CE
BD151DE7
3D659893
BDC83425
3D74DC6B
BE9BB693
3E4E65AA
BE08D98E
3E56AC3C
BDFE8A64
3D9F3F18
3E88CA88
3D9C5B3B
3D3D7C1F
BE92FE7F
3D40D718
3DD48975
3E0582D5
BE6BDD62
3E26B0E0
3EA47505
BDAF4422
BD605B2F
3DCF0C42
3DD90EE0
BCB9CA36
BDB7DBCE
3EE03F70
BAF9CA64
3B70E79F
BE3EA0A6
3DEACC4F
BE4A6F03
BE027B55
3E404FD3
BE3BFFCE
BE9B4F90
BE19F59D
BD695881
3CB8B076
3D04DE26
BE448839
3C4F1450
BE632D1E
BE85BCD5
3E5067EA
3E90D789
3E098803
BDA425C0
3D0811C7
3D895B05
BE2FFF66
3C58E97B
BC1C551A
3E032AD0
BE33136E
BD4BD5CF
3E3D2A7E
BEAAD6B4
3EB6067F
3E3EEDBF
3E7819A3
BDA27BEF
BD8E9655
3C211DBD
3CE9FD90
3E5E3DFA
3E16F8E3
BD9DC2F7
BB2EAA7C
3E113222
3DF2ED78
BC160449
BDCE0FD0
3EDDA837
3C921318
3CA58845
BE8C879F
BD9B76F7
BEA75A42
BE7E5054
BE5FB536
BE0542C4
3DF9ADA1
BE8C0094
BDF15DF6
3E1F759D
BDBADA5C
3DD7F3C2
3C8C78CA
BCD7D62B
3E13F83A
3E21E406
3DB21A96
BE80CBF3
BE049AA7
BD520FE0
3E966F68
BD927E14
BBE4D9B8
3DEC9D68
BC5F0A87
BDE03E8C
BE7659BD
BDE0C9BF
BE1C845F
3E4B1203
BD3534D0
BDB8D689
BCCB55CA
BDF46181
3E42F853
3D1723D6
BE642481
BE55F330
3E1652FA
BE9FC566
3C2B10C5
BE61FFF8
3E3600B0
3E08F444
3DD76344
3D4540DA
3DF0AA4A
BD0824D2
BDBCB13C
3D05BFD0
3D8DEDF5
3E259CC2
3E373E4D
BCB474B2
BB27DE67
BD43B112
3D7EC3AA
3DA0211D
3DBA4FDC
3DB348D0
3D640812
BDA3B6C2
BCA9036F
3CCFA0A2
BCEA2268
BE106A39
BD50223C
BDD167FA
BEF16F65
BE81B435
BE8A3366
3E6D481D
3E0217E7
BD284C4F
3CF2F5C6
BBE57CAB
BD72F937
3C2CAA22
BD8557B4
3DE30B75
BE214A40
3DC0E7CA
3E2EEF1C
3E5C53F4
BDDBA047
3DDFE238
BE4965CD
BE224E4C
BB200953
3D7946F9
3D883C94
3DF2BFB3
BD0CF3B1
BD9A7AE6
3D64D6E7
3D0F1A9A
3E22558F
3DAD1A32
BC0A64A5
3D28FB41
BE3B837F
BE8C4A9B
3DCAA363
BD4F38AD
BE5A0E19
BE096AA0
3E007846
3E2EA05C
BE16A0B3
3C03E9FE
BDFB47D5
BE1B5F0F
BE21D408
3DA79C75
3CF4B0F2
3E18E61C
BE98671A
BE1609C2
BCDE06B1
BE054838
3A60D295
BDCB96B0
BE960268
3DB14483
3DBD8567
3D00EF46
3E3A38C6
BC17FBBA
BDDC7920
BE07FC04
3E04FF65
BD901534
3E091E5E
3E611EAE
BCCA5B13
3EB0397A
3D383E50
BDB6D4AF
BD058083
BCDF44AF
BE116914
3CF63C42
BE4BA5C2
3E1F3FE7
BE58F26E
BDC71531
3E8B6FA0
BC5A1E64
3D61C072
BE6EA118
BE19A4A3
3D14A76F
BBC9B273
BE1E116A
BE1EEAFE
BADF8909
3E1893CC
3D9BDAE3
3C297CC6
3D47FAE1
3C935D70
3C7D403D
3DB6980B
BD7D0630
3C9586B5
3DD1D176
BE3FCFF3
3E340D18
3D4E0696
BD89D88C
3CF1D85F
BDFA5EE4
BCBA9908
BCB701AA
BD310853
3E28A21C
BD0A85F8
BD55BF75
BE1CA95C
3D8397DC
3B280730
BDF2C1B1
3D24E684
BE1D1F09
BD8E179E
BC96BBC9
BDBC03A3
BD38E4D3
BDFF7BAB
BCDB1ECF
3E37DD08
BE249AF7
3E26EA56
3DB16BF2
BC2D8EAF
BE238B98
BDD590A6
BDAF720D
BE0E1F84
BDF820B0
3E641E80
3D8397EA
BEC9E182
BEE9A43E
BEB76387
BDF16949
3E3F0605
3D6D10BA
3E20F3BE
3CCA1E11
BBC4A1A1
BE65FD4E
BE123777
BCB9B5F9
3D954D6C
BCF8C853
BD766639
BD4D1C96
BE8D7C55
BE1DA222
BDF76FE6
3DFAEDCF
3E291219
3E34F1F2
BB82B768
3CDB36BD
3E075C73
3E4DE8FE
3CAC60CC
BD927486
3D695F8A
3D8D49E8
BE747F3B
BCDD2EAA
3DD2C26D
3E2F1504
BD148388
3C9D9A95
BE0CDEE3
3DAAE4C4
3C4E808C
3C743DB5
BC8B1C38
3C90F845
BA7E8844
3CF2894F
3DBC2232
3EAB8251
BCADF10F
BD437C69
BD0F9A7D
BDF677DC
3DB8BA16
BD5C461F
BD33E36C
3B34C6BE
3E3B8C1F
BE804711
BD986277
BE702907
BD0A009A
3C8AE9C3
BD9AAF7A
3D16F692
3E2AE085
3DD5E7E4
BD9F55BF
BC5ABD05
3E951379
3DA5416E
3D9B3275
3D797669
3D705421
3E2F9FDF
3D580EF5
3D026855
BCFBFB08
3DA0F3CB
3C14FA46
3E92CCD2
BDF0FE55
3C3D55C1
BDD22A47
BDB900DB
3D732699
3DA46936
BC8CA36C
BCDDC8F3
3DBFCDF4
3CA77A22
3DC2F96C
3DE9DC58
BAA56CF3
BD4A4ACF
BD9DD498
3E375D8D
BE0869E1
BDDD839F
3D861CA7
BDE9EB49
3D3F135E
3DDFE0B3
BE34202E
3E53F628
3E79B768
3E5ACF96
BE2B0BC6
3CF83078
3CCAD5C7
BD9D5943
BE0763D7
BDE7D376
3C80FC54
BD2E2C81
3AA5A34E
3D966398
3CA14687
3DA7EE62
BE287231
BC9B7FD3
BE417918
BE3A0DBB
3E05C407
BE0D09B2
3E25A10F
3E445063
BDC75021
BDAE12B8
BE6C0995
3E1982B0
3CE02BBA
BDB0665D
3E19C9F0
3DEBCA39
3EAE7052
3E35D2A1
BE8EF783
BA96EC96
BDCF2ECF
3D8388B1
3CA61B58
BDCA5F34
3DAAF86D
3C5E0C9B
3DCA2204
BBF1A6AE
3BE75CD5
3E29CFF8
BE05C183
BDDB3157
BDDC2C00
3E8C5466
3D9793FA
3D8592C1
BDCA4D86
BE51E6E1
BD3B3A30
BE5FA58F
BE7C3FA3
BDBCE6BD
BCBEC2E4
3E969EC3
3DC75AC3
3DA77786
3DFD4662
3E0CBC71
3DE54F1D
3E08813D
3D9826A7
3E86BE7E
3E745C21
3E405CC6
3E7188AA
3EAC2408
3E315740
3DEAC91C
3E459275
3E9193FD
3E3D0DA1
3E4F5749
BD7A93C2
BE694B89
3C85DE10
3E5AAE4B
BDC3716E
BD5CACF2
BE6B14F3
3CB7274E
BDACEC0F
BE1AB544
BE3B82D0
BE31137D
BDE73C5D
3D589D43
BE074F51
3E262F96
BDD109A8
3E6ADDDF
3E76DF39
3D210AF5
3E07A7F2
3E919095
3E2AFABC
3EDA0AA6
3E2EC1A7
BC8823F1
BCCC7696
3DECD911
3D081CFA
BE1E7529
3E6668AE
BD951646
BE7B25EF
3D858455
BD5FF607
3DF95480
BDC3AF4B
BE1A0437
BD1B6FE8
BE31A60D
3E7CB9B1
BCD8C615
BDA0AFC7
3B8613C7
BD556512
3C4AE348
BDAAC214
BDC6F5F2
3E5D4230
BDB8B556
BBB04B3D
3C1B1970
BE1DA294
BE189F55
3D18ECEC
3CBEC97F
3D03ABE7
3D33ADA2
3DF31353
BDCE9BF5
BD63C5CA
BDD63886
BE36D070
BDAA935B
BD63310A
3DDF8F12
BE347A4E
BE203B24
3E4A6F9D
BEA512CB
3D86305F
3D913B86
BE06ECB9
3E0E50E1
3E2E2C19
3D0C3174
3D1DD43F
3D27FC38
3BF101A8
3DD7AA0B
3DBD33EC
3E17B3D2
BE09A939
3CEAC3C9
BE439786
3E34E99C
BE6AC478
BE11E054
BE9AEACF
BDE83DBC
3CD316F4
BD701F6A
3C44D69F
BDC17AEF
BDB64DE0
BE09D0FE
BD2B8A98
BDAD0492
3E0EBB8B
3D910767
3DE7AB32
3CA48EF6
3D82664E
BBA0B8F0
3DAE4448
BC0524EA
BD18E610
BDA9BDFE
3DBE054C
3E783F27
3E3BF4C4
3DDC8F25
BE5D86FA
BECD3E34
BE82CD30
3E507EE1
3DC6BED4
3D5DBA4D
3B3F3342
3D49D594
BE87166B
BE0C65E2
3E7A1C7D
3D0FA049
BEA9F31F
BE5B7F4D
3DC5C1D3
3DFF97AB
BE409D0D
3D8149DB
3E59F96A
BD8A69CF
BE304E18
3CBFC095
BE091F99
BE8A384A
3D6D8D5F
3E4927BA
3E430652
3DCA4169
3E5E17F7
3E45F26D
BAA9CF4F
3C13534F
3CD5F7AE
3D29475F
3DA33D66
BD16998F
BE672E49
3DA5E294
3D5A5B6B
3CB3A183
3D4F4037
3AA346C2
3D447D63
BD997ED8
3DE8283D
BE91D870
BE06E943
3CB2F6A8
BE09D155
BC8F3B5C
BD85D4A1
3E12900B
BDC0F323
BC978D35
3E78A505
BD251B28
BD8DF669
3EA02F36
BE0A838A
3DB5F408
3D01224A
3D8C32BA
BE3994FC
3E808FA8
3D5A027D
3E4FB685
3D4F11F9
3D15FF33
3EA02B34
BE300C08
BC4B064E
3E7BB9E4
3E01B245
BD5162A9
3E6EC821
BA206EB1
3DB951F3
3D9D854D
3D8DF424
BC900AE5
BE047340
BE1FE077
3DF399E8
BDB37EFC
3E7A9F03
BD5E7E70
3DE248E5
BD2E81B0
BD977718
3E5E38DE
BAEFB266
BDAD26BE
3BEB04C0
BBD9C817
BDAA8CA4
BCB9AAC7
BE03D9B0
BD56D57A
BCEE11EC
3BB8B46D
3DA91941
BD0434EB
BE0D8106
BE2BA451
BD99BE0C
3E4C49FD
BD24D6FF
BE05236A
BCA6100A
BDCD8178
BA147B55
BDB5E443
3E3BCFC7
BDA00A08
BD1ACB7E
3B82BCCB
3E779FC4
3AF77951
BD2E4C94
3E9D8DA5
BE02503C
BE0D05C4
BDC912D6
BE85920A
BDBF23FC
3E974F39
3C1C9B61
3E40458C
BDEF7F14
3D02EDE9
3DA21C47
3D12AD8A
BE1A1188
3D12F4E2
BCE006F6
3DCED02D
BEA34BB6
3DA9493B
3DDD63BE
3DF5FCB4
BE1CC5EF
3E5CF2D6
BDA32660
3E274851
3D3B5836
BAD5D364
3DBF9AD3
BDDC04D6
BE06DC64
BD1F92BA
BD24C67E
BDCAD8BF
3BF75BD3
BE1E5131
3E67213B
3D01F220
3DA994EC
BDD5857B
3DD2442D
BDEBF488
BE023ADF
3DA639BB
BE8036C6
BDE448DD
BD84C7C3
BD12E07A
3E8B6714
3D33A30D
BDAF8205
BE1F6CBA
3D52249B
BDE965F5
BEBCB524
3D5C09C4
3E913A06
BE787DB3
3DC77688
BE3F6DEF
3D85AFA1
BE0EBEE6
BE48C6F8
3D38E983
3D8B0892
BDCFDE4A
BDB5FE00
BDBE1249
BD31E822
BDF0C126
BD88D408
3E730E07
3E86EB2D
3DA78F6A
3DE029D7
3E01BC70
3D016BDE
3D4E914B
3D1376ED
3CEEF952
3DEF196B
3DF11FA0
3E9DAB52
3E4664C6
BE2151E7
3E46A40E
BDA88C96
BD99A089
BDBD2A9F
BE0B43CB
BDFA3883
3B85F108
3D420281
BD544C86
BD4D4C19
BBFF9681
3D0E6C01
3D69AF59
BCFAB69A
3E1E9E4A
BDC1B92A
3DA6D671
3D172C9D
BDA6609A
BCAEEF51
3D0F3728
3DD6450E
BB8CBB00
3CFF545E
3E321A2E
3E28A116
3E511E4A
3DD8E45B
BC018F08
BDE86750
BDFEE187
3D9AF306
3E34403D
3D25BFD0
BB525B86
3D723AEE
BD62C019
BDABA33F
3E002129
BD1D14A6
BE0EF325
BC89CBA1
BD080CEF
3D8A0FE6
BBAF5918
BE155FB5
BEAA9CB1
BD54533C
BDBB1916
BC515ECD
BC4A3CD0
BCDDB6AA
BD384B0B
BE050713
BC9FCD15
3D3AA416
3AAA81AF
3D8370C4
3C34F540
3BDDE387
BDF6966D
3DB5801D
3E1AFAEB
3D9422CF
3D93D5C9
3C0F9600
3D4AC31D
3DE3F192
BDBD75B4
BDBBEDAA
3E83119F
BE6CE22A
3E17FBE2
3E8FEF57
3CCA1DD6
3D19CB3D
3D4B8C6E
3E2E34C7
BDBE6386
3DB87097
3D11D9EF
BD2EAACE
BDBD43CB
BE245B0E
3C87278C
BCC5B7C0
BCD09A72
BD113EC2
BCD9A2E9
BC9FC71B
BD777522
3CCEDF4C
BEE37BC0
BC3A02BB
3E399C0A
BD27CBFF
3E703DA8
3E14A057
BE0F9A50
3E7352D7
3B4F6014
BCDDE3A6
BD9855BA
BEB1AA49
3E02F42E
BDE1DA88
3DF7AAFD
BE1EF1A7
3D05D577
3DA06E1C
BDF67E5C
BCFD8999
BE0306B7
3E3E8427
BC97F661
3C8667BE
3DA87438
BE63683B
3E8228FE
3DE8042B
3E2C6A50
BD958D70
3D5F1308
BD37521F
3E03D40D
3D857AE8
3DE2590B
BD293DE2
BE2F9E17
BE2272FF
BF08669E
BE830018
BE76290F
BD7C4A46
3DA36205
BDBF2565
BDF51090
3DF19B91
3C770880
BDF1EF59
BE6F6C48
BE8D7F1C
BDD2A1A8
BBC1AC4C
3DEB2208
BDB32325
BE087838
BE9031C1
BE9A473B
BE9C3F5C
BE82D836
BE3AFB5D
BCD08E68
BE06EF22
BE96F5D2
BEDF7E76
3E2D15E9
BDE1BF45
BE10A9A9
3DB5ECCB
3E4D0119
BE109064
BCED598A
3DBE4B02
3CB69680
BD17222B
BD03D1D7
3D668F9C
3DDE88AA
BDDCD98A
3D816217
BD216EA0
BBD40110
BD27B145
3E7CE2FA
3DB7DF6E
3EA28CA6
3DA0D64D
BDA1D84E
BCBC1991
3DC47C60
BD214F56
3DB0146E
3E460ED8
3DB13163
3DB76F4B
BDC85D47
3E4BE13D
BD44B4AB
BE4118B4
3E822A0B
3DBA082F
BE12F4B4
3DDA49A8
3DBFC4CB
3D76D6E4
BE3471AE
3D3A9954
BDDAB027
3CD94B2B
3C7ED406
BD7540CF
BE50CB23
3DB85E03
BDE08E58
3D90FB4D
3D9B4476
BD179BD0
3B9C6188
3D94B167
3E61A89F
3E8ACF10
3D50ED8E
BE340230
BDC245E2
BC404AD4
3D787BD0
3D95067E
3E161607
BDB47EA5
3DB48528
3D306929
BD4F3796
3E01F33A
3CC3D9CA
3D553084
3E66A3AA
BD4E1C20
BC939F0E
3CE8CAB5
3E4B75D0
3B8485BD
BDB81F10
3C8EC65C
BCDB2825
BCC49805
BD03F8AB
3DCC3582
BAEA680B
BE37D312
3D149B02
3DECDF4F
3DC8A22A
BD803C19
3C6E423D
BDE9BA5E
BE1EBA9A
BDAD66A7
BE0D0E1A
BE2ED39C
3E0130AA
3E493BAC
3D89C6FB
3DE095AF
3DDB7DE3
3CFAE295
3E76BFEC
BCB9D7ED
BD8B21CD
BE1E87F4
BC5703BD
3D3BCB2A
3E4E0052
3E30C459
3D82BCBA
BD9D4CD7
BD6D76B9
BD97E795
3CADA55F
3D823946
BCADD302
3C2DA971
3C77D920
BE60DD39
3E5EA81F
3E56E767
BDCD31E2
BE31BF82
BE29AA38
3BDFC413
3DFF8E70
BCA7AB50
BD9A7AA4
3D956D78
BD908C92
3E99FDB6
3E223B9B
BE516576
BE728508
BE9A5F0F
BEA2C53B
BE94E30B
BE4B7C8C
BE2D3621
BD3510F1
BE2B2266
BE877FB2
BD991FF2
3D146865
3E62A583
3DA0C970
3E08779E
BD1060FE
3DE513C3
BDB9DC0C
BE029FB8
BD24D874
3DB87260
BE0F1AB4
BE6C33DD
BEAE25C8
BEB24A17
BDC17632
BCCBF7E6
3E5E777E
BDF05B47
B8B1FA88
BE4C5388
BE54BDE9
BDE21DBF
BE048069
3E3C1E30
BD809C5E
BD902543
3E0BA2AA
BE037C64
BB42C772
BD176A8B
3E52EEDC
3D21BB09
3D5474CF
BC54E6A2
BEB2140C
3E4096F8
BDEB3E4A
3D6EBBC2
BD4FC149
3E2A3BCA
BE44EE6F
BDE5290C
3E495AEC
3DEC5982
3E94D336
3D50E060
3E60A7B8
3E07804F
BE48D58B
3DDDC5A1
BD93F11C
3DB993F5
BDAA2E07
3E809FBD
3DADA9A5
BD07E36C
3DE28D94
BD4605FC
3BC027D4
3BE403E3
3DC1496A
3CC50208
3DA162A0
BEAE0BEC
BCB0C85A
BE060A42
BD4B9217
3E2BFDAE
BE372D65
BBF8C90E
3D58C1CE
3D8E19CF
3CEE8C0F
3D956332
3D929C28
3DE05914
BE4E8357
BD7092DA
3DBA07AD
BD9CA698
BC8A5076
3D73F6BA
BDF3E418
BE252C3F
3E2FA6E6
BD0AC927
3D30E733
BD754943
BBDE9B4C
BC1CFA7B
BE447B96
3B18C68F
3D4D04A0
BB7D8A33
BCE6976E
BE00E213
3D5ACB48
BE9A9715
3DBCAFAD
BE8A3748
BE4F3A22
3C861299
BDDF5FBA
3B247EBF
3E808F43
3E4FECC9
BE1490F4
3DE7AC9D
BAFF6605
BE2A8AE7
3DDA7A34
3E306D50
BEC5D9D3
3D30022E
BDBBEFA1
3E10C2D3
BDAA70DB
3CFFFD06
BE0D5E80
3DBD32CC
BDE6308E
3D38648E
BDC183E2
3DAD1D30
3E0130FA
3D6505A1
BD2F6693
BD72B1E1
3E1D2D7B
BDA30179
3D5C7B59
BCA33198
BDE663F0
3DBA368C
3C9C10DD
BE056990
3C934059
3DD9232A
3C9A4ADF
3DE0F777
3DA55DF2
BDB2ECEA
3E8FEC00
BCC3ADD5
BD3B924A
3E9E227A
3DE88087
3C712465
BDB3AD6F
BAA80952
BE591391
BBD0BE2D
BDB23C22
BDB257A3
BDCCCCA2
BDCC0727
BE646668
BEB72856
BEDF897C
BE98AD4A
BE9B34C6
BEA4480D
BE3AFA5E
BE13FE19
BD9350A4
3CE3007B
3D1A5932
3D90BCE1
3F01539C
3DFBC680
3E4B5584
3B89C150
BAFAE5E5
3E2B5A0D
3C8E5812
BDCA99E6
BD9B0CDF
BB1BDE1C
3E2D881A
3E2FC9AF
BD7EC29B
3E61F439
BE123A16
BE0697DE
3DF1C715
BC527127
BD90455D
BDCCE0B9
3D0D5632
BD64AE68
3D644C7E
3D7C2C99
BDD15733
BD9EE864
3D3F2E3E
BC72C687
3DA5C05A
BE15D3AE
BD36D18E
3D36334E
BAFD0832
BE0B905E
BDA79D6F
BDAEB58B
BE11403C
3D190EE5
BDCEDCF8
3D171017
3D3C93E7
3CF12E26
BDAC93CE
BC004CD8
BE642396
3C1FD2CB
BD1037D9
BD9A10CC
BE2E102E
3D7CE13F
BD41D2EC
BDD69B32
3D3A40E4
3D9D8252
BDB5165C
BE11EE96
3E2FF6CC
BD3F11E6
3D7FFD3B
3C80F7DD
3D4AD0D9
3DB993DF
BE56CCFA
3DFC90E0
3DF9BC27
BDA950DC
3E0779F1
BDC69166
3DDBF0EA
3D178DBB
3C0FC153
BE2331C9
3DFDC30F
3C8469B7
BC6309DB
3E590A3C
3D8FB4C2
BD2437DB
3DCE9E36
3D931638
BD7D1BC2
BC1CF7B4
BE20DA72
BDE00EF1
BC86D97E
BD7C27BE
BDA7522F
BD0B2400
BD881379
3E2C7B4D
3E05A0D2
3E427F22
3BE2B8E1
3DB0EF6C
BE3C3201
BDA1A6CB
BDBE2322
3D69B70E
3E465E17
3D808E45
BDD9C894
3E2415F4
BDC8283C
BD8E3CFA
BD9AA53A
BE84B4F9
3D5B515A
BD178555
3E69AE27
BE4F688F
BCCA2B6D
3D8E7C2A
BD950D05
BE10344C
3B8722A5
3E00C777
BD8963EF
3DFE0D4C
3D9B6948
BE5F8D3C
BD3EB750
3D7D9B67
BDCD7ADD
BCBE4677
3DB684C6
BDFB01FF
3C0FE631
3CF7F23A
3DE2AC17
BD9DE792
3D79F6E7
BE8DEA54
BEBF7E3A
BE2DBD0E
BC9FCD0F
BD259DFC
3D948FA2
BBD73E3C
BDD5E6A2
BE292CF1
BE00A7F5
BDE795CE
3D034346
3E184189
3EB2AE12
3EC496AE
3E8565C6
3C626DB3
BE4C0D33
BE2FA370
3C8F760A
3CC62FDA
BE25EF27
BEC28DB9
BEBD2E5B
BD20381F
BE851669
BED1D96F
BD68FB9A
BD9E9B19
3CE0CC33
BE45AFEC
3E00FB30
3E7AF77C
3E287776
BC0E51F1
BE1D0467
BE39E14C
3DCCBC98
BC8F8A31
3DA90D15
BD76BBFF
3E7F342F
BD884779
3DC68C26
3E4F850E
BE2BBD89
3D8F1CDD
3E21CB39
BD5657AE
BD3F70A6
3CCD7A27
3D0F7056
3D81134B
BCE7277C
BC3F4F41
3A815B9D
3CFDEE98
3E69236D
BC92F027
3DC85C5E
BDA93DC7
3E8BE498
3E10D936
BE16B2A8
3BE3ECA2
BE120C07
BE92F69E
3DDC7A1F
3E206496
3D84D6E7
3D1905E0
BE32BD3C
3D6BE864
BD4A3CBD
3E252D74
3E0F5F41
BD97C9A7
BC03C18F
BDA20006
BE4C9364
BDD4C61E
BD583627
3D318DAC
3E471BB3
3E0E2E03
BE92E0F4
BDECB047
BD65A05E
BE142F55
BD903A38
BE94119E
BE2E2182
3CAAC038
BDF251DC
3DA1788F
BE77C420
3D39FF78
3DD97303
BC9F62F2
3D6E546C
3E2F4880
3E852CF8
BD94E9C4
3E0EBAF8
3D8CA4CF
3E8B7737
BEE4E63A
3DA1741A
BC22754C
3A2644D6
BDD55CBE
BDDEE823
BE1DFADE
BE2F38B8
BD4D73FC
BC0F8254
BE92C9C7
3D2647F3
BEB0EE03
BE84D1B4
3CE21C3A
3E620811
BC6D7523
3B132DBC
BC95777B
3E2E4600
BD8ADE2E
3DE02F73
3D7EF59F
BE937AA2
BDC2C1C1
3D124E9C
3E73AC85
BBF80001
3D3B03CA
BD814479
3E668A8D
3E01D8DB
3DDEE7DF
BD77F85F
BE33FD1A
BD3500F9
BA9257F6
BE0884EF
3DB34AB7
3DB2C45A
3DC03321
3E9D8D12
BD59BED6
3DF7EF9E
3DDA0E84
3922E587
BE0EBBFD
BCAAC3B8
3DED8C96
BDA07FA6
BD1E7008
BEAF4CBC
3E31FB5A
3E23804C
3E8298E0
3E1937C5
BDD0AC55
BDF8AEFB
BE2D096F
BC67E7C6
BDFEF277
BDC36620
BDCC1202
3CA653C2
3DB7ED36
3E61BD11
3E7BF303
3DA95971
BC5418FC
BE22A066
BE8753C2
BE37F8B6
BDCCD607
BE21C814
3C4CB0A8
BD1EC07D
BD62FAE7
3D24D133
BDBBB98F
BDC1D6A9
BDC52EE4
BD8F314F
3A8FD39D
3C906BD9
3DFE5380
BD039518
BDB4B237
BD8DCFEB
3E18D9D1
BCA6FA45
BD958242
3C987806
BE3CBC3C
BD6CD23E
BD646F76
BDD712D7
BD8DD6DA
3D3D154C
BD4E1524
BE81827B
3CA0BD85
BA03D870
3BF6BE2F
3DC404CF
3C4E0CDE
3E27D7F2
3C9E9770
BE7B1D7F
3D4FFD64
BDC47F94
BACD03A1
3DC6A339
3DEDD822
BE355F49
BB9ED22F
3DBB775E
BCC681CF
BD683DEC
BD81954D
BD6422AF
BD2E368F
BDE86C15
3D852215
BE3EFCD8
3D909623
BDC5C51C
BBA2CBC1
BD94E08A
BE069D30
BE07DE9A
BE2C3B3B
3D55E83A
3E08F840
3D09BF29
3D299560
BD3E239A
3E13B8BC
3A90D50B
3D022514
3EBC81E4
BDAC6CBD
3E01011C
3D4163E0
BE35E02F
3E21ECD5
BD0377B4
3E1F9AA1
3E01DDEA
BD78233A
3E024928
3DB42B01
3E98E896
BC63E0C5
BE76B6E1
BD42BB7C
BE6B2ABC
BD626B75
3CF152C3
BDE75D4A
3E39B189
3B0D592B
3D2AC23E
3DD0F3A3
BDA473F2
BE13CE8C
3DB81B9F
BDE27921
BD3B57C8
3E1BFF1F
BEA3D435
BD94442E
3E46EE4C
3E07385A
BD86DCF2
BCE11899
BE02D066
3DD10152
BDFD0544
3DB9D113
BD0107C0
BDDD2B39
BDE4E9A9
3DB878DC
3C39BBF9
BC2954E3
BD85D3F7
3E2F184A
3DD1CEF2
3D2B2212
BE051A07
3D1DA0D0
3DF505DE
3DE57B42
3D1B12B3
BE0F9DB2
3DA83D6D
3C2E6E5D
3DB67CC9
BD52846C
BE12B0A7
3DA4D66A
BD48F278
BE3C85A1
BE2071EE
3D651454
3E00AB0D
3EC72CD1
BD05E44E
BE1F70D1
BE0F8CD0
BC1983FA
3C809963
3D001F47
BD820035
3D3BA6C5
3D1E6B8B
BD12F8F1
BE84988B
BE3EFCE6
BE08B637
BD51D4CF
BD812385
BE08E03D
BDE65A07
BD626858
BE3F277F
BE6E28D3
BDCD0DDD
BD161B70
BE0A7B2D
BE8A79C2
BE2DDE8F
39ACF0FE
BD2DA278
BDA05E3A
3DA06939
BD22A704
3E73DDE8
BE5A0BC4
3E0C3FDF
BAF5391F
BD3557C1
BE33FB60
3E455BB9
BE0932A8
BCA2EDDC
BEDF8AED
BE19C2D6
3C2EB1FA
3E0E85B3
3C28A86B
BD18108D
3CA7A012
3E5F83A4
BDBDA960
BE14EE54
3E260D67
BDBB5848
3D4BFE73
BE45DF80
3B4EA1E4
3D57A6D6
3CA55C81
3EAA4F08
3E695A01
3E017325
BE53A521
BE50DCAC
3CF38DD1
BD69C1AD
3D86EC7D
BE6FB770
3E59D176
BDBFD69C
BE24666F
3DD957B2
BE48A0B8
BE6BDE0A
BCF5E8AA
BDD1436F
BD539ACA
3D576926
BDBDAC33
3BDF40CD
BEDF78D7
BD7ABA05
3E3BC1E9
3D3B802E
3EBF3CB1
3E193547
3C221F01
3D88E4E6
BD6FCF51
BD5D0E79
3D910E7B
BE062EDA
BE789BF3
BE76D133
3E01091B
3C62C014
BD43150E
3DB00B86
3D82EDE5
BCC0257A
BC44D4B1
3E687959
BE459D1A
BCABAAD9
3E302972
BD766592
3D4393B9
BDF64D64
BE26297A
3C3780EB
BE443B64
3E253F70
3D049E48
BEB5BD6F
BE1E8EAA
3C03A2D6
3CEF6E83
3CDF01E3
BE15AA6B
BDEB4DCF
BD673D31
BCE8EC22
3DDD0884
BD9422FC
BE60AF0F
3D83F548
3C974AFB
3DDF8170
BDCFE154
BDF30942
3DB2BB81
BE37C14C
3DD83241
B90DF8CB
BD1ACD5E
3DD5F89D
3D901A2F
BD2B990B
BF044AFE
3DE657C6
3E5AC988
BCAB96C2
3DDBB1AF
BE460FA8
3D91AD97
BE399B47
3E156B4B
3D778F84
3E5BFA75
3DB74074
BE7A91C6
BE333EA8
BD537D20
3B0A041D
3E4A6EE8
BDBEA956
BDF8F169
BE084154
BC7064E2
BD7EE8A3
3D2EF86B
3C4980FD
3B01E3C5
3E0065EC
BD613694
3BAB6343
3D3CA5BB
3DA9F85C
BD7240DD
BD18E549
BE1BCC73
BE162387
3CAF77B2
3D53E418
3D3FCCA7
BE16F2EF
BE07257A
BE8D4FED
BDF29571
BDB5153A
BDE863CC
BE3D6EB3
BE8D2271
BE255DE6
BE42ED2E
3C4B9ECF
3E18E878
3E3824BA
BC709BEA
3DA26DD9
3D21B31B
3C8EE7B5
BE88BA23
3E8557A2
3B44074E
BDAA9A19
3DA6AF26
BE195E47
BDE2423D
BE57173E
BDFEF5D2
3B125BD1
BDA915E3
3E7919BA
BD51BAA5
3C3229D4
BD70C8D0
BE5611AD
BCFCDA0B
3D99CF2D
3E3F1B76
BDDC1EAF
BD97F805
3E1CEE03
3E351981
3E0F2DB5
3C16DAD8
BD83A5D9
BE062E8A
BDAD6DCC
3DAFADF2
3E8BDFAA
3D304A53
BE07B579
3DF3D65C
BD1F9970
BDCB877D
BD253FC3
BD1C67F3
BBD566FC
BE541EBD
BE2AD61D
3DAA69AA
3B39DCB9
3C8A4E68
3E2DBBE0
BDEB867C
BD3C7E81
3CC24027
BDA035F7
3EBFFA38
3DB8AB36
BD396C55
BD57A0EE
3E3EF834
BE3EDD27
3DEAFAA8
BD9CDE62
BCC103A6
BDC3C9D3
BD7C5ADF
3B6B7DA3
3B30E391
BD9E4FB5
3E1D51FF
BD19A213
3DF3F530
BE1A1A1A
BE8F1E8E
BD5DBF2B
3EA40B5D
BD5532F0
BDA7DEB4
BE86C8A3
BE02DC38
BD9D6F9B
3E17F547
BDE7C584
3D82A2CC
BCE12549
BC5A6D09
3DA49FE0
3D79D99E
BDCC97E8
BD89D3CA
BE144178
3DB729F4
BD8A4443
3DF5654A
3CFE47E4
BED68D80
3E6931F9
BE24EC63
BD280D3A
BC87A05D
3D9CBCC8
3D5E83DF
BE3860A0
3E66D6C8
BE5D902D
3DBC9827
3D3239C1
BD07199D
BDA69272
BED6AB08
BC87087D
BE1F31B8
BD0367F7
3E278855
BC95DFFC
BBC85DF9
3DF64E56
3DE1CD88
3AE281C8
3EB22A9B
BD193D05
BDBA0632
BD9EFB3C
BE05AF7A
BBEFEAA1
BD6F1846
BCD5740B
BE5CA97D
3DD55BB2
BCAE5E47
3CBDBE37
BE315494
BE122BF4
BDE108FA
BDE76A80
BD182ADF
BE03AE62
BE0AA2DD
BD8A2E05
3D5D0770
BE82A583
BE119B3A
3DEB62C7
BD9A59DF
BEA30B94
BEAA1544
BE8CB20C
BE4C3F4B
3D76F496
3E54BF32
3DF68D76
3E814106
3EC4FCC6
3CA5A44F
3E3AE423
BC65D816
3D795B4B
3C8812FF
3DC78E5C
3D03B9CE
BCE6E54C
3E191F20
3D0A7EB7
BC68BB20
BD226AF4
3D313A12
BD0F6487
BD05EFF4
BDE39673
BE31F596
3DA78A77
BE799935
3D0D0714
BB0F90A4
3E64283A
3E1E361D
BD0B051C
3DD2BB16
BE88D856
3DC27A5B
3E18C4EC
3DF2B8AD
BD101E8C
BDA422CF
3EB29670
3E29AAE0
BD855918
BE14AE3C
BE2B872A
3E181AA2
BC9E0884
3E1BD6F6
3E78D1CB
3CF7AD4B
BC62BCF9
3D599911
BDF3201E
BC82CEE7
BDFDF9BE
3C2B8971
BD0A6712
BE6B34B2
BCF0B402
3EA91A87
BDE7D30B
BE1B95FA
BC62EB12
BCF33099
BEAD1EF8
3E15B81A
BDA4136C
3E9D56E6
3D819C7E
BD297B7F
BE927610
3C9D6D79
BE858175
BE213E08
3D8ACEA4
BBF87B83
3D62C1D1
3B37BC5E
BDA50813
3E9E5DF5
3E1B2FD8
3E196F15
3E05E496
3DD9FCE6
3B9D40DD
3E30346E
3E1662E3
3E83B580
3C88B028
3D126B80
BCC77D88
3E032024
BBC39914
3C3CCEB3
3BF9AD3E
3E17ADFA
3C25DF6D
BDBD08FE
3DA18425
BE08004A
BDC988AD
BDB08959
3DAD8F0E
3DBF1058
BE91A18B
3D420EA3
3E3043D8
BBC9B2B3
3EAF47EC
3E21F3FD
BCFE44CA
3EA7D955
3E3AA5EE
3DBE974A
BE2B9C88
BE247193
BD7991CA
3D8152B3
3E92AF3D
BE5A7D53
BE199FA8
3DDC324B
BD86D1AB
BCAC726A
BD279E6F
3BD96243
3E3A737E
3D6CB250
BC879DBE
BD559119
3D818F29
3E6AA20D
3D4D2ABB
BDAF74BD
BE9727A7
3DA9B5EF
BDBA2C07
BDE42D8C
3DDFAED7
3DDFCDFC
3C9C6353
3E00D5F0
3E2A354A
3D37D673
BE15A60A
BD824F41
BE62C450
BD878870
3E121D40
BC81C3E5
BE70F3ED
BEE37C17
BEE24E48
BE2EAA45
3C3D6856
BE4BDB64
BE56ABBD
BE57CA0D
BE50AD4E
3AB01F6D
BD891AC6
BEA2C7E8
BED4640C
BE8B80D5
BE8B265B
3DE1AB81
BE69D742
BE0AA0F3
BC969A26
BE49F71B
3CE7216D
3D6D530F
3D33BA82
BDFD7633
BDB55039
3D8F1966
3D7A19DD
3DE0F868
3D61FB83
3D3CB67A
3E2904E3
BE340A5E
3E98DBDC
BDD1A0EA
3D48BEC8
BDF3627E
3D7DDF51
3CAB2664
3E224A35
BD42A117
BDF121AB
3BFB317A
3E1089F1
3D907ED5
BE3BFD0D
BDDC9A42
3DE0474E
3E2D120F
3EAB9F95
BC44A3BE
3CBDE030
BD10F967
BDA810A1
3D2D67BD
BE3217F4
BD7E7A92
BDAEA38A
3D9541DE
BE80C286
3C42B10A
BDC76F21
BD006741
BE1A0650
BD1F74A2
BDA15E09
BBAF7DD6
BD331FC0
BE5A80D6
BDFF54C4
BE015846
BE0D8312
BDA39E90
BE10BE65
BD7E2115
3E3E54BB
BD726A46
3DA9004C
BDA4B14A
BC5DF036
3E0A8DFF
3C2BABE0
BDE048AB
3E268A86
3D808CA4
BD84B2DD
3D3B97B9
3E434A7A
3D6DB441
3E150F2D
3DBB0C06
3E0D1004
3E7D5631
BDBAC48A
3C1BA85E
3D6D0D64
BE96C0FF
BD36FD37
BD62395B
BCAD93F7
3E3826BF
BDC3B8EB
BE0450BA
BE5D9337
BD57C5CF
BD07BBD6
BCB54A2F
BBCE5DA0
BD8C6874
3E3BA4A1
BDB38164
BE9D5B94
3CA79388
3E2E180C
3DC5F503
BD9E950A
BD8B7A27
BDCBD1AD
BD6A1A9B
BDCA7045
BDAA0EEA
BE1C5F6F
BADC4837
BD1506B0
BCDD4815
BE02CC8B
3DA1A0B2
BD474ACA
BDA2F4F8
3C1208A9
3E239284
BB6C872C
BE046A35
3D8D582D
3E0E3D88
BDBD7422
3C91DB14
3E16DF97
BCE1A7FB
3D0A5836
BCA75930
3E1DF6BA
3DD3BF80
BE17262F
3D0A7E46
BDB60A83
BD2B69FC
BC4322BF
3EAA22FD
3EA6F6F2
3CC6FC38
3D1334B6
3E2E2698
3DD3F00C
3E0B6E50
3E2B2499
3D8BB076
BDC23696
3D95FE6F
3E562761
3EBC24CE
3ECBF089
3E26640A
3DC7114B
BE198902
BEB90972
BEA2DA3E
BE09B612
BD4A1E92
BE1F956A
BE456118
BEA69308
BDC1B061
3D15D60E
3E31AF3A
3DB8DEFB
BD56EE77
3E10038A
BD485704
3E830E29
BCACF5F8
BDBB03E9
3C87D831
BDC41315
BD7D567A
3D829B3F
BD61CA68
3E5880EC
3D63121B
3E30F996
3AAE5CCA
3E83DDCA
3E001E11
BCAEA1A4
3A8F5743
3B395826
BDDA07B3
3BA64987
3E104D70
BDD52B40
3A7B49A0
BEA36ED6
BD81E683
3D00A6C7
BD98E1F1
3C9B5861
BBB19AAF
3E177F21
3E3CB296
BDA446B5
3E70D95F
BD9D357D
3DFDEB7B
BE8A203D
3E36C0E4
BD4EB5A8
BDD087A2
BD4432F0
BA7BB301
BDE036BC
3E3383A0
BE0FB9EE
BD4F0942
3CC861AE
BD6A7861
BE92ED49
BD87323D
3E05898B
BCF01E4B
BDD48E8A
3D7B12E9
BE2C142C
3D7B6353
3EB1BDB2
BE7B7854
3C8F818D
BDA9F4D8
BC936548
BE08E234
BD617F44
3DF3E10E
BE42AD96
BCC513A6
BD07A709
3CD511FB
3DE929AA
3E08F66A
3E3D7236
BBB726EB
3E2A37F6
3E32C2BD
BE8BAEA8
BD236321
3D723A02
BE8B4AB0
3E1AC3DE
BE3CB924
3D6C71B3
BC016E83
BE72D3E2
BE0FC823
BDA97524
BE6CCB98
BDAAABF4
BE0A4E45
BCCB8295
BD8C111A
3D772231
BD5E6828
3E2DFF46
BE0BACBB
BEAB5B8F
3E05FB8D
BD4D9377
3E02593A
3E316243
3DACEA86
BE18DB92
3DDAEA3F
BE376542
3EB6BC08
BDFFADB0
3E44893F
BD3EDA63
BE238E52
BD57C3F4
BCADB6F8
BDA3DFE4
3DD08EA9
3E45A1DF
3CFBE040
BD8B1120
BE0A8D51
3E28716E
3E52B651
3E9C48E7
BE545572
BD3B70FF
3E1A9B86
BDCB65A6
BD484E43
3D6728A1
3CB4FF20
3DAE2D8F
3D06FE11
3DA356F8
3DF628A4
3CC63D11
3E3232E0
3E97B194
3DC93FDA
3DF7C7C5
3DB8DD47
3E6686EF
3EA028E8
3EC8373F
3E436036
3E825A2C
3EDD19A6
3EDCE347
3E77CABB
BDB035AB
BDC1D789
3CAE949E
3D9A6B30
3E6F77A9
3E94BBFF
3E4EDEE8
3DA68641
BD1F23AF
3DF1A686
3DC58BA1
BDF1857E
BD7C9567
3C8CC49F
BE34482E
BD70B6E5
3DA65F87
3E0624A1
3E392B80
3DA12BED
3D5A49A3
BD878A11
3D8CA91E
3E006940
3DE907D9
BD42F515
BE04FCD3
BDD20840
3E2076C0
BE212FE1
BD2D0349
BD97A333
BDC69B0F
3DB9236E
3BD505A3
3E1EDCCF
3DBD9203
3E4BD99C
BDAADA8A
BE4353AE
BE02D942
3DFE0689
3D1ECEF8
BDC3B8DB
3BC0F6D6
3D938998
3BB75A12
BC9BD3FC
3C28C0C9
3E170CD6
3B60F7E8
BE58419D
3E025354
BC8C3BD3
BC7EEC19
3DDAAD96
BE295E5B
BE564A24
BD353940
BD1AB0C6
3CECE8E2
BE426F0A
BE2507A7
BE262146
BDAA32DB
3D37475A
BD532DCD
BE46391A
3C231FC6
BD2E3C7E
BDF36DC3
BDE42FCD
3EAC2013
BBE24918
B9C111A0
3D5B3205
3CED87B3
3D825999
3DF7A4BF
3E40D06E
3E651FE6
BDF7D920
3E73C31E
3DF9492D
3CE93EE3
3D4AE254
3D68F5DD
B82A9501
BD345361
BDBD17AC
BDFE8922
BCA34C45
BD483757
BCA11996
BBE6EB04
3D757590
3E03BCCD
3D36E748
BDC5FB67
BCB9585C
BD50D753
BC3FAB31
BE1538CE
BE972668
3DE5BF92
BD30265E
3DEBBADC
3D89D337
BE0AA4A5
3DD25255
BD345367
BE32FC77
3DC54838
BE004C27
3E396766
BBE8EF22
3E526A9B
BDC83BE2
BD5AB8A6
BB9B7461
BD24DCEF
BDBF8D68
BBBC3CC5
BDC9A37C
BD08418D
BD91FA98
BE0BCAFB
BDC1531F
3DAF2222
BD49370B
BCA0953C
BE49D169
3C5CC7AC
BBC79246
3D94B44A
BE871FC0
BD88745B
3C12BAAB
3D3EBE97
3E119ACE
3E313A6A
BE993B59
BE9928BC
BEAC1C17
BE2C2EB3
BCEB4E42
BE019696
BDE0B2C8
BAC22590
BD810E36
3E16277C
3E55143C
BCA5E7E6
BC0368DD
3D38BE3A
BC89F953
BCD8FC76
BDF8A7CC
3DA6826A
3E5C73F6
3E2BB610
3E1ED8CD
3E8E479C
3EABF99B
3E21A2EF
3DAFD61C
3CDD3A48
BD93568F
3D62D8E8
3DEF5558
3E4FAAA5
3D5C7D7F
3D3D9191
3D077ABE
3E08FB65
3E1C6B71
3DF7512D
3E05772B
BD579EDD
BE3E577C
BE0251BB
BD810533
3E9B99BD
BE5FD9A6
3EB2F160
BE0205C3
BDDAEBD1
3EA95959
BD2EC3A8
3C2A4045
3EB71002
3E50CCEB
BE6214A7
3E3ECF06
3DCC1F66
3D58C6C9
370E6B21
3D97E181
3DADD5B4
BD7E714D
BE89A504
3D83B088
BE62399D
3E66E44F
3DD413B3
3E75463A
BE227405
BE6D40E7
3E13D677
BEA540DA
BE1698BB
BE87CD5E
BE080970
3D913A90
BE16AF0A
BE3E99E3
3DE3765C
BC83E8EE
BD7919CA
3E106A89
BCA9FD4F
3DA0C8C5
BE2A088A
BDA345A4
3E8A3982
BD7B1CE2
3DBBA6CC
3CCA1BA8
BD907175
BDD31594
BAE64C25
3E34BF97
3DD8E001
3D7A10E8
3E9C57A9
BD0D4327
3DFA931C
3CD87501
3DD09826
BE462896
BC94D52A
3DA1CE75
BE412217
BDD5B666
BD86C4EE
3DBDF81B
3D930B87
BE09913D
3E63A28F
3E217B96
3D346B72
BE94C689
3D93BFD6
BC6216F6
BE3944E7
BE2BCB6D
3E109FA5
3E9C2A9D
3D4A0FA6
BE56B71D
3E0E1332
BD806333
3E07D779
3E7C111B
BE05489C
3DE04718
3C6718DE
BE03BFF2
3D7D9016
3E46B273
BD97B477
BD90C51C
BE0AE346
BCEE1F38
BD18B797
BDFD3664
BD7FEE55
BE289390
BD7F8658
3EA27240
3D99B5DB
BDA88713
BBE7B0BA
BE310E8F
BD59E13D
BD5B2718
3DF3AF5A
BE277773
BC118960
3DF2B778
BCCCBC77
BDDAC124
BCA13656
3C910241
3E6DF747
BCB87547
3C227754
BC8F672C
BE06272C
BDCB774B
BD1C1B2C
3D5A56A6
3D5703D0
BDBBA368
BD511854
3D9BA033
3E5406C7
3DB536C4
3D8CDDF8
BC67F6D5
BDD2A008
BC0FA0BC
3DA07885
BCC6C155
BE14423B
BE238399
BE0D42A2
BE46C417
BE918663
B9957E4E
3CE8B622
BDF14DD0
BE2CEF7B
BD993866
3DD2685A
BE0CBBD7
3E174814
3E1D1AEB
3D8B1444
3E3610C9
BDC0CA47
3D705672
BDBBE9A7
3E03BBE8
BDBDAC71
BE426381
3BFFD608
3CB44973
3D62C6EF
BDAA0FCA
BE0B5512
3E4F1638
BD392F36
3DF997DF
3DB23B42
3D0361B7
3D44C887
BDA0A31C
3DB3D4FD
BCA25961
3AE730AF
3E631056
BC194CD0
BDB85E77
BE1FF20E
3DC0DBDB
3E50AA36
3DCC4EEA
BDBB1C8E
3CB5A650
BAB2FA83
BE818977
3DE8CF54
BD5E334C
BE968E13
3D6C2834
BE147850
BE02D3CE
3E18FABE
3EBE09E7
BE174342
BDF38E7B
BC3E69D3
BDD16FF2
BE6F852F
3D99A17A
3DAE3DE1
BD612615
3D977AC5
3DE26E11
BE8339CB
3D888E04
3DA01458
3B98064D
BE104BD7
3D1E000E
3D9265D3
BD8145B5
BE8C6405
3DF28A39
3C8AC581
3CAFA071
3DB4F373
3DEA29FD
BE908D2D
3CD08076
3E852399
BDBE5EA3
3A93029E
3C408AF5
3D32ACE6
BCAAEC48
BDA75BA9
3E74467A
3CF36DCB
3E2D9BA2
3E02160A
3E063348
3D61ACD6
BD5408CE
3DF31F7D
BD42B180
3D9ECF4B
BD6997D4
BCA26F91
3E53904A
3D3139F7
3E793BAC
BE218329
BDF2BFB3
39D2B83A
BBC388A1
BDDCDDF2
3E012210
3901D2B3
BA114426
BE71DF33
3E230CC5
3E8AD323
BE017035
BCBC89BE
3E59A947
3D763731
BE182243
3E641FF8
BC9870B5
3CEED41E
3DA9EAE4
3E107FF4
3D591208
3CCADF72
3D805E11
BDA38CC5
BCC36E95
BD19CA16
3D32A650
BD031797
3C4F80DC
3DDE8732
3E256EA6
3D718741
3DB92710
3E872C26
BD987C98
BDB5E3DC
3C705D80
BE5C64A0
BE8BC4FE
BE2FE253
BDEC6C7D
3E11B061
3E0B2662
3D367436
BC94D331
3DE5569C
3EB7580B
3F0AADF4
3E00DC19
BE23AE8A
BE97CFA6
BEE6A458
BE9E4939
3CF1E98C
3E3684A7
3E70F91E
3DE29A87
3E249386
3E159F90
BD924117
BE1466CD
3CC487CF
BD960CDB
3ECED3C4
3D21B75D
3CAC1C79
3DA5FD07
3C1C4731
3E54ECC1
BD99C31A
BE2404F1
3CF4F941
BE5193BA
3D700069
BE13B7E6
3EC5F1E1
BCEEE60C
3D93243F
3DB2D620
BE27E56B
3E02E452
BCFCDBA9
3D967F04
BCBE0ED9
3E167EBA
BE92A356
3CD52FBD
3C76CB84
BD7450B2
BDC93E65
3D1DDD3E
BDDBF57A
3D1198CA
3E0F4C9D
3E0F61B8
BDBAB38F
BDB088EE
BD4101E0
BD2FE210
BD9601D3
3D85ACF6
BD405F71
BD1F2019
BD8279AC
BD0017A3
3DBCE1DA
3E710343
3D6F7D89
3D658CBA
BBC19181
BE361474
BC10CD1D
3CE012EB
3DCD612C
BCF6FE7A
BDBDEEF0
BE261A0A
BE39D56C
BE816C94
3E68C2EE
BDBC72F7
BDC53D1E
3E0F44B3
BE942972
3D1A75D8
3DA9DCCF
3CCEFE4B
3DEB645A
3E566532
3E244D66
BDA3C816
3E483311
BD9F3D16
3E95E167
3DA60DA7
BD919BE4
BE156B01
3E9A4DB8
3D812F40
BD71C504
BDC05D37
3E09075A
BD9A15DB
BD247FEA
BDAFC9FC
3D834DC8
BDB42F30
BCE3F431
BDCC6BE5
BD649A26
BD7822DC
3C020CD3
BDED37B4
3DB4C299
3E212352
BD5C60FF
3C8F1A04
BDE4E5E3
BDB68A0F
BCD92B9B
3E0ADE8E
BD9F1865
3ACD6966
BE009B01
3E174F28
3D1FB425
3E1964A6
3C5A7BAC
BE73AA22
BD54A7ED
BD6AF73D
3DCD9E91
3D53D5A0
3DF6F41D
3CEA5818
BE3F556C
BD35D8E8
3E3405AD
BC860CDF
3C276C0A
BEA39F88
BE28DE53
BD76F3B7
3D4EF8CF
BDBB8F09
BE9B1458
3E23C31E
BDF9DBFA
BE568881
BE67F6DA
BE172120
3D332859
BC94BBFF
BE5C568C
BE58FE19
BDC93792
3DF30E3D
3E04FF51
3D02629B
BDD73231
BDE0A061
BD899754
3E68BE94
3E3E72BF
3DB8A510
3E19133A
BDBE9C28
BE87B1CA
3D713963
3D85CCEA
3E118585
3DD8AC0C
3E4DD1A9
3E2DE0FF
3EA0BF5D
BDD6819C
3B4F30D5
3E2E376C
BE8475E3
3EA41480
3D95CE09
BD652C42
BE0754D9
BE05A0F4
BD999D2D
3D4EC283
3C785E2B
3C8F7249
BEA87582
BDC06518
BE4AB431
3DAB79FF
3D91004C
3D6ED05A
BD811CFA
BE1D261D
BD75ED47
3E66F5FA
3D93A187
BC5C125A
3E30ADEF
BEBDF2CB
3DEAE460
3DC856CD
BDC39B06
BD9FD444
3EA88781
3EC13367
3D0FE8B3
BE220DCF
3E88B67A
BC51BD6D
BDB73A0B
BDBFCA9A
3E39651E
3B4FE6C8
BEC52609
3DAF710A
BE8D5139
BE6FAC67
3DA01244
3C261C9F
3EA1AA3F
3D2ADEAE
BE4E41C7
3D6449A1
BE830D66
3DAA84FD
3E6BF361
3CC19B86
3D816473
BE18B765
3D69DFF3
BE697B9C
3CE7140B
3E905ADC
3E3C2FE1
BED199F4
BE8FC1F0
3D2891FD
3E348938
BE1B83BB
3E4A7D09
3D98D4A4
BCF4D788
3E30C34C
BCB7D6CC
3E03BF0E
BE73B610
3BB7643F
3DAD8C87
BDA0AA5F
BE84F7F3
3DC57F67
BCFCC35A
3D082DB4
BD84BE08
3DDC7EAE
3E2C8077
39E8A4C5
BE50F606
BE4F9C41
BDFCB17C
BE490D97
BDB8062E
BE0AF3EB
BC19AACF
BE23B682
BD1BDE68
3E462889
BE50D6CD
BE3FEB79
BD8B0854
3C852213
3DA17DBB
3BE0539B
BDF97CD1
BDFCE2ED
BD2F50B8
BDB8DAFD
3E2621F4
BDD68BC8
3D9C8199
BD536C94
BCA6EF5D
BE3113F6
3D7F694F
BEBBF0EA
3EC7098F
3E13C537
3CA45341
BC8FF9DE
3DFB1458
3E5DDACF
BDCF87A0
3DF5D91B
BE37311E
BD235BCA
3E375AAA
BE9CD00A
BE029465
BD679F7C
3E2E1CA2
3DBB032D
BE212FB8
3E180CC4
BE065633
3E79E054
BD344AF8
BDE7F52C
BE29B81D
3D86AE0F
3B44DE6C
BE14EC99
BE0F876A
3CE0AC02
3D269EF6
3E312897
3E6146F9
3E1CADDE
3E81C708
3E5FAD1C
3E9E6179
3E8FBD27
3DEC3A36
3DCC0779
3E6C8D05
3E8EF054
BD5CA8DB
BE0C21DB
BDF0662F
3E4D7B19
BEA72208
3CB6FCEC
BDF2BE56
3E51D672
BD62FFBF
BE18E780
3DD07D84
BDC28C36
3E3ADB62
BC49EB1B
BE7D356C
3E3C7B2B
BDF0F444
3D01AF6D
BCBD7F01
BD804CDC
3DEAAB3A
3E0F0EE1
3DD4EF1D
3D5CD4FD
3E947B46
BE2C2FEF
3E38E849
3DACDD41
BE45A3A7
BE15F810
3DAA4A27
3DE75D8D
BDFFF328
3EC37A59
BC13974C
BDB438FF
3E0EBABB
3C6B0857
3E911347
BD9C28B3
3E8FB804
3D09CC98
BE0B2365
BE5F1DD2
3C41931D
BD84EDA2
BE190A2E
BE1F9618
BC7D83AF
BDD77FAE
3E753247
BD889B36
BE113E9C
BE16CA33
3D27B942
3DA0F187
BDC6B05B
3E001586
3C8343D2
BD8713AB
BDF86501
3D42C9F4
BE8857AD
BDC6F132
BD825C2B
3EE24D6B
BD90144C
3D25FAD9
3E1370E2
BD756D7D
BC70FCD8
BC56C3A6
BC6F0983
3EE6F584
BDA2E674
BD9B7D39
3E0C7757
3DDC32D1
BC30109F
BE15B78D
BCB77D50
3DD9F659
3DF014B6
3D5DBE41
3C6C1A65
3E90EE32
BD1A25AB
BDFB6241
BB924224
3E5935AC
BE31F850
3E01E10F
BB18A63B
3E8AEE92
3CAF95DA
BDA92DC6
BD825D89
3B7C452D
3E3DFB72
BD2D28FE
3D17670A
3BC02618
3DBF0B0B
3DF27038
3E729414
BE2C3F6D
BE53641E
BD4F302C
BB97017B
3E3A953B
3E4B2499
3E98DD7C
BE2C3A9A
BE72D51E
BD3F8CDB
BD8B0D0E
BD6EDFFA
3C906797
3CF50F7C
BDB6D97D
BE23B5EE
3DA7AE66
BD9AD12B
3DFE9AF6
BDA74BAA
BE148465
3E8B8063
BDAC4ECE
BD226804
BDCA003D
3E5EF3EE
3E14C89B
BDB67F66
3BE21DB3
3EA4E46B
3E527B84
3E40AA72
3EA13731
3E81F850
3AB1CC04
BDE6AAAA
BE3DADF5
BEA09B1C
BE82E3F1
BDD7D567
BC90B392
BE0A05A1
BDA1A8A8
3DDF1158
3E802C3D
3E212366
3E4A2AB9
3DA805F7
3D438421
3E133EB5
3E060A99
3DA5D435
3E8E882A
BDF1D3E0
BD974AA7
3C5A6734
3D5C5F64
BE02B269
3B92C471
3E824EA0
BD517144
BCB7DFBB
BD099C29
BDE64EF7
BDD72904
BD4C91FF
3D8582F0
3CB57CEF
3D3EAD88
BDE7BC72
BB21BA2D
BD27A12F
BC13EF5E
3DCB27E0
BDD42884
3E5781F6
BD9369CD
BD667382
3DF4CE59
3DE693A5
3DD7BDEA
BC93A152
3DCCC38B
BC06B0A5
3D4CAB9D
BDF7FD25
BCB1C920
BDB1D979
BBEE1F78
3DBC393C
BE1184EB
BDAABF2B
3D2AECC8
3C71F7B4
3E0619A5
3DE46ABB
3D0D6F2F
3D26EE54
3BAE7F49
BD9D6D25
3D2CDE07
3E214D58
3E06C25C
BE70EF3C
3D245689
BD101BD2
BCB79F1E
3E3D167D
BD2549FC
BCA1CCFA
3D0699FB
BD9CE387
BD90968A
3E7EFD87
BDC51235
BD328CB2
BD92A708
BE00433D
3D31D9B2
BDB742BB
BE5F56FF
3E2FA377
BDAF36B8
3B918767
3E2A6832
BDB75962
BD6C9351
3D43D0D8
BC8E146B
3B8AB367
BD9156D8
3E12DD7B
BC0C4720
3D0CF346
3D01BA9D
3D41DC13
BD839E1E
BD076E7F
3E0C1C89
BB42167F
3DCA9C32
BDA4E27F
BD25AED1
BD449EE9
3E451C20
3E078E70
BE1BCE71
3CD45817
3D74DDD6
3CECB5CB
3E962F38
3E08E114
BE69FE51
3E28E5D2
BE2BCD07
BD0805F1
BD5C7CE6
BCE34ECF
BDC250C0
BE01AC29
3DF92401
BD511660
BCB2BC6B
3E6A2FCF
3B347150
3E041C38
BD811E25
BE574F4A
3E21FAB3
BC663E38
3D4F0295
BD4739A0
3E0F29AC
3DA9579E
BD566A4A
BC773EF1
BABE6A5E
3D973BEC
3D20C304
3DBA7C55
3E0C5A16
3E1B083C
3DA7F99F
3D0D2DFB
BEAA7FA2
3C11089A
3E31663F
3E8A0DA0
3E5703B0
3E59F1E4
3D936B0F
3E427BE2
3E6A5EB5
BDBC36B0
BE13F9B9
BE99DEC1
BE8627B5
BD8E9543
BD8C5B45
BD3F01F3
BE83DE40
BE000C37
BD57B289
BD6FCEBA
BDDB3DD1
BDD05DE6
BE368A7F
BC96D8DA
3E1A1201
3E1B6D9B
3CCA5EF4
BDFFF84B
3E5E583F
3DBD01CD
BDDEF4B8
3AB6201E
BD7E307D
3DF35C5B
3C498C26
BE3D4662
3E00A966
3C879EAA
3E10E659
BE335D46
3DCDB41E
BE85E43B
3D6017A5
BC0E4623
3CBE2CFC
BE3697D0
BD4A1C99
BCDEE35B
3DB9DFC7
3D1D6C6A
BCDC0509
3ED6308B
BE3609A1
BE0D0332
3E129F32
BE2C5E70
BC584648
3E23BBEF
3E75D009
3DE2B991
BDCA4DAD
3D9389E1
BD60EF8C
3E76DE7D
BD80AF19
3E7806BD
BCB09DFD
BE645302
3E80FA6A
BE6C1D6D
BCC5FA10
BE662D33
3E3512CB
BE2AA088
BD50FDE4
BE8C7920
3CE866E2
BEABD739
3B55BD77
3E07D2B4
3E622292
BD77B54B
3DD215EF
BC70947D
3BA5BFD6
3D93744E
BE577EAF
3DA870AF
BE5EF2E2
BE41C503
3A3B5A8B
3D23A2DD
3C98B0F7
3E043493
BBB55659
BDB5C242
3D52C29D
BDFB4D7E
BE4BCCD1
BE43FAD9
BE1595F8
3DE57075
3D8FE50C
3E17EA16
3DAB91B9
BD6C77B5
BD9B7CC5
3D62463E
3E15BEC2
BD43A241
3DE13C68
BE62B665
3DD9C935
BD0A1674
BE08A6E2
3D44516E
3E27E55E
3DC5CF21
3D7BCF9A
3DA8EB00
3D29C63A
BE19C5FB
3E9C5020
3DF15486
BCBEC4E7
3DC3C0F0
BE0F40F3
BD471992
BD9DE07D
3C90D5C1
BE8881B5
3DEF4C1E
3D602A85
3D82D9DA
BD5160AE
BEB3E79F
BCE3725B
3CF8C4B8
BE0D3EC1
3C5052C9
BDF623C3
BE523AD8
BBFB3DC2
3D9552FC
3E052404
3C8CAAD3
BE458B61
BE5D0721
BD751008
BDFE0462
BDD6D4A8
3E748B9B
3DB21B71
BDFC7EE4
3C849043
BE9C7D04
3DF94CBD
3CEEB123
3E1DA1FA
3E87E385
3EA07079
3E944754
3E438378
3E518B0D
3E60E80D
3DBEBEDA
BD83DA75
BD824A7B
3DD7FE24
3C8188B1
BE770593
BE2CD148
BBD30E04
BE4379ED
BE942FF6
BE8C3090
BE615B0D
BDB864DD
BD0067F5
3E5650CD
BD1B91DC
BE93214F
3E52186D
3D3B15D0
3E20B24F
BCD5A70C
BDB2870F
BE88BE4E
BDDCD291
3AC537F2
3D989010
3C1777E5
3E8A3E30
3CA69917
3E19ABC4
BE605D02
3DD11185
BE8F4A41
3B5F4419
BDE3DF60
3CC077F5
BD1A80C5
BD3F44CA
BCBE722C
BE4F39DF
3E23A2ED
3E0C9866
3E118AD7
BC8A234F
BDE30D59
3D8E0A8B
3D360A23
3D86F2A6
3EE4614F
3DA1C074
BDD17947
BE2792B6
3E94665B
BE348308
3E2B89B5
BE70A53B
3E96D1F2
BE870645
BE5AF99B
BE2F594D
BD5068A6
3D86B35E
BE2C8224
BE548EEF
3DF9D28A
3C1CFFE0
BE10C39D
BE138E60
BEDD6708
BDBE34D1
3EA91509
BE0E3CA4
3D9CC597
BEB6E393
BD8EECD1
BD8A034F
BD2CE962
3D2A7587
3CE263F8
3D9ED9A7
BD0B77F9
3CA77906
3DAAFBA0
BDC49C81
3E09B930
3E0B7033
3E466BE1
BB82863C
BD4D1CA9
3EA35C29
BDB1B366
BE21A148
3E63A71F
BE35F3B6
3C1FC416
BDCC14C8
BD957ECE
3DAC0A2A
BDDEA381
3C3E0EE4
BE19FBFC
3D07216F
BE253F41
3DEF5F5C
BDE208B9
3D4AB0E6
3CCB42E4
BE1ADBAC
3C83DB0C
BEA57152
BE0732DF
3CB1FC9D
BE380786
3C355A14
3DB57BCB
3D989437
3E658EE4
3CDC0128
BE2CEBE4
BE22C626
3C192A9C
BD0BB624
3E04AE7F
BC9F61E0
BDCD7B8C
BBB9CE5C
BE74B4A8
BDACBB01
3DBE205E
BE7F2EAE
BD768FFA
3E83409F
BCB19BF4
3CAF2450
BD99EDBD
3DD1D5EB
3DF236A7
3B84A812
BD724669
BCDF2E13
3DBEF4BC
BE94E23E
BE67375B
BE2E90C3
3DB4A816
3DB14623
3CAA2DF7
BD6FBF6E
BD6C787F
BE2F4FE4
BD48B068
3B3787A3
BDB69A7C
BDBC55F7
BDA82296
3D115D35
3DE3D923
3E2EE6EE
3D33CB79
3E220408
3E542104
3DC4B493
3DEE3B7D
3D26A724
3E7DF098
3E22C110
3DD1F41E
3DE185DC
BC02B895
3B1A9B73
BDBDB01A
BE21279F
BDB78F22
BE6D8D5F
BE247E5E
3E60B616
BD519640
3E31BAEB
3E49599C
3D822583
3B5858FB
BDA440C9
BE485BDB
3E72D48A
3C629E10
3E6E2937
BE8629DF
BD1E7FD5
BDAEB92F
3E02E042
3E970AC7
3E5B35A3
3BD0B31F
3E87C5DF
BD0F6992
BD9367DF
3E0034CC
3E8622D8
3E8CDA8D
BEAD929A
3E0414FC
3EACA6A2
BE733417
3B2B0081
3DA02125
3E1D14BB
BCE74391
BD916DAE
3E89A085
BDCB4214
3DA84CCE
BE353F8A
3D6E23F2
BE853649
3D8B39DC
3E56775C
BE8B5CD7
BEDD0C6C
BDE172C7
3D1C99A7
3E866677
3CEA6A17
BE8816E3
BEA78F30
BE806A8C
BD9585AB
3DE49E38
BC0AD399
3DE38A71
BE16A627
BDE710B0
3E2AA115
BDE5B6B6
BD7AA5EE
3B9AD3DB
BBD667FF
BE5A796B
BDB02760
3EA3ACF1
BE39B8FB
3DDDC784
3E15D0B1
3E794E8C
3DC764C3
3D2F5050
3DF54584
3C1C783F
BD679327
3DEA2AB9
BD908259
BE201C27
3C89F323
BE919597
3E6ACF9D
BE5DAE8F
3EC4B949
BD6DEF52
BE5DBFA6
BD707FE0
BE67E430
BEB7C95F
3D78A5C4
BE2EE321
BE072340
BCEC582D
3D8CDE5C
3D80F0E5
3E017CA2
BD50C21A
3C4F9E99
BCD573E0
3E39AD21
BD53DC8C
3D936E6C
3D4DE764
BE249EE6
BCBAC9E6
BDE6C05E
3E27BE5C
3D23E542
3E0738D9
3DFACC85
BE831AC5
BE8A1CF2
3B8B57B7
BE311A7D
3E0B097E
3E1991D7
BDB2952F
BE5F7DC4
3E0F68A3
BB628586
3E172E2E
3EA51379
BD90651D
BEB05BDE
3ED36C59
BE9EDECA
BEAC615C
BE91ED18
3E31FEAF
3E3C0124
BDCC22A7
3E45E0F8
BCC56712
BE984CE6
BE37EB80
BD39F6A1
BD93FAE5
BE0D78BE
3DAC5AF7
3E9651F1
3EDBE14E
3E9F9BE3
3C3AE889
BC631D26
BD1F19D4
BDCB80D3
BD07609F
3CC476DD
BD755F53
BE228284
BCBB9E41
BD013AFE
3E51E032
3B6AF6D5
BD5376FE
3E5A4753
3E54B5D6
3D6BE13D
BCA49261
3C90AE69
3E5087F9
BC22F4AD
3DAF063C
3DAEBE59
3E112945
3E0563BE
3D1E45EE
3E0248B0
BC9F2BA4
3DE758D5
BD02393B
3E96BDD0
BEC70FB1
3E6CFD31
3D808CA3
BD4191F6
3E18AA07
3DE75FC0
3EFB0CE3
BE49580A
BDBB1452
3D80F153
3E9F55FD
BE4C7998
BC27FD80
3E2BB0D2
3D95064C
BDE080B6
BE0BC424
BD8184A9
BE82191F
3E32B6C3
3DB943B5
BE7D9F90
3E178ACC
3C334EC2
BE333483
3CFB97D1
BE4A552A
BE2FDFF1
BE22DE5F
BD32DAD3
3C98ADB6
BE24470E
3E6449E3
BDAB5651
BE8ADC7C
BDE055E1
BCACBD68
BDC59636
3DB57720
3E4CD45A
3B8BEA37
3D31D395
BEB1C9F0
BD517E7B
BCBFC24D
BEA1A61E
39FE166C
3DDF866B
BE327E45
BE0AA9BB
3DCF5DBC
3D5C8346
3C6B4B73
3C77A4B2
3E1708F5
3EB60AFA
BE74B9D2
3E443761
3E98A527
3D69E501
3D900C08
BE49F2B4
BE2ACB86
3CC69EA0
BDCFBE9F
BE61122D
BDF5A83E
BD6368A8
BCB99D75
BE462B9A
BD3642AF
3D2E9110
BDB313B9
3E375D7F
BE1E536C
3D3DFC82
3D1A248F
BE1D7C5C
BE109013
3E092FD3
BCED2D8B
3E983735
3BA8B676
BE2B6340
3CC09F0C
BE29D11F
3DE02A1A
BDD14819
BE8F4565
BDC9D703
BD91051B
3EC35904
3D88F90B
3E9E3C61
BD899D64
BCE07B3B
3E82B419
BE20AD62
3D08F06F
BBF65624
BC74770B
BED1448C
BC11493D
3D0C7D4C
3DB34006
3DA87ED1
BDEF95E2
BDFF2212
3B5E1CDF
BD861484
3D390116
BD8CAA15
BD30F2E2
3E92C54C
3D4BD16D
BE78B9A0
BD4AF986
BB0BA9C2
3B580DD5
BC178AD6
BD0005D5
3CA82D30
BBF8DB4F
3C10B633
BDB07E34
BD46404B
3E3864FA
3E24E26D
3D47B43C
BE8F3172
BE742D64
BE0DF542
BD44E7F9
BD9E344E
BD1261F2
BD52DB4C
3D2B5CB0
BC5BD472
3E2DD8A9
3ED857D1
3F083AB2
3DAF3C30
BD8B8A03
BD32139B
3DD66334
BDABE04D
3D35B958
3DD7B76A
3CC46087
BB92BA4F
BE1B21C4
3D90B3E6
3D893F9F
3E2B2B4F
3DD6490A
BDCDA130
BDB83C0F
3CA01925
3DF32145
3E1D0006
3DD24A5D
3E9CDD00
3DE35DC6
BDE47270
3D534F9E
3E59625E
3EA16DC8
BD099C54
BDFC06E2
3DA4AED0
BD9FB4A2
BD8F22FB
BD341E3A
BD189617
3DB87F72
BD9184B2
3E17551C
3C71420D
3D761E9B
BE4755C4
3E3D1DB3
BE682074
3E094D29
BDD20AFA
BD24C5AD
BE07EFF5
BDD2B42A
BE3991F2
BDD151DA
BD95F9F7
38C0A6F8
3C282B78
3D766760
3E2BD718
BE6A3E33
BE74CC83
3E4E9EA8
BDF855A4
3D6F2C9B
3E2BE081
BD801407
3D961E71
3E05ACE8
3E463583
BC581119
BDE26982
3E2349CC
BD9D8735
BDEAA781
3D9543B4
3E26A00C
BDCACAE5
BC86F7B6
BDE94424
3D3B0A90
BD3E63FC
3D07002F
3E121AEA
BD8AB75D
BCA154F4
BE0EAC00
3D205DDC
3E009D5D
3D80AC28
BE8B1B41
BE1CBC64
BD09161C
BD4710CB
BE3C8FBF
3DBF773F
BE22B05D
BD865AC9
BD8B2CB0
3E2499AF
3DA2B8B2
3E61805B
BDE0E80D
BD0628DC
BDEE5C26
3ED146C3
3DC98314
3B66F22C
BDAD8958
BE64FB55
BE2E1EF1
BE3DC388
BCC86EEF
BE07588B
3DE1C5AB
3D4AAC2B
3DB79722
BDBCEC49
3DFB02A0
3E3A72B5
3D4797A9
3DF75C07
3D228CA2
BE18C33F
BCAA70FD
BD82F478
3DA25C1F
3DC26F6E
3DA6E101
BCE2A2E2
3CBFDA66
BE08A4F1
BD87D9EA
BDB3FC31
BCA89769
3E00F627
BE40F883
3E0D5A04
BD346D80
3D04E1B7
BE82F489
BE47946B
BE182C0A
BE1E231C
BE4743D5
BDDB2ED2
BE1948A0
BE4323A8
BE8C1553
BEA3D559
BE5C83FA
BCECFFDE
3E1EDBCA
3E2B5B48
3D2BCE85
BD95419F
3DC1A19C
3E0D5A55
3D8D3968
BBD9DD41
BC8F6167
BDE8B5F4
BE065923
BD5B9C8E
BE32C930
3C15B9AF
BE44C214
3E4B4D56
3DA1BC95
BE340783
BE2FCC91
BD27B72C
BD816654
BD159B53
3D522B03
3E003354
BD725606
3DABC034
BDED496C
3D34F50A
3E5877E8
BE2CEC7E
BE0CBB28
BDD7C79D
3EAEA08B
3DED2913
3CB497AD
3DD1164B
3DE8537E
3D052C2C
BDC53A77
3E1EC9D5
BC49A0F3
BC851BCE
BE20DBA0
3E912B39
3DA336FC
BD61CBCD
3E4730CD
BDDFB649
BC2D2034
BD9ACF5F
BD9197A0
BD41BE43
3D41E9A2
BE152758
3CBA22D6
BC588D55
BE4EA86F
BE359FCD
3E826E29
3D099987
BE45B1E3
BE041D95
BD8AC299
BE839417
BDBC5E0D
3DAA3C0D
BD568931
BE35E5D2
3D9F310C
BDAAEFF4
BDE9CB18
3EBAE470
BDE6B294
BC9C60E9
BE866DB7
3E08BE51
BBD65CC6
BE998C96
3E72711C
BBA888F6
3D1D0AF6
3E42CA2F
BD9939B7
BCC21BF4
3EDFD0B2
BE561A03
3E0EDC7F
BDF9FAF6
3C21385B
3E081C13
BDCF48D0
3E8642E5
BDB08E72
3E0318C7
BD2B5AE2
BE2AF48C
BE23C6F8
BDC40634
BD3216B9
3C3B2D28
BD71A0AF
3E860777
3E24BF68
BE505A8B
3D199A2D
3E03B264
3CA78C46
BDC7AA47
3E1307AF
BE7CA97D
3E0055DA
3DC6A631
3E3F887D
BE72260F
BE74C13D
BD8188E3
BC17D79B
3C7251AC
BD967711
3C2CC240
3E5365D9
3D859DC5
BD140A4E
BEA3D7CA
3DB7A961
3E19F9CF
3E8A7071
3C9F4276
BE97A86B
3D8116C1
BD9F8C2A
3D997B0B
BD69E702
3CEED1BF
3DBCB852
BDFDC9B7
BD29D48A
BD0C6CFE
3D4F55E6
3E0CC180
3D921E24
BDE6BE1D
3E11BF2A
3DC52CEF
3E2E48E2
3E9DC514
3EB5D4F6
3E6AD653
3E8112A9
3D0B5D81
3E25051C
3D2BD54B
BD09E915
BDB9236A
BE420CA8
BE8FE360
BE538327
BDAF0036
BE0B2336
BD483A84
3D85B195
3DB6B267
3BB765D3
3D7053D8
3D415E14
3CEB19BA
BE503FAD
3E5E2E46
BD94CAA4
BD56A190
BC7FEFC5
3D3CA872
BA019FFF
BCBA9BA8
BD435F43
3DCFF419
3DA719F1
BD76F8FB
3D7F802B
3E5FE0A6
BDA9C287
BD388758
BE1A85EC
BD422CDB
BCBF2067
3C781880
3EA1A071
3DA7BC61
3D3A592F
BE2E2578
BC773536
3D251C92
BC8A43B6
3C712D09
BCD3E067
3E02D25D
3CC0C8D3
BECF54DF
BD6B6A97
BD55D4B9
BDCB39B6
3D895AE8
3DFFEAC4
3D8FFA89
BBB25D3B
3DF8AB42
BE5125EA
BE31439E
BDF69743
BDE646E4
BD8451CF
3C0E88E6
BDB5C11A
BE985B12
3E5BE12F
BD82AC23
BDAC0EBA
3C967FE4
BE962C81
BC003453
3D21A1A6
3EC2403B
3DD8111E
BD6C3779
3D9175AE
BE47831D
BD7BC327
3CF49005
BD13144A
3E1A253E
BE28856E
3E3366BD
3DF07E75
BE3F38BF
3DCDFE83
BDACA10E
3E01448F
3E95A1DF
BE4DEB2B
3D8C2826
3E0DC58C
3D91E97C
3BF869F0
BE2EB0A4
BDA0C1A4
BE64E274
3DAE29CE
3DA7A1A2
3E289C07
3DF9869F
BE2328A3
BE4D5EBC
BD12941F
BD713969
BDAA9BF5
3D3CF88F
BC8637A8
BD200E70
3D3F02C5
BE1D3C58
BD976730
3E4BFC30
3D78777B
3D48B200
3D15F9B7
BE77B811
3DEB8A78
BC8B99FD
BCC52F04
BD0037FE
BE273414
3DE7475F
3CB0E591
BD0BE2D7
BD715ACC
3E8144BE
3D7F8BB7
BD9D3301
3D066B92
BDD19B4E
3DB7D05C
3DEABF4E
3E20392C
BCAE1CEE
BDBD806A
3CF9FC0A
BCAAA464
BADA0251
BCE7149C
BE0669AD
3CAA78CF
3D0EF6D9
3DEB56FC
BE464DDD
BBDB2D56
3E719D24
3E836824
3E683E85
BD0A1BF8
3DB61525
BE32A214
BE01CEAF
BDA9F53E
BD5AAB65
BCF9BFAF
BD8E3909
BE4DD166
BE1FCA57
BDC696F8
BE066B7C
BE3ED1EE
BDB20283
BCC2095F
BE074CCC
3DC27D60
3DC9112A
3D095DBF
3DB1232A
3C132F15
BE27096D
BE8EB02E
BB5B7640
BE61CE8E
BC56E097
BE112F2B
BDE2E515
3E07D0BC
BDE8F3DF
BB56DBCD
3A35A121
BD904DDB
3D773AA7
BE3F2218
BD72AF32
3E30742F
BDB8D00F
BDE2095A
BD6D25FB
BDB51E9F
BCF3336E
BD84A7D6
BD38DD54
3E469C9D
BBC333E3
BD6FE6F0
BD8E133B
BC83A673
3E1DA3B5
3E1E80D3
3E2E4E20
BD0408FC
3DE18945
3E1752CD
BDA13E22
BD976E7D
BC03D564
3D41914D
3D9C4FD9
3D40B38A
BCB9EE84
3C15BBE7
3DE9B8F4
BD9B6C52
3DAE0C94
BD442D36
BD19ED8D
3D5EFA97
3D35111C
BD3C888A
3D16FEAA
3DD05FA1
BDF9637E
BCA2F904
3E2BE3CE
BE0B4466
3DBD057B
3E0B0CB8
3E981F93
3D83F281
BE29887B
BDC7ABEE
BE00BE51
3C9051D7
3D76F418
3DC85B92
3E07819F
BB22B776
3E592557
BD0753A1
BDA92A4D
3D38F9B7
BADDDEDD
3CDF7B70
BD64F761
3DC0BB94
3D3D358B
3E3399B3
BDD79C26
3D846B33
3DE3BEB7
3DF06240
BE4B017F
3D3E5EB3
BB96D8C4
3DB529DC
3D2FF7F0
BDEE4848
3E35FD4E
3D92CEE6
3C54C82E
3C804E0E
3D18BE45
BC2735AF
BE01AE42
3D18022A
3D3184BA
3E0830F8
3AA7580D
3D6E9CB9
BDDFA730
3D640535
BD8D91E3
3CAE2DB5
BE0F6C41
BDE8A406
3E06477E
BE0F57C8
BE47186C
BD4AA6E0
3E1C2408
BE1908F3
3E01CFB5
3DF84698
3E195CBB
BDE6C05E
3B8FE4D2
3D885B13
3D5AD5CF
BD67D445
3CCA8270
3CED0790
BD4722B7
3E50B913
BE1F94A7
3D7D682E
3D2277ED
3D3B3B3D
BCE5E064
3DFA2CFA
3C3E928D
BD385447
3E201605
BD1BCF77
BCFA24BF
BDE7DD29
BDCCA1AD
3BDC0BFE
3D81D0AA
BD609A2C
3D193ABA
3DC1FC41
3E67BA4C
3EABA288
3E1699BA
BDF6D58D
BD4FB748
3D6EB0B5
3DE6D902
3E11E421
3DA0F88E
BD61A88F
BD2BF031
BDC49C0D
3CDBCFC5
3D3F52DC
3D32679C
BD116434
BDF3FBD8
BE906D4A
3E61147C
BD9577D0
3E5646F1
BE6F1D1D
3DC4DB59
BE0F0216
BD77C965
3D2C092D
3B28D116
3CC28ABA
3E220876
3B65ED1E
3E072706
BDB5BB6A
3B864E18
BE011028
3E054300
3CDE3A58
3D3C205A
BDB12A34
BDDAF5BA
3BAA8ECC
3D3CABC5
3E27B316
3D95F1C2
3E99D261
BE26739D
BD171FAA
BCCDD0F9
BE00A981
BE91912F
3E856E88
3E125E8C
BCCDC937
3C88E501
BD5799C2
BDAD703C
3E871657
BDAC3934
3DD1D20A
BE0B0D01
BE799C75
3DD4425D
BE6515AD
3C0E83F0
BCEB64FE
BE2F2CBD
BD14DDCD
3D038C8F
BD2ED299
BDD76527
BE9DE270
3C06BB97
BBCFDBE7
3CD12D9F
3D8EC9C2
BD21C3A5
BE2FAC60
3D1FBF6E
BDF8F473
3DC6BB58
BE2FD6F9
BD802C54
BDA52670
3DF8BC82
3E34439F
BE197AF5
3E2CD812
3DEFFBF7
BD5268DE
3E353DCF
BE1E8577
3DE23A52
3C624169
BDA0D7E1
3D880C70
BD6E45AB
3CD36F79
3B93DDA1
3D0C7584
3D938036
BCF16D1B
3DA09A9F
BE488B25
BD8CFDBB
3D88AE8E
3D01A660
BDE19E81
BDF44D5F
BDC84C1C
3D8EF3A1
3C4F8C45
BE61F8F8
BE2E8AEB
3DE8B7CA
3C06BAA6
3E28468B
3E1187B2
BCF06A91
BD5903DD
3C70AD1C
BD93B5B7
BD36E814
BDB76003
3DD72226
3DDEF9A5
BDDB1217
3D5C9623
3D3DEB96
BE2D7017
3C5F78C1
BE062C7E
BE35D0B7
3E259C93
BC5C9FE9
BDBBEE5F
BDF058F9
BE144BDA
BD1781E2
3E166C8F
BD4383A8
BDB071A6
BDA70D6F
3C9251E2
BBA2772A
BDE3CD4A
BCD20F57
3D071B48
BDE3C686
3D1F6B3D
3D8D2C18
3DFCD291
BBB83F30
BE2EB936
BDA22D04
3C341C11
BE01E9D1
BE52A2AE
BE9E0A2E
BE195542
BE99D265
BEA41ABD
BE03BEBD
BD97FFED
3D67F03F
BD185D01
BE6EB145
BE01E3D7
3D34F418
BDF31642
BCE94772
3E8B48F2
3E7D8D6C
3E2C8F7C
BE73D394
BE77D98B
BD8988CF
BD74208C
3E29DE12
3CB3A7CD
3E84829D
3E852E9B
BE394205
BCD98400
BDDF3AB6
3EB7D856
BA054122
3E647502
3CE67F1B
BE991542
BB96BE42
BE933BEE
3E678FFC
3CEF3C5E
3D9C2847
3DB6BC2E
BD6DB382
3E8F5BE9
BE2D195F
3CE349BC
BD9128C6
3E0903B5
BE181B8D
3D3B50E9
3E3CA0B5
3E360660
BD1BF7AB
3DA83933
3DBAB5DA
BD41A013
3D4E0C12
3E92194A
3C5FAFD3
BC39B7A7
3D8F246E
BD59A3FB
BDD96D17
BD927075
BCDA3D43
3DA28996
BC187CB4
BE229BD0
3D04F1E5
3E91DEDC
3E54E747
BDC6BB6C
BE1DFC4F
BE1D9E98
BE0B8AB4
BDCE1B9C
3D8429B2
3E71B252
BDDC21C7
BE613ECB
BC5FD0EB
BE1BC6DE
3E08A48C
BD93BA03
3CDB9684
BE2D2DED
3E2B1217
3E030A4E
BD69A647
3E20F8C0
BDCB001E
3E82B884
3F12F2E4
3D08B7B7
3D81E035
BE2F14E9
3CBB1844
3E0EABC3
BE8DA40F
3CA7EDF6
BD8870B7
3DE3C9B9
3E74A7DD
3C0E6938
3E357F37
BDF2957F
3B0EB1A3
BD10D51D
3C967C03
BE9AAE8E
3DD632CF
3E4659D8
3E166326
3EBFE8F8
BD68EA2F
BD13590E
3DB3F9AF
BE02EA7B
3D1B37E2
BE35996E
BD9CC180
3DD0E8F1
BE161628
3D8B1D8D
BE9F1891
BD90451D
BE0ABF84
BC43CED7
BDAD9BAC
BE3B5F8E
BDA67232
BCA3327F
BDE25EA7
3E6F1801
3D7B8A2A
BCD57BB2
3E1CABBE
BE53980C
BE25BAAB
3E4A0DBB
3DBA38CD
BE46052C
3C876077
3E1161B6
3D8EEB18
3E55A965
BE76B4F7
BE1FDCD9
BDE78B88
BCBA0CEC
3DAEEE7B
BE191D1C
3D4E8625
3DA1B7AA
3D943A5C
3D2A4907
BDC9ED04
BBBEDEFB
3C058039
BE1B8434
BE8A79A8
BE8FF99B
BEB4843A
BEF3F603
BEA58FE7
BEC0F5FC
BE8A736E
BE1BC27D
BD29659D
3BA7889D
3DA36D65
3CC31564
BD6A4342
BDB45401
BEA8A8EA
BE5D7A28
BDF866F2
BE67B68C
BBA0F95B
BDF22128
BD1CC332
BCADABE5
BD2E7C85
3D02AA1C
3E1C78F7
3E326CC9
BD0C43E9
BE030305
3D5A33C0
3E1C7326
3D80D80F
BDD1693C
3DF5E501
3D8A95FB
BE535DE7
BDCD41C5
3E2E8B63
3CC632F0
BD895B26
BDF54DF5
BDB1F311
3C99E768
BD32ED12
3E459BBD
3C0ACCB9
3DF8830C
BD9E1A8A
BE7B6EF8
3E05D7F3
3EBACC02
BCADB2E1
BCED6239
BD04DDE3
BA61EB3B
BDABD6E5
BD739D46
3D99184B
3DDA34F2
BE0A5F7E
BE440C19
3E6EF750
BD9FA8A5
3D84E046
BD06688D
3CCF04E0
3D9AB86C
BE5B3E28
BDAC5AB3
BD4EE99D
BEA89668
3D8BE764
BB416326
3E41DE92
3DCDAD90
3DAF76A4
3C4B2D30
BE7D2E51
3AF7EB11
B99B9E4B
3CC792F7
3E000D44
BE094E35
3CA8AF6C
3E18C818
3B9E860E
BE014786
3DB19753
BC98DD82
3E41B189
BD0B5FD8
BD4E62DC
3E69CC53
3CC91588
BD8BDCBD
3DD14918
3DA52605
3D197C8B
3C49514D
BC0778CD
3E081C71
BD974C2E
BDB501C3
BCB6D717
3D093B6B
3D52A569
BE1C722D
BE656946
BD9EBE4D
BDD94BB1
BC80B247
3E01CB54
3D360563
3DA5121F
3E13692D
BC954089
BDE55051
BD1E58F9
3DDE8201
3E11BDFC
3C3DACA9
BD05F598
3DC21529
BCF4181B
3DBE2C4B
3DB067AE
BBF011E5
3E01D7DC
BE17E75C
BC8207B2
3C81276D
BDDCE4A8
3D9AA6C0
BD109F07
BDF30BFC
BDF7E938
BDD5394D
3CB065EF
BD90E409
3D18837A
3DE13A85
BD4FF46C
3CE35108
BCF8550B
BD829281
BE00D7B1
3D4B1027
3E42791B
3C05E94D
BD2EC5C1
3D137A96
3D82AB72
3D148731
BE3A9308
BBF83017
3D294AC5
3E482E7A
3E0A0685
3E1780F7
3E3DC762
3E0900E0
3D8C6EBD
3EB07A18
3EC3AEF9
3E959565
3E9051F2
3E2ABE3B
3DAB8113
3E2F3486
3DE78ABE
3D7166B2
3E582BDB
3E576B71
3E56B852
3E2C8F17
3E88D1FE
BE4F87B4
3E32864A
BE8E3D16
3DFC3AC9
BE1E008F
BDAC5259
3C1E5C30
BE003629
BE89346D
3E7C1015
3D626D93
3E58D0E7
BEB3D6EF
3E32FE3F
3D4D4DDF
BC7DA4A6
BD01C16B
3D48730E
3CDE5F92
BC91571B
3D364EEC
BE9EF06B
3DC5987C
3D864623
3DF74371
BD99E99D
3DA60D16
3DE97D3C
3D314B7F
BD05EF8B
3E704A37
3EDFD7AF
3CDEB9CF
BDB9DF3C
3E0A004F
BD55B5AF
3E51AA6E
BE7F454D
3CEDDCBD
BEB761DD
BE965B46
BCD29CC0
BE396D96
BE3D09C0
3C3934BF
BE43A407
3E8E0C0D
BE6F883A
BE8ADAD1
BCFED2BE
BEB93E92
BDA42711
3E6F701C
3E1F18BD
3E4FCFDF
BE8CD46E
3D3063D6
BDA5652C
BE277DA3
3D17C3D9
3DACF134
3B974BB7
BEAFA030
BD42240F
3E9E889C
BE9DF3D8
3E04D192
3E8EE66E
3E5CE711
3EAB93C6
3CA842DA
3DAE35C6
3E27D871
BB67B824
3DBB5CA5
BD9A7CE1
3DA68E8B
3D3CE4C3
3DAB4F6F
3DC5DA2D
BDC967D4
3E1C018F
3E18B503
3CF0FED6
BE7E3BB2
BDA0DC95
BE8F3BB8
BE443DB9
BE483EE3
BE7A9B57
BE39024A
BE10F29D
3D4684BC
3E8A570A
BD7B4DA9
3CDFDCBF
3DCF6BBB
BE1CA1FE
3DC332D7
3EA459BB
BD324016
BE034381
BEB6947F
3D4231E1
3E7DDD3F
3BBFAB24
3E2F647F
3DB228E3
BE2DF78A
BEA5A0CC
BDD3E865
BECD4E10
3D474932
3DF4DEC2
BD0F0CD6
3E86E32B
BD474195
3E91744F
3E05788F
BCB9F920
BE25D08F
BE9FA9D2
3E765336
BE073216
BD7C350A
BE6F24D2
3E93B115
BD9181C7
BDF519F3
BD45F2D3
3D88C597
3E56127D
3D211E5E
BE03DF31
BDFC0D7D
BEAC13A2
BE4EBEA3
BDEF9B7E
BE57D0D7
BD9A44D2
BE15E97D
BDBC447E
BE0DE80C
BE68542D
BEA4421D
BEE026DA
BEB56822
BEB0AAAB
BEC99C5A
BE8AA4D8
BE198DFD
BE7C601D
BEFAAFAF
BDAE0D41
BE5F568D
3D80AF3D
BD1A4B7B
3D40BCD1
BE6BBA63
BC77B294
BC72E753
BD3BDBB6
3D1E8452
BE76EB4F
3DEA71C4
3E0B3927
BB3F13D2
BD90CDEF
BDBABEF4
3E89B65F
3D814652
3E257A72
BD62DB14
BD0AAE9A
3BE0465E
3C4BF99E
BE1D2800
3DC99E0C
3D013F55
3E23D8ED
3D7AC52E
3E16EB12
3D5D8E38
BD7A5C7D
3E1316D6
BDAAE8DF
3D0F96F1
BD06C704
BD0ABFFD
BCB1D3D2
3A6F08AD
3D5B416A
BD38981A
3C32E012
3C8B4DC1
BD870AA1
BE717E13
BDBF2988
BD8F9733
3BA04BAE
BD9A578E
BDFDA2C3
3DD6D8E8
BE2AF493
3D803184
3DEFC1DF
BCC515D4
3CBFF38B
3E8241A2
3E6B151B
3E4E9B83
BDD2C1BE
BBC0FBE0
BE09478D
3A8D247C
3C12DB53
3D66C7BB
BE148DFE
BE11A50E
3E08CC5E
3DEF55A9
BD9C20BB
3C3F02B5
3D71B78B
BDC1B2DE
3D86BE08
BD78EEA4
3E5EE4DC
BC3E3FEC
3D0C7FEB
3CC05DE9
BD5F69E0
3E244AAC
3E0BC445
3DEB3E14
BC21947F
BA99BE0A
3DAE61AC
BDA24252
BCD15542
3CECF43F
BDBC4910
BDEBC4B7
BE0863D3
3D639091
3D70140C
BD806F67
BE3C84D1
BE4AA088
BD38D841
BD79F440
BD7A26B8
3E2C7786
BC39F34C
BE06982E
3DE333D4
BDAF5ECF
BDB8B32C
BE0C0FB0
BCB9358B
3DC31BBC
BDDACE32
BDF5D844
3DE7C2D8
BA2956C5
3D419BA1
BDE111D6
BE043895
3DAB34C5
BD39F5CD
BDB4BE2D
3C91C26A
BD3E8F3D
BD62584D
3E39A720
BDAA100B
BE205179
3BE74410
3CDFD3F6
BC2D12D3
BC0C8E73
3DC9523B
BE21A877
BC5FD2A3
3BC8D6B4
3E032915
3C84ADB4
3DE0E8A0
3E3FCC33
3DAC7F5B
3DDF0D34
3C485C5A
BD5A7765
3A6234B7
BDFE27E1
3DB86BDD
3DE205AF
3E14CDB1
3E37BCD7
3DEF9AD0
3DF46F3E
3DA4862B
3E0D9BF9
3E4E229C
3E8A5E64
3E7AFFF3
3DBDC4AC
BDC423B1
3E42A356
3DDDCDCE
3C43D21D
BD4B3F51
BD83C15F
3E16B160
BE7577CC
BE718513
3DC3EF76
BE030100
3C8E4AB1
3D3A1A40
BDF8577A
3DAB9A9F
BDBF9460
BD3F58D1
3D5EB334
3E6DC479
BDD0D123
BE0102D1
3E3BDDAC
BD1E2D98
3D6C2FE1
BD990205
3E6CD29F
BE98FB1C
3E244432
BC998C89
3D82DCFB
3D24613E
3E3A31E8
3DB8FC31
BD346230
3C9B6018
BD9F6BB6
BBEC4142
3E2D15C1
BD99AE0B
3EA6A8D4
BD7E93F5
BD097B6F
BE68F62E
3DDC41DD
BDD12308
BD3CDADD
BD8D1311
3C041F27
BCDD2C30
37412680
BE64D113
3CC137F9
3D0562D6
BE9F987E
BD9C8068
BE04ED77
BE697368
3D4620D4
BE8F7213
3E6C575C
BCEE4D30
BDA54762
BD17F8C5
BB882865
3E1301C9
BDDA40CC
3EB67419
BEB3863F
3E1EDA4B
3CFC4DCF
BE9A627E
3E973FFB
3CB3A655
3E6C94FD
3E9464AA
BD7EA186
3E20D66F
3D8B545C
BD23A6F1
3DE7C6B9
BD8A4B9F
BDC8CAE9
BD5CF8DC
BE3DF0A5
3DB8F40A
BC7BE3F1
BE271795
3D783A19
3D8599ED
3D4F9468
BE1D89D5
BE5E1071
3DEFB989
BE1C6F2A
BE891585
BDCD8341
BDA7B87B
3DFB3C74
3E3FE282
BD9818BF
3D2AB7DA
3D374373
BDC4CEE8
3E42C916
3D7E4BD3
BD0A1067
BE34E267
BE4AEEFD
BD3EA17E
BD825383
3D5B6ECE
3CEB0278
BAE84C0D
3D01EA99
BD8F83FD
3C3CE60F
BE4E35CC
BDA78038
3E42063C
3E5479FD
BD44ACF3
BD2499E0
3E157089
3CD71BC0
BCD5668F
BC5846D3
BC561C41
3EA489CF
BE29DD28
BE25773F
BDAEBAE4
BE21731E
3E9AEA24
BEA10D93
3DBAB979
3E4D4D9E
3E1A06AE
3E1FC1B7
3EDC661E
3E83B302
3E468AB5
3E54DFA6
BD6D721E
3DA21E7E
3DC681DF
3EB71949
3DF78573
3DB0E653
BD9ECB3A
3E130312
3E9354BA
3ECF2D03
3D262DAC
BE190F01
BD403C0D
3BAC947C
BD8C36E7
BD8B31F1
BE9DA198
3D22CE54
BD9D9DBC
BDFB7BFF
3E628F70
BCAF4420
BE0F2A10
BD0FF78F
BE01B25F
3D93250F
3E479EFB
3DF49CE8
3C21D3CB
3D89C82F
3D995B18
BE320D49
3D39C373
BE5DA3F1
3DB8F05D
3D9E5379
3CADBD2D
BDDAE2CD
BD21067B
3E2FD68E
BE07820A
3E2288E9
3DDAC322
BBEDD4E3
BDF20C21
BCDC3DAE
3D1AFB89
3E6EAF5B
3E78D7D3
3DDEC969
3E056F5B
BDCD6437
BD6DBA6E
3E82EC1B
BE554802
3E4A6BD7
BE3C2876
3D57AA31
BE353EC8
3DCA13DA
BE5FD41E
BCD50230
BE15B673
BE90E047
BD66411D
3E3A6D7E
BE3EA473
BDC5A44E
BD562CB8
BDCFA1BC
3D85DD2E
BD43C1A1
BD852FA2
3D0317A5
BE156BA9
BE8774D7
BD2B9A63
BE00846F
BD129B66
3D0D448C
3DAF020A
BE8CD142
BDA96FD9
3E47AA04
BD81C829
3DB5FEB8
3D80141F
3EA0DF5C
3DFFC5E9
3C31859F
3E0DB516
BDBF4E1D
BDE75636
3D8EAF1A
BD12B58F
BDF844DD
BD3D6096
BD4DD4B7
3E48B503
BBCC77AE
3E30EC8F
3BFD5592
3E1BF551
BE019129
BE6E3A12
BDAEDC1D
BD3FD697
BE329CA0
3E201267
3EBBB92F
BD5C6A9F
BE3B0BEE
3E96B6A4
BDFF1356
BD54C122
BE6E3CB1
BD3165F1
BD490B9A
3E1E3E7A
3E0AB049
3C0AA13A
BD58C78A
BE23D6C7
3D84122D
BDD15C06
3C500C32
3D419C85
3DF198AF
3A84E5B6
3E490009
BEA03B09
BE7556A9
3DBC4C29
3BCD2FFF
BD1C8948
3C81ED86
3DE34620
3DE86B3E
BD8BC344
BDB95EF9
BE0B30C3
3DC4A181
BD5CD652
BE2A77B7
BDC7036D
3E256557
3E194A0A
3E7D25E7
BCBC98E8
3E4ECADB
3D0C935C
3D83363B
3E1852EB
3DF0158C
3D7B6DAF
BE1BD062
3CE292CD
3CA94E22
3D2AE907
BE4C892B
BE46B2F2
BDDEE010
BD15772B
BD16711B
BD3BEC75
BD7FBC59
3E231042
3DAFE273
3E353169
3E962391
3E114750
3E8082CF
3E9C00CD
BC11EE0C
3D0C8B61
BDA56147
3DFC7142
BDCD3C43
BAA647DB
3DFEAE69
3E1F66DB
3E0B3BDA
BD82C3CD
3DDDFCF1
BE37F6AB
BB1B26CD
3D0911FD
3D57A9D8
3E43CA4D
3D1F599A
BE5DA463
BDA04A54
3C2EB601
3E45D95E
3D479522
BE245466
3AD607A3
BC1736E9
BCD67019
3DE4AFAD
3DAE285C
3C67CEA6
3CDECEF3
BDDA321E
BE873A04
BD02E7A4
BE152688
BCE6397B
3E0E9051
3E0AB7C8
BDD215EF
BE0DC945
3B85304D
BB5E3D7C
3DC8D772
BDEDC3F3
BD9C5464
3D76707D
3D770F6E
3DC64588
3CBF0BF4
3E873D84
BCDF375E
BD0759F4
3D3F15E8
BE125E5E
BD9FCC70
BD866F3D
3E9F78DD
3D3826F6
3CFD5A03
BD8B59BB
BEDD09EB
BDDA72DD
3C9500A8
BD74FDCB
3E28B462
3D080DA6
3D293388
BD70D479
BD323F73
3DC77681
3C3C7C88
BCC0B501
3EB72105
BD0FE0F9
BE877433
3D19141E
3E4C48BB
3D0452EB
3CA2C877
BDA26300
BD059D3E
BC662EE9
BDC071EB
3E280743
3D1983D8
BD0F4B47
3C2BBD08
3CBBBD96
3DB51571
BDA1325F
3D95DBDF
3CFFFD91
BD7647D3
3D4B94DF
BE0CCD3F
3E0BB80E
3E9F9C01
BD052E83
BCBEE23E
BD914CBF
BDC886E1
3DB58A90
BC93A122
3D36CA9A
BE3848D3
BE0E917F
BE1C42FE
BCDE10ED
3E9F3D7A
BD790CAF
3DAF6274
BD007236
3E18B93B
BBFB7AC2
3B6D8F8C
BD835C6B
3C863000
3D435A0F
BE239687
3C67FFCE
3DE37B8D
BD57BB00
BD084539
3C85AF62
BD43F95C
3CB5D5D0
3DB35C26
BD637AF7
BD84077F
3CA096FF
3D21BFD9
3E277DCB
BDFE85FD
BDA69539
BE6C00A4
BE47E726
BE7D6AE6
BE1CA607
BDF0FA08
BDBD3600
BDC2DB02
BE08A69E
BE0CF7FA
BE79661D
BE8D8912
BEBC9C5B
BE0711CA
BC9E3AFF
BE1EBE4C
BC836413
BE1AB4E6
BD26C727
BE0731CC
BE159726
BE5C7B10
3D025522
3CB2E8EB
BE34AEE4
3AA3CA7E
3DC686B5
BC9BEDDD
3E67C1D2
3D726540
3E43852C
3CFCEEC9
3C952D49
3E25A710
3E03DBC2
BD98329D
3E7E6FC2
BD0AE6CC
3D8EF9D8
3D08BE58
BC4C856A
3DB91452
BE1DD3EA
BD17A937
3DF49F6C
BDB8543D
BA5F7BF7
3C3E870F
BDDCDD6C
3DD661C9
BB958B67
3DF782B9
3DEE6BC6
BCA00731
3DF5BA39
3E58E787
BE2555E7
BD8DC9AD
BD82749C
3C26CD3F
BC9E68AC
BC154B83
3D89EC78
3D99ABB3
BDAD360D
3DB56960
3E1320B8
BE032ABC
3DE619CD
3E2EB14B
BDF69751
3D1A38CE
3E46D2E7
BE02C9D8
BDA7BDB4
3CFABE92
3E4888F8
3D63FE75
BE84A710
3BF00244
3D03947F
3D68F21F
BCA67149
BE15E706
3D0FA08F
BD77D1D9
3E37E784
BD967437
3D7992D9
3DBC6D16
BE01F03D
3C13BFA7
BCD799CA
BD1299B8
BD1CA532
BDC3FAB6
BD2766AF
BD2A70BA
3DB486C3
3D2EB5EE
BD8D93ED
3DEBE0DF
3D82F3A4
BC15AA22
3C016C02
BDCDD26B
3E88EAE2
BDBA1D26
BD8A00FD
BDB108EF
3E75320A
BC7F94F6
3DFBA692
3E065EA4
3C02056C
BE033ED0
BC47A612
3DEA4152
BDA8BFAF
BE0EB485
BC97D8E5
3CD0E2EC
BD218C82
3CED3A91
BDDC382A
3D062B18
3CE1586A
3D70B156
3DC8377E
3CBCF086
BDED31EF
3D978758
BCA62CCB
BDB928DE
3DC596CA
BB7C5AA2
BDC7A7B2
3DF16CBF
BD1D974A
BE08F415
3DDC6675
BD468266
3DB8D6EC
BD177936
3E0764C9
BD7D0B89
3D2DBDDE
3DB922E4
3D5A23C5
3E4819FA
3C93B83E
3DD238A5
BD9D413F
3D19DD39
BE01EDA5
BEC4A72F
BDDCD14F
3D97A236
BD8ED390
3D86FC33
BE7FE97B
BE0FE4D1
BE73B68F
BE8B66EC
BE53333A
BD05A23E
3D9C1FF5
3CA54DF3
3E197072
3E834CB2
3DE754D9
3B871C92
BE2E62A7
BEE6754E
BF105868
BE940482
3C9480A6
BDFCC44E
BCAF2B31
BE3D719C
BE28177D
BD0CD022
BCDDDD05
3DBE645A
BDD0A287
3E1E19F5
BDE34D85
3DFB342C
3D221B6E
3D168116
BD3EFE05
BD7E1026
3CC02FAB
3D6DFED9
3D90611E
3D58319A
BD2592FC
3E158C3E
3D8E5EA9
3C9D305D
BE1A261C
3E0316A7
3D032696
BE15341C
3DF9EA21
3D834C9A
3EB0020B
BE68E4E1
BD1860ED
3C9BB873
3C4AA45E
3D3FF942
3C63282E
3C3846A3
BCD7867A
3D962E36
3D78FADB
BE4F3F60
BBA17937
BDD824E2
3E408CD3
3C16AFB4
BD249F47
3DCE3E1C
BDE68987
BD8F4D87
3DFB4D2E
BD5A579A
3DBA1B0C
3E4054C0
BDC4865F
3CE384E5
BE058376
BB88D372
BE18FEC7
BDB7FFDC
3DDB3B90
3DAD6D5E
3DB5029E
BE2A989D
BDD93ADC
BC6442F6
BDDEC18C
BE6D9055
BDF463B5
BE56FD73
BD14539A
BE15303B
3DF1A85C
BB824AAA
3E261E13
BC17152D
3E263A2D
3E136B5A
BD4F05C5
3D93ED28
3D3C23AA
BD15C3FA
3DDE940A
3D9650D1
BEA2EDCF
3DBC672B
BDE9ED8A
3DFDFDC7
BE426F61
BE47D248
3D936719
BE4E5888
BE284F6E
BDA4CFBC
BE29425C
3DA25C74
BD70A8B7
BDEB9793
3D919647
3E8484D7
BE29E5E2
3BD847C4
3D80E3A1
3E2EE8B0
BDB86458
BD05AAF2
3E627108
BE2F7DD2
BD93340F
BE93BC83
3E851DA5
3CA6AD2E
3DD6303E
BDAE7A68
BDF0ABC2
BDE0EFDD
3DAACC75
BDEF6A43
3DE9786A
BD704580
3DCF265E
3DB13D1A
BC800A16
3E1A5D29
3DBA7545
3D2739C6
BE45C811
BDD5C4B6
BC030FDF
BD6445A7
BE5EF743
3DE8901A
3D6C7A92
3DCB8A20
3E32B240
3C5259FF
BD713E56
3D50A06C
3CC91C9F
3DB20413
3E0FC808
3EAF9A8A
3E56933A
BE06FBCC
BD414207
3DC6183B
3E799C39
3E9264C3
3E8DC4A2
3E940B8C
3E9365E6
3CA0AB4C
BE09208B
BDEA044B
3DC6B246
3E4A7737
3E29AE56
BCC4353E
BE947776
BE0B2C33
3C918070
BD1B34E5
BE1C167B
3C9854A0
BE63C1CE
3ED8D09D
3E569D29
BE99C7DB
3E496F4A
BE548480
3D860B8C
3E29C5B1
BE249FDE
3E0F94AE
BB56DE2F
3EB02F22
BC6EB60B
3D142BEC
3E005FFF
3E20A32F
3EA62A3A
3E8D1FC8
3DDB8ABB
3D25C217
BDEFEA59
3E1EEC83
BD6034B4
BE92A00F
BC85DB2C
3D9FEB50
BD22493B
BD5C2EC5
BE2C94F0
3DB09B7C
3DEBFFF6
3E54DAEE
BC3A7841
BE276DC7
3E1BF73B
3C9E944A
BDFB2C33
BD7F487D
BD994EC9
3DCDA420
BD93BF68
BDBAE98B
3DE60ED8
3DA2BE9C
3EDC17F2
BDA3BC7B
BDA93C0E
BE606332
BD226D3D
3DC62562
3D8A0604
3DBA319F
3E38FC21
BB027ABB
3DD06D5E
BDB3204F
39A0C604
BD54F9AF
BE96DBD4
3DE1585A
3C41A70A
BDBCB55B
3D6C6BDC
BEC560AA
3C3BF3F7
3E3FF6E7
3DC2B70E
3E197DDD
3DC4DFBF
BD826F39
BB5ADC96
3EF14160
BB9C76E8
BE05CFEE
3E9058DB
3E351CAD
3DD98493
3D18DA21
BC8B138F
3E815AEF
BD1043BD
3CF81078
BDA591C9
3E0E5EBF
BCF43B5B
BD67A5E1
BDF26BC3
3E0AD044
BE606269
3E829C0C
3D85F905
3DC51E56
3DFF231E
3D7DFD74
BD783F09
3E0A7993
BD054C50
BE8041F5
3E6EB075
BE65D44F
BDE6CDD8
BE055582
3D9638B1
BDC08476
3D483010
3E737147
BE8418D7
BE4C502D
BE0285E6
3E74648C
3D3E852C
3D30A93D
BE9EF64A
BC442F04
3DCCA888
BDEE5471
3E296D60
3DDDB255
BE347F78
BD20AE13
3E07FC69
BD30D6F5
3D52A5B7
BD5C16E7
3E239C8E
BCE64600
BE54022A
BDA1116B
3E8AF31B
3ED72410
3EF370BD
3F18EEE3
3EAD6A85
3E463715
3E8FD87B
3E161B45
3D362549
3D8A2767
3DC20765
3E25E6BC
BCC264DA
3D9E0C5F
BCD3840C
BE842DE0
BE927FF6
BE3A4B84
BE65CB2F
BE372757
BE1A4477
BE7F583A
BDE944C5
BE1E54B5
BD0B1052
BD0021FF
BE4850A9
BB80AEF2
BE341582
3E2BE6ED
3E280CD2
3DA36BBB
3DBACB02
BE2CE1DA
BE337DA6
3DD18C19
3D1E5484
3E7BCED6
BD971562
3DB5F984
BDAA6E4E
3D36815F
BE16B8C4
3DDCD0F1
3E1724D2
3EA41480
BDC7A06B
BE206AAB
3D83D697
3E9417C3
3E82E130
BE0CEC27
3E057D40
3E407B06
BE065450
BE2D9E19
3DA5BADD
3D9B1836
BE23FB60
3E12106E
3D9F4D90
BD98CEDC
BDA36D61
3D401849
BDDFD60F
BE837ACB
BBC36412
3C25E6A4
BE0C160F
BD8DCFC6
BE67D714
3D001C58
3E95687D
BE259012
BE73A2E0
3AF0A94B
BEA095CD
3E1FEA95
3E88A4F4
3ECCCC83
3DCF4144
BE553C29
BBD28A94
BE53E470
BD282568
3D2D7B26
3DB295EE
BE14A508
BE156EF6
BCD6A7AD
3CD03F9E
BE429648
3D887E2D
3D893FB5
3E4CDBBE
3DD99CDA
3DF117D0
BB814B08
BD8583A4
3E8EA1C7
BE1250F2
BE0F63E5
BD328B22
3CF9BBF4
3DE9A0E3
3CC338AF
3E529252
3CBE5469
3E7917AE
3D2C80B2
3D478CB7
3D4A0CC4
BE1FDA47
BDA8ACCE
BE6C7502
BDA07350
BE54A3D4
3E017E3B
BCA6BC2C
3D5C39FD
3E06FA11
3DFC8133
BD3254BC
BC797A60
BDED7102
BCECDAD4
3D9FD3BB
BD7C187F
BDA77814
BE81EA00
3D9BBA3A
BD1D971D
BDCF4A20
3E6556CB
BE0F1D1D
BCD4ECDC
3CC873F8
3E0A80F8
BD632833
BC710D5E
BDE15CCF
BE0FC753
3E146B48
3C06E129
3DC42436
BD7965CA
BDD6CEBC
BD992BDC
3DC62853
BD427325
BDB3D912
BE570B43
BC265366
3BE7D49F
3D566EC7
BEA31D99
BE9400E4
BEA0873A
BEC0621B
BECA5116
BF128FA8
BEE62E39
BEDD76BC
BEC9B446
BE41626B
3D71AC38
3E2ADF0D
3E8A16B2
3D9C48F9
BD81D3AD
BE84BD41
BEB1CC61
BE96481C
BCFB3566
BC73DE13
3E55248A
3E81F8AB
3E778EDC
BB5BD1AB
3C53CEF5
BD46A111
3E3482AA
BDE82957
BC2CF41F
3CC85986
3E24A721
3E900ED3
3CC918CE
3C1054CD
BC9FE9EB
3D3914EA
BD3BAA8B
3D5567C9
BCD95B26
BDC7F889
BD964192
BD447471
3E8D4D4A
3E04A403
BD89527F
3C83793C
3D5986B4
3E278C6C
3CA5FCA9
BD23564C
3E87A0AC
3E489389
3C60DF69
BD0A53AB
3DA2180A
BCFFC10B
3DF3727B
BCCAA8D6
BD814CDD
3D1665FE
3C6FE104
3D9888FB
BDAC770D
BE4D5707
BDA75456
3D818BA1
BDD3C4B1
BE41F5F4
BD60E7F2
BC63936E
BD31F99D
BE0157B9
BD9DA1BC
BCA5FEC8
BE20D0AB
BDECA941
BD1B5A3E
BDAFAF7C
3E0111A0
3E12EC5E
BDD3F283
3CFF0E33
BD6AFEEC
BDCDE0A1
3C9935D7
BCBF9AA5
BC013730
3AC11F56
BE4631BC
BE36BE38
BD76391A
3C8A832C
BC67D7C0
3D660268
3DEC1F1A
3DB45ACF
3D6507FF
3DAD1561
BBA26A67
3C512B2B
3E156642
3D229597
3D09B040
BD91FA35
39A7C617
3DA85F3B
3E25AB7E
BD4A6165
3DBAE122
BE301A1C
3D80DCD9
3D991329
3C8D9976
BDEA8D72
3DDB7803
BD9B34A4
3E035181
BDE2A14A
BDBF097B
3D5ABFAF
3E201132
3CFB2D0D
3D44CF17
BC80F538
3C351DE4
BDB6BB6F
BDA47F13
3E05BA5B
BDAACB39
BD046169
BD87F116
BD743120
3C3B123A
3CC42960
3C20C919
BD576A68
3D2AC61F
3DB80FE8
3D4A9796
BD4BF01E
BDE45408
BDD2B170
3E53E34F
BDF20840
BCFF42E6
3E1263B0
BD7E74D5
3C384B2B
3B119AD0
3D48BEC8
BE584CD6
BDC3C6EC
BDADD93C
3D2EC3C5
3E054273
BCF6A9B0
BDE039EF
BE54578B
BD30760F
BCD14BBD
BD509C1F
BE25F747
BE9B0684
BE996A1D
3CA87A12
3DC347B4
3E3C9610
BD3E9EE4
BD2F7165
BE86508A
BE491CA3
BDB5F9B7
3D4022F0
3DBBCC57
3CD4F9C2
3DA8B3DB
3D99ABEF
3CD52302
BD9FEC20
BC65C42A
3D5F6CD0
3E28E347
3D2F7DF5
BD80D87A
BDAE3010
BE843FE9
3E1AF4CF
BBAF1A18
3E5D36EA
BCA71FBA
3CCE4624
BE7E20F5
3DB452D7
3CAE086C
3D876811
3CB53891
3DE2BD8D
3E104D92
3D12CB26
3D6D1029
BE2A2BAB
3D358A0B
3E8A6BA5
BDF481CD
BDE0A4FE
BD8F937A
3DB4BA52
3DE18D76
BD8C2CB8
BDF2DFD7
BD96D430
BCD61682
3E4DA77B
3DFFE22B
3E1707EF
3D992166
BE1E6A1F
3D221DE7
3CA25286
3C844290
BE6CC9EB
3E1840F6
BE47A96A
BE060A05
BD248FFD
3C7B3B95
BDFA355E
3D8BF597
BDF21823
BCD194EE
BCAD3BE3
BDF948B4
3CD2D3F3
3C162658
3DE27A05
3DAFDC52
3D5F0188
3D51614C
3CC8F1CC
3E057E02
3D50A87A
3BA62385
3E13F41D
3C86F7C1
BCAEDDDF
BDC54BCC
BE073322
3DEC4BEE
BCFAC259
BDB1B0FE
3DEA8D8D
3E87E1F5
BCDD4F6C
BD80E399
BD3D7541
3E378169
3DA73226
3D69201F
BD197E3B
3D961C18
3DB77145
BA989B31
BE13447A
3DDE1841
3E63D274
BE204F2B
BE22CF31
3DACFF8A
BD305151
BD8CD6DE
BDD55CA3
BE450DAE
BD2571B7
BDC22DA3
3DBB28D4
BBA4BB1C
3DE301DD
BD71E525
3D98437D
BD8F7EA0
3DDD8630
BD78F5E8
3D2750B7
3E2A30D5
3D722DBD
BE45B383
3D8A176B
3DE21767
3E0B3E43
3DC7EBE7
3D8A5764
BDDF454D
3E07E388
3D9F4375
3DB80409
3DA2B6E8
3CEAAC21
3DD84083
3E32AFEB
3D7FF60F
BD0FC108
3E161DA8
3DABB619
BD6B296F
BD3C2791
3D34BA64
BD8D4F26
3BB76A7F
BD1E2E46
3C96317A
BCC75F85
BDBCF3DC
BD176391
3DF06D50
3E10DFA3
BBF0F30E
3B9C4059
BDC3A7CF
BE766E6C
BE49F6C4
BE8C6668
BE57A87F
BE015875
BE241186
BCDB9887
BC58F3A2
BDD43AA8
BCF96B31
BD729005
BE001A5F
BE9B9BE6
BE38AB27
BE2FE804
3CEDD0D3
BDA97505
3BA29280
BD983FD1
BE40EDCA
3CFDF360
BCFF29DC
3DD5EFCE
BDB885D0
BD7CC2C1
3E338A7E
BE20B2DC
3D68EFB0
BDD54BB4
3E9C16C4
3DA9FB81
3D9D8AD8
BB859773
BD69E58F
3D14B7CB
3DB61770
BD54A8EA
BDEE067B
3D9A9AB9
3D28C094
BE4FCECC
BDD24074
3CC8AB2A
3E27E2D9
3D29ACDD
3D776616
BDEF252A
3E029739
3DEB5533
39896FD2
3D5070BB
3E2DABF0
3DC4867C
BDFBD0FC
BD559D99
BD6A2CB7
3D22D0AA
BD7466CA
3C76250B
BC667723
BDC0F051
BE7677E3
BC0B53F6
BD725758
3AE4338B
BE81FD5C
3C34C275
BAE6DD89
BC965989
BE347C6D
3B58426A
BDFE2BDD
3DABDADA
3E733ED7
3DAA82CE
3D5F50B6
3D87C74B
3A219F0F
BE6DD28D
3D6021B6
3E1978D5
BC5DB05F
BD22A135
BDB96363
3E121A93
3DA6C5F0
3D250062
3E0B707D
3C9DD0CB
BD1875C0
3B086CAD
3DC63BC6
3E5131F3
BE90DEE7
3C595754
3C99FBB4
BD0A31BD
3D7623FC
BD34FB6A
3D25ACD8
3E041015
BD8A9675
BDB61316
3DF71F87
398DB53D
BE4C2A09
BDC0DF4F
3CBF02F5
BDAF7A2D
BD471568
BE180516
3D8B6FD4
BD572EE6
BD7E56E8
3CB46B3C
BDF69BEE
3DC3D0D1
3DA8BE52
BE0ED6BB
BDA060B8
BCCF02B2
BD8B986D
BD88610A
3D98355E
BB0C7E9C
3E56A3A3
BD963987
BE22FAC3
BDE28FF0
BE4CD410
BD52FB25
BDF1E80F
BD3BB580
BD7FB62E
BDCD2AB3
BE748D99
BD511C78
3DB02CCE
BE265CAD
3DA5CCE3
BDD41AAC
37C25E0E
3BC907BC
BCC6A9BD
BD1E5070
3CA5BE4B
BC14AE21
3C3BD320
BDD890A0
3BF7501F
3998286A
BDE9E06E
BD354386
BE5F6F96
BEAC85A4
BE8D768D
BE4F6BA0
BDA25263
3BFB2F34
BDD3B9D6
BD3E9666
3E1AAFD0
BCD8D6F1
BE0A78CA
BE1C2309
BE29FFBB
3CD4AD81
3D2FC0CD
3E9CF4D1
3EB803D0
3E990657
3E681ACB
BB1F0C7E
3E6DDD3F
3E52E997
3E48F58D
BDE8C13A
BDBFE424
3E0E51E6
BC77EAC8
3E281F54
3E7E3F65
3971B6E9
BE53FCE5
BA31FE2E
BE23AA08
3DE03834
BD6EDAB1
BDFD77AA
BBC7D8FB
3DFD508E
BD09753F
3E2B447A
3E37D5ED
3CE0A374
3DCE826C
3E91E64E
3E440F74
BE2076F6
BE021F01
BDA34E94
3DAC1C18
3CEF3D3F
3CC2C664
3D3AB421
3DB5E056
3E3F83E0
3CF2A9CB
3D0DCEF0
3D5EA435
B9A8C68D
BD091E44
3D9C1798
BC964C38
BD82DB4F
BCFE8D2E
BD868727
BD9A8F50
BD405F5C
3C44DEB7
BD2F3946
BCBFC385
BEAF9134
3E9A8F6A
BD5C4050
BB3B5D4E
3E18B213
3D1B3873
BDFFB854
3D354E05
BCB6CD6C
3E4080D8
BC6112AA
BE74D17E
3D31C5D8
BDC095A6
BE1E71E8
BCE89372
3DC685F0
BDB0EAA2
BD8E60EA
BD6890A5
BD240523
3C86A530
BD554E40
3E43523D
BE00202A
3D1A3ECB
3E316B4E
BE0AFD62
3E66523E
3E8CB45E
3D93FFB1
BDCD2235
3D926466
3DF503C6
3B52585B
BDCC67EB
BCB83E6B
3E1A7682
BE39CD0F
BDA4F387
BD365A0C
BD2B27B4
BDC8E6DC
BEA5ACDB
BDD1A84E
BDA62807
BD36EA5D
3DA783DC
3C349797
BE6A6EDB
3EACA4C2
BBD388E1
BCB6291C
3DDA8F63
3D870839
3E2EAA4C
BD81DFE3
BE826BF5
3CFF50D9
3DB789B8
3DECCF51
BD2F28A7
3DF2061A
3D4E284F
3CACA55A
BDB75381
3D53947A
3DD5D639
BD5534A3
3D4CE638
BE2752EF
3DA67614
BD75B0A9
3EEF3AB9
B900AD15
BE4A899E
BDA8660D
BD9384B3
BE7E1CE5
BBB1A532
BE1005CB
BDE77906
BE0EECD4
3D1ED79F
3E23191E
3EA2BC04
3E512DBA
3E906C66
3DE77A63
3E70FA8F
3E689141
3E432A1B
3DF5614E
3CFF042D
3DFF8F98
3E2038A6
3E45064A
3CE9DB8C
3E0847C0
3E233AE1
3DD181C5
3E1F0C06
3D189DF9
3EABB4BA
3EE87901
3EFD48C5
3EF6AFF9
3F4AA00C
3F006D88
3DA90D1E
BDD4D728
3DF1C6FA
BDD9C8E4
3E26B639
3E77B38F
3E5FBBEC
3E1F46ED
3E123F6F
3E1E54D6
BDEB7132
3D2D7D7F
BA6D7036
3E2DA7FB
3D9A7931
3E99108D
BD532FA0
3E90FAF0
BE08C4D1
3E4D6D06
BE611FAD
3E0941CF
3E4D8CAA
3AC73EAA
BDD8235D
3EA4A970
3E9194C7
BDD6DCFE
BC89A037
BD2B6470
BE11C5D3
3EB2EFD1
3D1EC4ED
3E46CD65
BD0BF287
BE682ABB
BDEF9B7E
BD9D4752
3DD47014
BD1BAC69
3E55C8CD
3D59880C
BEAE9106
3E03DA22
BE9DB0FC
3E065790
BDBE578C
3D9CFDA9
3E3E7F04
3E2B9508
BE4A7AF7
BD00BCC4
BDA79F51
BD27FDDE
3C25F181
BB0F85A6
BE0F16A4
3D5B59A3
BDE60D7B
3E0C9D90
3D68DE76
BE20D4D6
3E5403A8
BE23C686
BC6B0282
BE8E3015
3D865514
3DB7E1CD
BE40B9FE
3DC9EBF9
BE220A23
BE2D210E
BD758F31
3E791A39
3D05777B
BB0B92BD
3DDA4ADD
3D16FD4D
3DE32592
BD5B6C55
BE8C2939
3D8BCD2F
BE4E6A70
BCD16DBC
BBE13AE3
BD60CFC9
BDA6E916
3E33C05D
3E0A29DC
BD40317E
BE84A640
BDB66165
BCF69D20
3E05DE2A
BE185249
3E04603F
BEA0C880
3E95F271
3E2F2D94
3E65A745
3E07C405
BD55432E
BE472C30
3DAE5EE7
3D98013A
BDC5F0C7
BD31B313
BD621328
3E4D55CC
3DA33A5B
BE8E2365
BC456CBC
3EB1D52F
3B6D3142
3E1F36F6
BE0D9A81
BE6C0C84
3BFC387E
BD90E960
BDC2787C
BE06A77E
3EEFC973
BE495BD7
3E0D9C50
BD71D507
3D05BD16
3D73BF85
3DB73C44
BE022C31
BE17486C
3E0AA38C
3D852894
BDC787D3
BD7A0991
BDB0CFD3
BDE06F5C
BD463876
BE3AA327
BE871BF9
BE40378C
3C5BE17D
BD5845AA
BD72B63E
BD9FC37D
BDDB710A
BE8DCCB8
BDD79167
BDB9968C
3DF0B864
3EB29CA3
3EDA752C
3EA7BEFD
3E2862E8
3C67627A
BD6D22C0
BEB21405
BD5F8C0F
3C2E34FC
3D93ECA4
3E19ED11
BCBB0037
3E650BDF
BD947E85
BC385E0B
BD787F96
3CC5F86D
BE33657B
BCE58698
BD5D2E21
3E39D87D
BE1D3657
BCDC0E53
BEADD0A6
3EAA40FE
3E11F454
3D404822
BD7F0788
BCA5CE51
3E8446A2
BE2AE650
3DEA317C
3E82EE48
3E18490F
BDB0EAD7
3CE79DCE
3D99575B
3D82ADA2
3E8FB8EF
BE5F1B91
BAC345EE
BE366249
BD2B2181
BCAB6752
BE62BEA0
3E851369
BDDCC0CB
3D188DDE
BB1921A5
3D2B3078
BD7D2FEF
BE437316
BD97EDF0
BD6C91CC
BC202AAF
3DCBE385
BD6D75DA
BE5C4E22
BE5A3AA9
3B994C9C
BE53B8F9
3BD48F08
BE40C91E
3DBC6121
BC539F85
BDF7AC82
3EBD62BF
BD657E34
BE29AB31
BE00E47C
BE05F56A
BE8060B8
BDF906BF
3DA4A384
BE215EF5
3D4882A6
3E124C33
3DB44397
BDF886AA
BD96B531
BDCAAEBE
3D205664
BDE41264
3CF9D06B
BD553581
BE1CDD00
BD564249
BED96F29
BCD0A9D1
BDD12EE2
3CFF1229
BDC95740
BCB90413
BDE82914
BDE2E184
BBBB95B8
BC2A1F79
BE3D1DE8
BD021B6B
3D2E3560
3BE828E7
3D988D77
3E595C2E
3CE30E52
3E322728
3D1A77B0
3D23B28F
3D6F9666
3BBE7C38
BC6F1DDB
BD7D6AAA
3E450C58
BE4308B5
BD5CCE98
BE4E0A4F
3E2E3E29
3DBF3308
3D8796B2
BD8831AA
3E27B3ED
BE4886D2
3E0FA715
3DF2CFB1
3E05D3D6
BDD90174
BDE11ADA
BC626215
3DB1E95F
3E5CA955
BE1B2C2D
BE454307
3E3315EB
BDD7654F
BA87A51D
3CF8A89E
3DC585D8
BDA8CFB2
BDF06D50
BAA9A465
BEBC652D
BE79DB9C
BE8B1525
BE49EA86
BE9DE6FF
BE1DAEA3
3D97DB9D
3DDF8635
3E10C3E0
3DCFFDF5
3D885F24
BDB18DD6
BE305327
3DC2368E
3E60D097
3E866B36
BC0DFBF7
3B87BF4D
3D2A21A2
3C8A6574
3DE7635E
BCCDC677
BE7947F8
BEF52F2B
BE6A3FF5
3DC1D878
BEBEF710
BDDFBE19
BDF9BD4E
3ED8CDE0
3C97049F
BDBF0200
BDBB16F4
BE15F8E0
BD986EE0
3E70CBF3
BD5E8DFA
3ECB3161
BEB2573C
BE0C5ABE
3CAC0034
BD21D12E
3DC542EB
3D48553E
3DEDC64F
3E9006DB
3DF5A5D4
BD8690D9
3E406390
3D79511A
3C38C132
BDBA3659
3E5F7D37
3E29D594
BD42CE59
3D6AD665
BD2A15C0
3E988F6B
BE9EAC5A
BD060E7D
3E906F48
BDBAE3AD
3E73AF53
BE22D235
BD22C85C
BE8EFAEB
3D4356BA
3E68C606
BEA55A9B
BDAE7951
BD4FD497
BD5EA577
3EBEDC35
BDF388EC
BE660F79
BE45CF90
BE804F64
BD88928E
3DD09F62
3E9A8485
3D2F5F74
BE969E4A
3D82A95C
BCC16AE4
BEBA657C
3E285AF0
3E58F65D
BDD5CACB
BE867D1D
BDAE44A3
3E993405
BE34062C
BAF069E9
3D56BA47
3E94BDA3
3DAEBEB1
3D3CCB58
BC02822C
3E5BAF46
3E3A897D
3E16A6EA
3CE41477
BE5797B8
3DD74D67
BE36AB51
3C20A6AC
BDE64C73
3E8088DE
3D999BA6
3B10E5EC
BE84B1A1
BDF7DE36
BE9A8837
BE5EEF7A
BE8E8679
3DD81FB1
BE087577
3E0B878F
BDF786EA
BBD85043
3CBD4E6F
3D8CD4C4
BDFD83E2
3DD9879E
BCBE3FB1
3E811CC8
3CC6B719
BD31968B
BD9917D5
BE115BD7
3D797D57
3DD1BE61
3E67DC31
3E9F9DAB
BE527D38
BE2EEB92
BD0EFF4C
3DBC6FBE
3E159494
3DD4912A
3D8066BB
BD4A42ED
3D91B3D6
3E23C3F5
3E17741F
BCB28D46
3C0E55EB
BE90BE76
3E07C2AF
BDA51C17
BE71E69E
BE9C4E1E
3DD5FC20
BD2F89F1
BD796768
BE1C6EB1
BE62B5D8
BE0AFEB1
BE482617
BE65FA15
BE300D4A
BE4F4BB9
BE8336C4
BE8CE450
3CA7AE04
3C3065B9
3DE1D317
3DA8BB2E
3D40F43F
BC534770
BDEDC246
BDD49533
BD1C9F10
BD51F9F0
BE49BE46
BE0A404C
BD05C356
BDD8C8E2
BDF7D69C
BCBEAEA2
BE78BD5F
3E1E4375
BDCDBC31
3E10CA8F
BD8274AB
3E197A03
3E0912E9
BDFD6CB5
BC2E2BA2
BE9B5C98
BABD5536
3CF7ADC7
3D873066
BBD98D22
3DFFCA0D
3E6A4710
BC85EEC2
3D2DB085
BD04C48B
BC324435
3CFC9405
3DB35004
BDF7BE48
3DA51DEB
3CDB0ED5
3D81293B
BE408320
BD6D407B
3D321757
3DD49731
BD404301
BDF84CAD
BE3B3FCF
3E609AD9
3E03C848
BCAE7CC5
BB42A722
BE12FD11
BDC6F799
3DB53F70
BDDEC779
BCCD4289
BD85E325
BDC25827
3B322A79
3D569ECE
BDA6A57A
3E25A5AC
3EA7B8A2
3CDAB4C7
3D83D6F1
3928C7F6
BCEAB2DC
BE04566A
3D026538
3E472C0E
3CF9C90A
BDEF5B7A
BD44C4C3
BE29EE3F
BE15CAA9
3E19B26D
BE58621F
BBE96FD3
BD288092
BC0E7AF1
3CCF403F
BE5FB437
3D9EBCBF
BD91C3FE
3D59C607
BD50F6D3
3D4A4393
BDE8DE02
3DD1D515
3EAC27A3
BDC8045B
BDA21E31
3DE7D955
3D02EBC5
3E251428
3BCD03FD
3D918A8F
3D75AC62
3D8A67C1
3DEE504D
BD092CAD
BC10DCC1
BC04A940
3DC01F87
3D0C86A4
3E047779
BD470B7D
3E1213BC
BDC80965
BE01A621
3E7D48DF
BDEAD6E6
3E261FF6
BD85A1F7
BD82D1BB
BDF41172
3E08E842
3DAB0A0A
BE413222
BE957262
3D455738
3DC509D9
3E1A4FF3
BD03190A
3E20941D
3D6AAEAD
BE90E92A
3EA3ADCE
3DEFA7DE
3C8A74CE
3C383D13
3D9A03CF
BDEE8D1E
BDDC76C4
3D138596
BD2CB59B
BDD92CB5
BDA6009C
3D60F213
BBC150B8
BDA5A906
3D6B3937
3D868450
3D7ADDD5
3E45958D
3E9D26F0
3E886349
3E76655A
3EA4B765
3E837DE3
3E8EB968
3E7D7746
3E60E53F
3DFE45B6
3D6A654F
3DE30E65
3DBC61B1
BD4837B5
BD92FE33
BE3ADA98
BE0FD05E
3E3C9463
3E21D3D9
3E82B764
3C7A5632
BDAD3960
3DAAADB7
BC6CFD44
3D742CEE
3E9AC2C1
BE2ED0EF
3D0B68D4
BDB6C84D
3E9292D9
3D35231D
3E2F794F
3DF142C0
3AB716CF
BDD5946C
3DE5D1A9
3D7E8819
BE0DA7D2
BD982AEC
3DE8789D
BBF0EE93
BDA283BB
BE52C04D
BD425779
3DA4761F
BD9EDA22
3E06770C
BDE1B915
3E346598
3D04F2BE
3C44F243
3C4CE414
3E065F6D
3C6434BE
BE087190
3CDDF2FA
3E7F0C2E
3B80DC0F
BDBAEC49
BD7B575F
3D25E02C
3CC57469
3E14660A
BDA8FD91
BC9AE0B1
BCEABB5A
BD4EE5B6
3D79886A
BD8F7757
BE82516E
3CCF3334
BE00BC82
3D540C5C
BE1F683F
3E2085FB
BD98E41F
BE272078
BDFA65DD
BDA3EA86
BCD0BC2B
3D7C8E9F
BE1C133A
BDB4374E
3DF095A2
BD736240
BCFB2027
BDD39AF5
3CD35186
3C488C56
BD9EF007
BDB35896
BE446116
3D790919
BD9AD9CE
BD48A80A
BC823D67
3DEA5079
3D14D171
3DE76790
3E76A3B0
BE8972D4
3E4CFDB7
3E2282B3
BE636FEA
BE71D734
3D50F89E
BDA00156
3E55E71A
3C8B88B5
3D85EB68
3D3B4083
3E127DB8
BE140845
3D311FE8
BD07C942
3D8097BB
BE61F0A8
3D201CB8
3E8F1712
3D8ECF41
3E1AC7EE
3E085FC3
BDE892C6
3DD357BE
BE4C018F
BD2875C3
3E3C5B5F
BD198C13
3E43178B
BE5696C4
3D36F708
BE7E7F47
3E192798
3DBC2FC3
BDCE4898
BD340952
BD0033AF
3CDBF2B0
BB82A9D8
BDEA308B
BCFD63C3
3DCF8B81
3DD5F301
3D29D5CF
3D076897
3E718DAC
3E1E0D1D
3E10DC55
BDB3FD37
3D97E957
3DB89479
3B86C353
3CE853A1
3DA9BA7C
3DBF4532
BE38AAB5
BE5C2E41
BE486B95
3E4796FC
3D241591
BE0E1F1F
3DA84B73
3D83AB40
3D68988D
BDFA31DA
3DE268D3
3DD332C8
3E163FC9
3E186AE0
3DA61D8D
BCC0E75C
BDE3D039
BD695792
BDE5281B
3D597A58
BE4A3ACB
BD1A927B
BD72C3DF
BE41DA45
BCFF8261
3DC1FB27
3AFADAB0
3C50F693
3E6E8AD0
BE420DC2
BE631A53
3D110D64
BDE798F4
BE474F36
BDED5256
3E22EB30
3D3B358E
BDA5F4C1
3D5C9402
3D3D8E1B
3DB86AC1
BDFF4BCD
3EBDA983
BDCB9B95
3E717DFF
3E457C2D
3D3CB50A
BCB3A6C1
3D2EE594
3E35228C
BE4FAC45
3D543B59
3D8E52CB
3DCF1364
3DB45B15
BDA5FA1A
3E985423
3C30F210
BBE93966
3C817AD4
BD49471E
3E1F42EA
BBDFE936
3D9953CF
BDA0A486
BD436A50
BD544031
3E05391E
3C2A05AD
3C8DE774
BC0941DA
3D940300
BCA8C37E
BE1E9EA8
BE263F65
BCFDCBA3
BC302440
BE377D59
BDBD9349
3E31CEAF
3CCF8787
BE35FE04
3D226CBA
BE283A03
BE01CE5F
BD439D2B
BE0D1669
3B2C9A5F
BDBAE02E
3D41C837
3D5CD8CC
BDF2C4F1
3E510EB1
3DEAF41A
BE1C6994
3E54DB2A
3E2FACC5
3DA2EA9B
3DD3B23C
BE0A1874
3E21858C
3E916101
BD9ACC54
BD19E42D
3E05B354
3DE63F2F
BDC19758
3D40A1A6
BE6C127F
3E0B9842
3DC9C9E4
BE056BAF
BE71B24B
3D7AB54D
BD869C8C
BB8E1FDA
3D9A2B92
3CABE465
3D2746A3
BD683F8A
BC3475BE
BD84BD0D
3E17AB03
3E4B4FB9
BDBE2778
3C9A8C4E
BE38F2D3
3D2D202C
BE10DAF8
3CA0F3C6
3CDB4D08
BEAA3653
3D9FB522
3D90EA5A
3E46A24D
BD827F41
3DB497D3
3D9EB4DB
3DF5C275
BDAD73DF
BD2E1676
BC6CBD22
3E00F811
BDFEB075
BDE16CB2
BE1CB81E
BDA1135B
3CB23BC7
BD6E01E1
BE3E0334
3C9014FB
BDCFB9BF
3E03FDD6
BD19405B
BC9CF874
3E77CF81
3DFF08B1
3C950AC4
3EADFEA8
3CB47A0B
BC6C57F8
BDFAE396
3C9E6ACA
3D1D2FF4
3C5359E4
3E361D5E
3E786ABF
3E956C2F
3D8DCF3F
3BE13C4C
BE131F0B
BDA1E174
BE42A822
BEB6614A
BEAA88C8
BE8B0648
BEB389A4
BE235907
BD78FDBB
3CE6785F
BCADDDDF
BD919B4E
3D538322
3D89BE1D
3E93CF19
BE939581
3E5A1CAC
3E102830
3EA6487A
3DB963AB
BC4EA7C3
BD26915A
3EA89338
3E93DE3C
3D8FFF6B
3E2AED78
3E63F713
BEB86BA0
BE7D1E7C
BE8F837B
3D1DA1E2
3DC69953
3D62DC0B
3E7A83A4
3E5182BE
3E9D0188
BE0FF64D
3CC6F62E
3E60C2BF
BD7D4A3B
BE493A71
3CC50DA1
3DFE0547
3E3E1529
3DCBDADA
3E35904F
3B815800
BE2EBEF4
BE4E44CB
3EAA1B23
BCF7D163
3E2ECA62
BE315323
BE8704EB
BF0EF15B
BBA3EF19
BE47CD8A
BE163FEB
BE61FF0D
BEE2C75B
BE5C6936
3E9C446B
BE64F1A8
3C8BF623
BE13AB43
BE1D0BB0
3D503A5A
3D8FFBDA
3E894B4C
3E2AC46B
BE76DF89
BD2708D8
3DF7ECF1
BDFA9A65
3E51FF71
3E4BC8D5
3E25973A
BE36F43F
3E4060A7
3D901466
BE3D9B73
3DE0D032
3DEA7D75
3E8D9E2D
3EAD8387
3BB299FB
3E12463F
3DC66DEE
3E0AD84A
3E5A7AEA
BE7F28F0
BE7F31D3
BE436992
3C1098C9
BC899215
BD62C57F
3E3E398C
BBACEA33
BD1BFD3F
BE9DE6CD
3E360016
BE55E83B
BC2C84D9
BE92F397
BDB6050C
3E4D5029
3E7B0A55
3C79D8EA
3EA27B70
BC853594
BD34B27A
BE3F9F37
3BA6CD90
3DF3D6EF
3E4049C4
BB8164E3
BE04C50A
BD84C246
BD410E1D
3D4DE81B
3DFCC865
BDF288B4
3DBD2882
BE2E531B
BE718838
BD96CE67
3CAB271B
3DDBD421
BC9524F0
3DBB75CE
3C962C07
3D60206C
3E16DA30
BCF0C4CF
BD8CB152
3D1828FC
BDF6B328
3E5B0849
BE999B47
BE60BE9B
BEB3F5D8
BCA58052
3D4F445E
BD9D4632
BE162937
BE96BA86
BECAE610
BEAE9330
BE0D6B66
BCDAD6A6
BE10A53B
BD95A1BD
BDE24349
BD06EEDA
BDB3AEF3
BE4C1087
BEBBB2B8
BE6D92EE
BD8C8BD5
3DE09FDB
3E734BA8
3D946945
BDD4E047
BE2BAA51
3D49204A
3E1500E3
3E57ABC6
BC7E8E30
3E5A9DDB
BE20FCFF
3D0F542E
3E2920BA
BCD65C5D
BC9B1E49
3EC4A1E6
3E292839
BD97CE2B
BD8ED05C
3C2D988A
BD9A06DD
BC5DECE5
3E80D9E2
BDDA152D
3D473784
3E1A1866
BDBC2BFA
3CD0EBC0
3D5FD72E
BDA52605
BDF6A31D
3DD95D0B
3E8C6A89
3D76CD01
3D6FCAAE
3DC115B7
3E9E8B2E
BD1B3B83
BD83DE1B
3D679E7A
BE08D5C7
3DF58AE1
BE476C3B
3CDE15D5
3D1D3C89
BC83F84D
BD31F65A
BDBA17B2
BCD0A6C1
BE2E58A3
BE32AADC
BD8929D2
BE12C71E
BDE06FE2
BDF8C32B
3DB36D8F
BDBE038A
3DBDC07B
3E47D05E
BCB6AF7F
3AB3C753
3C78D8FA
BD33E4A1
BB8EEE92
3D8AE8B6
BE34B798
3E117416
3D80A637
BD704CAC
3D99A88D
3DF591F5
3DA510E4
3E3FB43E
BC8EDE3F
BE86FE46
3C70231E
3D470197
3C94370F
BDEDAEC5
BE01355B
BD47D940
3E3E14B1
BC5F42FC
3DAF5528
BE37B353
3E3E4317
3DA8E3C7
BE6E9C96
BAAB944C
3DEB749B
BC645001
3C94CF60
3C79391C
BCC41229
3E82AAA6
3E325B82
BDBD996E
BE0A57FF
BD9BEA22
3D98E9D5
BD54063F
3D95E3E0
BD814FF5
3D94EF89
BCD94917
BCDFF6F1
BE46F2A6
3E9BC16D
3D6CB2D4
3E0B6CA3
BD9529CA
BD966491
BCB9C7DD
BCBF0138
3DD8C70C
BD45499B
BE3E8F59
BCA91E4C
3D998FB0
3C93B061
BE769582
3D32F6A5
BE1F7CD3
BC2FFFD8
3DAEDEE3
BDE78A6E
BD97AE0C
3D49C0D4
BC904228
3DAE10B5
3DA0756F
BD790CD7
3D87A70F
3D4F5E75
3C973FE3
BBE76DF6
BC00D33C
3DBA8F49
BDE629B0
3DA63B3C
BDDAFC70
BECD6469
BE31E577
BE7C17D8
BE69D799
BDE8067A
BCB857C0
3DCF889F
3E3C29B2
3E4BAADE
BCA6CC9D
3C4465E1
3D1A3D58
3E00D089
BD805FF9
BE4029B5
BDCCFF2F
BE6EEF4B
BE4C7C95
BDB1AA10
BB91AAC5
3D1B0143
3DA0C824
3E0AA0A3
3DEF7E15
BC039775
BD65680F
3DDF84E6
3CE98280
BDDFBDE3
BB25E65D
3D09381A
3CA307B2
BC7F8F78
BDB5C9E9
BE120D1A
BE6BEFB5
3C852C95
BE59F0E5
3E91EEE3
BE4C35F0
3ED7C732
BE99EA75
3EA8ECAA
3D4DCB70
BCFC0A37
3E3DD3A0
3E606939
3DD2BAB8
BEA423D9
3E02BA32
3DA5CF49
3E5748E4
BD9C1C4A
BDC94A49
3EB6CC20
BD9271BE
BCB81AA4
3C9498F9
3D97D79B
3E433CCB
BE2D35EB
3E846265
3D36BF34
3DD4EA4B
BE220F4D
3DE8745E
BE0F6923
3D6892B1
3D626337
3CDF9D44
BE15992B
BD2D8C0D
BDC52C1C
3E3FDE94
3D85BB5B
BE8F5796
BE24A03C
BD8C196A
BE524E88
BC70042A
BD996FEA
3E261185
3DEF3A30
3D92A076
BE2D0119
3D6DEA03
BCDB1DBE
BE92C19A
3CE2E46C
BE232D68
3E9FCDB5
3D9A0F35
BDF10E96
3E8D89C1
BD263DAC
BD7DB0F0
3DB815E8
3C8B8930
BDE2ADC5
3E2C6709
3CE1CBB7
3E7B8F9B
BE80B70B
3E83DD33
3CDA19D7
BE8349FB
3E4780BB
BDC62BBF
3E1B4125
BE25CF03
BC7A46A3
BDFC6D46
BE3D4188
BE960063
BE11903E
3BE4870F
3DB93360
3D925E53
BE287F74
3E8D42FD
3B97A7B4
BE2AD568
3E3AB805
3E1108D1
BDA6AF9D
3E7C1ADB
BCF447AB
3E809D06
BE7CE90F
3CB0B676
3C0043F7
BAE0DD2E
3C07EC65
3D1E1DA8
BC1EA333
3D0F9EE4
BD9A1F07
3E6377DB
BDF7C003
BDD6AB8E
3EA5BC1C
3E01A756
3DBBD1C3
BE3B93A5
3C442F85
3CD66F43
3E4FC2F9
BD83A94E
BDA89E9C
3E7A8AB2
BE50DB20
3DA5E6C7
3DFFDA33
3CE4AAF0
BE12567A
3D90DCD0
BDA1E7AD
BEF90B45
BEF4EA4B
BEEFA24C
BE8F115B
BEAE517E
BE99FAC7
BD9E5DD4
BD8D12AD
3DE11086
3DF41370
3E80D786
3E47A21A
BDB895D7
BDDAACDA
BE422F42
BE2FD736
BE270E6F
BE9090DC
BD8BE01C
BC4189D8
3E3DEAF5
3DBD7601
3DF1DA38
BE24CC61
3C40406D
3E4D0F2D
BD5D7D0E
BC353CCE
3D41C8C0
BDD21823
BD334C76
3DAA3706
BD405B3F
3DE543D7
3E5516E8
3E1BCE0C
3CB85003
BE513DD9
BCF739BE
3DE901EC
BE370EF5
BD4DE264
BE8C9F18
3EC33281
BDBBC32E
BD9FB894
3E1076CE
BE5264E5
3CEAFFCE
3E2A5D22
3E4360D0
BD978BA9
3E2E8CE9
3C3163DB
BDC6B30E
BD10A3E7
3E55F3A9
BC9AE905
BE11B4A7
3DB78AA9
BD19C935
BC8A0222
BDF38B70
3D85A69F
BD97E3D2
BD7D2E34
BE5A4DF4
3E411A25
BDBB33CA
3B96EC98
BE25D7ED
BDC06EDB
3BDCBAF7
BE49343B
3BDC1D73
BBC4A034
BD664B7C
B9AB74D9
3E2B1D71
BD412087
3D8A7C92
3C8D6452
BD7F41D7
BE58720F
3D9F17A0
BE9CA941
3D7E3268
3E043F7A
3D42FEE0
BBE7ED98
BDBCD922
3D6A54FB
BD39BC5F
3E86B5CA
3D2DB08D
3EC81D4F
3D73B6DC
3E2C8E91
BE6A10E7
3DA9C530
3D94DE9E
BCC8A8A6
BD0DA603
BE005B04
3C29EA14
3E515E11
3C9E4B5F
BC7688C8
BD667580
3D48F094
BDCBE919
3DD01FD3
BC324A55
BE14D361
BCBC1D07
BD86E6F2
3C86DB36
BDA84000
BE3DB87E
3E6AE6E4
BE76935C
3EC54863
3E54B216
BDB2881B
3D7ECA66
3C8C7051
BE46D33E
BDA075C1
3C624631
3DEC0061
3C4B564A
3D76138D
BE14C038
BDB0128D
BE3430E7
BE1CBD84
BDBB5976
3CF4C5F5
3E04CCD4
3C9B9EA7
BE31812B
3D18FEFF
BDF6A8FC
3D8055AA
3DA1298D
BDBB8DE8
BDEA7D09
BE20F642
BDB349AC
BC2AC3C3
BE0EC3DB
BD063188
BE5CEE1E
3D26BF3F
BD431AAF
3D90E607
3E3F05DD
3E9B9E53
3E937A1C
3F09E4BB
3EC51A25
3E176F3E
BD99035C
BDD4DFA6
3E16B3BC
3EA742EA
3E13216D
3E83E27C
3E34EF2B
3E3E3158
3DA3C91B
3E47C69E
3DAE5A18
BE81B61C
BE9CE0C0
BEAFA073
BEDDA544
BEA597CB
BD8E7F83
BD558C19
3DA99A25
3DCCFE66
BEBE63B0
BD91E708
3D5D50C6
3EA16CAE
BE32D411
BE309E6A
3CB86F9E
3E3B984F
3D28BFE8
BE3926A6
BE19092F
3E802E9F
BC813CC6
3DD658FA
BE2040EF
BDED05BD
3DBF7DC8
BDF544F1
3E0175E5
3E8493AA
3E211AB2
BE9027BA
BDC98E30
3CC14FC6
3D321F01
BCF8E88F
BAB9F47A
3E6314C4
3E12ABA5
3E0B18C7
BD4B1981
BDFF0D84
BD616459
BE019491
3DBAC8DF
BD9333BF
BD81014E
BE9492AB
BE77773D
BE3987AB
3E2C3CE2
3D4A500B
BE22C9FA
3C140CC6
BDB1ED3D
BE771A1A
3E59560C
3DB1BB11
BE015DBA
3D7237F3
BE60D633
BD80B043
BD36E69F
3ED4865D
BC5A966F
3D73E651
BDC2C774
BE015FFB
BDE3FB60
BDD4B1C6
3D7E95C5
3E89474D
BEC6885C
3E21C6A3
3E38FBDE
BDCA2301
3DEF1638
3D84C22C
3E0AF2D1
3EAE50F2
3CA6576D
BEA12F89
3F099E1A
3C86F46B
BD86AEE6
BCEBC4E0
BD715C49
BD8EA732
BE3593C4
BD4A12A6
3E3D85F4
BC3968C2
BDCE4DC9
BEE2D9BB
BDF3EC1E
3CE09043
BD99A0A5
3E0C8D19
3CC98E03
BD2B320B
BD4A9B75
3D3D8628
3E49145A
3E5EADE3
3EB554EB
BD78BE6B
3D25A48A
3D0A13F3
3D4CBA30
BD99A6C5
BC6F6BA8
BE1975EC
BEADDDE3
BC3A155A
3C385FE3
3E6A4873
3DDAE6FF
3E7590F0
BD9DDCCA
BBA71E7F
3E2C2203
BD2379D2
BEA05D6E
BDCD48A3
3E6C87AC
BE81185A
BDA74418
BDA9CAC9
BE1C78B4
BE022920
3B694A7A
BE265513
3D505B3D
3E2196E6
BDBFAB78
BE81A5DB
BDF9BE25
3EA56A92
3E59E6B9
3E211A1F
3D9434D2
BCA5F0A0
BDA47426
BD86F2C7
3CFE39B7
BE3E7B81
BD686081
BDBC8737
3C120552
3DF83CBD
3E4155F8
3E10E707
BD3378D6
BEDBA062
BEAE1AF4
BEC174D9
BE4CF57C
3E1976F2
3D986F7D
3E9A4233
3E9750FE
3E20EDE5
3D92349F
BBE77B26
3D83FB76
3E2CDA75
BD350C5F
BD77A1AA
3DE16101
3CF3E011
3E647FCF
3E6F5339
BD0D0C80
3DC702C3
BE1CCD53
BCA31767
3D1B24D7
BC853B8E
BD5D6BA1
3DDD6F8A
BE1680E7
BE731338
3E56EF44
BDC3445C
3E7A57AE
3EE49B7A
3CD480BB
BD5E3184
BD22477B
3D709833
3C09D6AB
3E619FD7
BCD8786C
BE1A9BC9
3DA73407
BE358EF8
BCCC20C0
BE6813EC
BCC18E65
BCD0F8D6
3DD8D874
3DA28162
BE045910
3C1DEA3B
BE7F2E2E
BD8476E3
BD32AC8D
BC3C9136
3DC4EF07
BD98C05A
BBDD6348
BDB47174
3CEE2D24
3C415C61
3DC7A0BA
3CAC04B1
3D939B72
BC868D4D
BDC43BB3
3D0EA0E0
3D2FE256
BC7E907F
BD66DD0F
BDDBB9A7
BBCB7689
BE10796D
BDBD3B6E
3EB6D5DA
3D2981D4
3E8A47EA
BDAC05E9
BD35B57F
3D8846BD
BDB054E1
3D0BE701
BE2A97AC
BD15EA98
BD22D240
3E29E5C1
3DF4ABBE
BAEC103D
3DF66999
3E15F1F5
B9557A74
BE43ACEA
BDDDDBC1
3DF5CDE2
3D66BE18
BD7ACA46
BE4F7BCD
BCFF4DDE
3DC1DB37
3C7D23C2
3E0BC7A7
3D6F1648
BB896419
BD9A8724
BD656DB6
BC9D5D79
3D7DF1E6
3C8A1B2C
BD985F5E
BE0E4FB9
3E6F819F
3C889A8E
BC67DDC0
3D57341C
BD0D82DD
BEAD0E88
3E20D9B6
BC1382A6
BD626D28
BE425A47
3DDE51D2
3EA14F08
3D134FF9
BD9FB028
3E871184
BE59AA4C
BD82D547
3D52B5FD
BE426DA6
BDC62470
3DDA6798
3D3C24F4
3CC417D8
3D3DC56E
3D0D0600
3D0391A8
BCA06AA9
BC2C9D22
3D09AEA2
3BAB9388
BDD78D42
3E22D660
3E30664A
3C6AC44F
3E4EA210
3E723DC1
3EC1321B
3EBA2223
3EEC3390
3EDFE412
3E8D2C32
3DFF2E2E
BCA38C4C
BDCC0C62
3CE177C5
BD906523
3D4C0BEA
3B8BB334
BD0EEF3F
BDC8B877
BD22846C
BDB36210
BE0DB1F7
BCED55DF
BDB31FD7
BE3DEF34
BE132ECC
3E58A930
BDA9A9A7
BD4630AC
BB525458
BE7E10F1
3DD120E2
3DF824E2
BE72BD86
BE2F1DAA
BE6707B2
3C874691
BCCCB931
BE2A9542
3E720495
3CDB3723
3E72B933
BD7B0664
3D7756E7
3DDBF976
3C4436A6
BE1D43A1
3AFA21F8
BDD0248B
BDAF1914
3C50F5FC
3D256EA4
3DE1654D
BEC20C2F
3D4F749D
3E93DEB9
BE0FFEED
3E523191
3E0614B7
B9EE2241
3D948DFF
BD2A33C3
3D72698F
3D9985CF
3D8D4722
BBACEB21
3E92C5FE
BCF12130
BE066920
BCF57DD1
BDB2B7E1
BE22E112
3E030094
BD574E9E
3E05F209
3E3DDDEE
BC303D3F
BD3D49DD
BDAF2B28
BE284875
BC9367D7
3D0498DC
3E34666F
BDF412B4
BD8BEAF2
3D6D7305
3C512190
BB1B24CE
BCFB06BC
3D583E50
BE27D63E
3E972269
3E00ACF0
3C86468B
3E3E5FF4
BE36E0B7
BCA1DFA9
BD7B1E67
BDA77CD9
BDAC3CC5
3D63A853
3D9F4428
3E635AAE
BEB2E86C
3E48A6FC
BE1AB211
BE396B41
3E892971
BD860EAE
3CDDCC29
3E0522E3
BC4EBBB0
3D85CA90
BD9034C1
BDC0D542
3E8304C6
3D31E7F2
3D79E905
3D15F004
BC261F0E
3E063A4F
BE3A142E
BE0F8B37
3E94A10C
3E803E06
3D88E93C
3E69AD06
BC47B124
BD10F79A
BE433623
3E9CFA13
BCCAE7D5
3DC6A4D2
BE225ADA
3DEC6816
BCBB995E
3D18FB84
3D34DAE1
3E865368
BCAB65B4
BE2981B1
3CFEB89D
BE78ED87
3C5377F7
3B3D83C8
BE2D5EF9
3D907A44
3E744C60
BD05095C
3C58B731
3E5672C6
BE0C37AB
BA8AC812
3C810E28
BCB1C7A3
3EA29EC3
3E193D4D
3C304E92
3D99C023
BD385E33
BE1F9DA5
3CDC0626
3CCA08A8
B99B10A0
BD8F2375
3D6563E2
3DFB7C50
3CEF9E48
BCD5A162
BDA092D6
BE1E56C0
BC9D3875
3DF8B660
3DE147FF
BDA3197A
3CBB471E
3E0629F3
3DB91F76
3C420B12
3CAEEEB6
3E2EA275
3D550E6A
BE7274A6
3DD6DEE2
3E13FDB5
3D8D5A3E
3CD625CC
BE25429C
3D59FEDA
3DBBB30F
BCCDCC87
BD8E5DF5
3DA42FE0
BAE33F19
3D5993E8
BD4F8185
3B2AEE0D
BC98B9B0
3D37868A
BCC63980
3D34EB8A
BDF6B06E
3E06A627
3D1A1634
3DA7AC8A
BDB1D17F
BD8E5D19
3DBC08E6
3DCB0495
3E082A85
3D832B46
BD9603EA
3E107896
3D3DB687
3C3E5ED6
BC219D16
3DC62B09
BD93847E
3D90158F
3CD8A7F2
3C61B0D5
BD5996B5
BDB89CFF
3D909B95
BD5F4E54
BE4232EE
BDAD4154
BD8B783E
3DC995C8
B91C1F5B
3E02AD3F
3E1CFDCB
BE0D1EAB
3DCAC142
3D954D39
3D9E9E64
BD83D146
3DB0CEE1
3D79E346
BD9136A5
BDAF71A9
BE991231
3CC8A4B4
3E48877A
BDDB6D94
3A8A6687
3D164765
3E1C4835
BC8E4208
BE2B8525
BCF032A3
BBE9A8F7
BBC922EE
BCF18767
3D681555
3DDDCF46
BD9A350A
BD8D14DA
3BEA1E80
3DEC93F8
BB9B7A20
3DB06D4A
3D37D58A
3D3B3E7D
3DC5FE74
BCE29378
3D0AC9BD
3C8BFD7A
3D31C69F
BE10F070
BDB65F79
3D9FADC5
BCF66527
BE2896A1
BC9BAB57
BD8761B6
3DBC3154
3E5B5C0B
BE4E1B1D
BD880678
BD89364F
3D7FD436
3DB2C9BB
3D8BE156
3C7B2E9F
BE011581
BE5C3F60
3C010787
3DF52399
3BEA9BD3
BE04A20B
BCC4441D
3DF1E7A4
3DD71095
BD4ED893
BDB080AA
3DB39460
BCC7AC4C
BD92B783
3D43306C
3DAF3CF2
BD26BA01
3D388B19
BD2625F2
BDB25C4E
BCDF1E18
BCEDD164
BBB167EC
BDB5889A
3D6931F3
BDB71882
BE2305AA
BCE336D1
3D56AC37
3D18E9E9
3D56C4E3
3E135C98
3E3C5E5C
3E8A1A0A
3E473CCF
3DB47F7E
BD1CFE66
3CF6267D
3DDB42CC
3E4767EE
3E331099
BD6D6AEA
BD849FB2
BDE1B4A1
BE14BE47
BC96141E
BDC0A50C
BE05C7DB
BD6171F3
3E137EB3
3E80B910
BE1D08DB
3CDA50C4
BED2782C
3CFA6541
3E569D66
3E42A986
3D6E7498
BE9AE4A6
BDE6EEED
3DE06D5E
BE6109F2
3DA59563
BC5BCE27
BDC194B3
BB07A007
3D9C1522
3D9780A2
3BE00CEE
BC17DFAE
3DF7D559
3DF3FEAD
BE053184
3D03766A
BD38E313
3C4B36B5
3BCA1B7E
BD7C2598
BD986B3C
3E2031BB
3DB47602
3CA448F5
3D8DF72D
BC3A1A6E
3E8F5321
BD481CC2
BD80AB8D
3DFC7475
BDF0DA93
3D0A352B
3D16ED47
3CA3F88D
BC58DF80
3C75A284
3D0BB61C
BDD9BE83
BDF957E8
3E414DBC
BDD439F9
3E0BC3FB
BE61C894
BE845851
3E15AB4F
3D3735F7
BE6DF400
BD42CF60
3D0CFFF3
3A202B20
BE486B23
3E3B67C9
3D5296D9
3D0ED65A
3CBD5D69
BC7D8C9E
BE45305D
BDF97CEC
BD1726E0
3DF1A1A6
3C5FE543
3D525392
3D313B46
BD7A5404
BCFAF391
3DDE14BE
358EBB01
3DB5A842
3D2221AB
BC935872
BE8CB0B9
3C686A8D
3D8AD1DA
3D0B6D0B
3CA8CCB3
BE22215D
3E182399
3D67C549
3B6E0B0B
3D319E66
BCB8F45E
3DDA98EE
BB0F272D
BD5F09FE
BC081E48
BDA44119
3C0D76C0
3D8568FA
BE2ED521
BD2D73E9
3E800604
BE459A16
BDF6D613
BC869BB6
3C8CDE40
3D9A2582
BD6B90C8
BDA9944F
BD9D19E3
3BEB5001
3CB839BD
3DC61B6C
BE6E231C
BE0D0013
3E0CED98
3E03F254
3DC900D1
3E002943
BB8290F4
BD947FF5
3E06E5C7
3DEDB439
3E33C0AE
3C726461
3C8D38AD
3E79A445
3DA2A7D1
BD0362EC
3BA2BFA4
3DFD88C2
BDD2C542
3C3E5B05
3DA521EC
BD9C8801
BE075742
3D20F2DA
BE219180
BCA4EC9E
3ECA3286
3EAAF102
3E7E1819
3D7DD553
BC8BC6A8
BE2510B9
BDB5E5A9
BE0170A0
BD56D3CC
BB1AEF70
3E8B7A6D
3D837F0B
3D86A873
BD9A5484
3DD380BE
BE0E98BB
BE0EFEBB
3BE27BEE
3E26461B
3E4A707B
BD426B37
3DA5FF15
3E0A563D
3E0E6BAB
BE5BDA01
3D8E3556
BD00C0E8
3DA066B4
BBFCB1D3
3DA5484C
3D1FC5F9
BDD5F6C7
3E7A88BA
BD6E057F
3D758BDE
3E38ED3E
3CDF1B74
3E0E1991
3E211955
BE54A8AD
3CFA3185
BDD7AE07
3DD67614
BD51E751
BDC4FE60
3DA1C7AD
BDC0422C
BDE3AA37
3E4C78C2
3EB4BF64
BCE437C8
BDB0134A
3CE57F20
3D07470F
3DBB5CA4
3DAFD78A
BDA9C46D
3B9205D4
3C6940C1
3DA6383E
BD3FC9DF
3C90DD2D
BD54A1AB
3E29059F
3C2EF12F
BE98B762
BCEC5188
BCC045A5
3D3A6018
3D21AF8D
BE014813
BD8BCECF
BB5086D6
BE71FC8F
3D14227F
BD76D755
3E155971
BE0AD631
BE94A778
3D80E8E5
3D041264
3CECD8AB
BDABD5B9
3D1337B8
BE47F5B3
BDACE7C6
3E260AA0
3D1CA042
BD8D41D8
BCD5BFAA
3DB9E363
BD87BACD
3DDE3EBD
BD7C43D0
3D9BDF62
3CBD9F3D
3D88069C
BD869FA6
BE03B5BF
BD27FC2E
3E115E33
3D5A2D96
BE54C434
BD013872
BDAF637C
3DF22C38
BD515D15
3D3F6A79
3DAAE27A
3E2519DF
BD15AF17
3B7615AD
BD850741
BC784434
BDDF2E56
3C65CB0B
BD619861
BDF800B5
3E73AC71
BDE6D0FD
3E2F336C
3E0D71D2
3E0B4388
3C8A5AFD
BE193C25
BE6ADD16
BDBFFFE6
3DBB90C6
3D5E7561
BD328111
BE2C6273
BD5181B8
BD14BD7A
BE5FFCFC
3DDABA38
3E126A4B
BE1B8067
3DDD060D
3C3DEF19
BC1C1F16
3E32CD55
BE077C82
BC2C0F28
3E47ACCC
3DAC8FF2
3D06A17A
3D60C5FE
BD2F257D
BA96804E
BD8A82B4
3E3CADDE
BDB70B80
3E64B670
BE0B9F48
BDD985FE
BE105305
BE648296
BE25417B
BD8CEB5E
BA421441
BDC90A42
3DC1DF28
BE42F102
BE09E65B
BD881518
BDA7C3FB
BD02D6B2
BE932BE3
BEC0E030
BE7EC234
BDD1A18B
BBECF7CA
3D3DC174
3E1E2B2F
3DEC0527
3E0C06AC
3E5650E7
3D92223D
3E0BA87C
BDB5F913
3D426FA7
BDAB9CCD
3D59598B
3D6A3863
3E43E766
3DE1706B
3E28CCA8
3DBBEE62
3D4EC2FC
BE1A1372
BD2CF8E5
BE13BB04
3D37D0A4
BD9D32DC
3E1E8F23
3D760C5F
3E81B958
BD88DB55
3E1686A5
3E8EEB2A
3EAE26D8
3DB43D1C
BE97CA90
3DB81505
3C47E0F5
3E6F5389
BE11F58F
3E0CA171
3E4CBEB2
3C920089
BD908A2C
BE250283
BE50E787
BCED7B79
BE170C71
3C9202DC
3E0FD509
BD095F85
BE060E7A
3E993A82
BD175140
3E16C121
3D9726F7
3AC2850F
BE0836A1
3D9307B0
BDC33CD7
3C70027C
3E07B924
3BB5535A
3D1D1E1E
BCB1B0A2
BD10D3C0
3CC03D3D
BE3C58CD
3E1A0ECE
3E094581
BD48E6CC
3DB39748
3DC2C73A
3C9FB491
3D6ABAFA
BD282078
BD90D00E
BE2263CB
3DF707B9
BE37E267
3DD1819D
3D7D8648
3D1FA41A
BD14F0F6
BDACB615
BD3BDB1A
3E1D95A1
3E0C30F5
3E572FE2
BB271ED3
BABCEA79
3D91B80C
BD97F3A9
3B947DFE
3D6098F7
3AD53D34
BE217ED6
BC08302D
BE2FD7AF
3E2D3C65
BDFAC124
BE01294C
BD809253
3BD60EDE
3D960FF5
BBF6F0D8
3DED8DD8
3D0782A1
BE015A4B
3E387231
BDFFBB7A
BCE6070B
3DB2FBB2
3C59EBC4
3E1DBDB6
BD024639
BD243712
3D210005
3D99C1EA
3E82AFAB
BD0785EE
3E0E4367
BCB65785
BCF04B1C
BDD0A1E6
3D299CD4
BC9B54EB
3D067862
3D2E3FD4
BE0842D9
3E1EDFE7
3D64BAB8
3D5E8F27
BBDEFAC6
BC3D8608
BD47C5FD
BC38CAA2
BD2C5266
3C62C1C1
BE263B62
3DAB5778
3DCB959D
BD9B0FCB
BDF83390
3E3ADA48
3E27F01D
BD2A41A2
BDF10FF3
3CF09CB6
3CC751FE
3DDE6213
BDCE1DF8
BE89A562
BE83A9CF
BDBBBC0F
BE220118
BE1EACAE
BDF6A9AB
BE831D78
BEA2FB3B
BE882BF6
BD9E467B
BE4E4CAF
BE8D2F32
3D250A3B
BE1DEADA
BE6D82C8
3E667B9C
BD9A2F4B
BDC46CD6
3D6E2B6A
3DC69A22
BDACF82E
3E403C23
BD5ACB22
BDF5A287
3B8B755B
BD68E857
BDB44424
3D4FE080
BE023C00
3E23B88D
BC582917
3D70963D
3DD6FF8B
3DD175A9
3D5ED28B
BD38D41F
BD5B9E97
BE0D677E
BDF493C9
3DC1E9A3
3C07B8FA
BD61B4A9
3DB80CF0
BE165952
BD5A1B44
3D81554E
3D818151
3C902872
BC851EC3
BD643E7E
3DF57DAB
3DCCDACC
3D7AD955
BD709AE0
3E5E1AF4
3D900352
BDEB94F4
3BF62522
BD27D7F3
BC55CEF4
3DE0EDF9
BE1BF36E
BD0830E6
3E671AB4
3DD731E0
BC3159CA
3D0EDD5B
BDA0B301
BE301A73
3E2E5626
3E2F9BB4
3E263561
3E3E1BA3
BDC6522C
3DBD0BDD
3D1E9A04
3D26C20E
BBC9659C
3D8FEE37
3C8D0110
BD679AA9
3D10B748
3D82D1EA
3D8AD8E3
BE06DF1E
BDC95666
BDF06B38
3D5A4DC4
3CAFC570
BD993E73
BE670D69
BCA66B6A
BDA2AD84
BE53986A
3D81B7D3
3D45B4A0
3E452A7E
3E093E59
3E120E1F
3DE81B9B
BC67E969
3E156847
3E281543
BC8CE55C
BC08C831
BC8A51E3
3D98F2F7
3D9992A1
3DECD2EF
3D8D6372
BC9B976B
BA29EE44
BE0B5F7A
BDE7849C
3DFA5475
3CC60604
BDCCDB1D
BE1B82C3
3B62F8D6
BD61F81A
3E398535
BDDDA760
3CEA01A6
3BCA9D84
BD184F67
BDB7350C
BE0AE7FE
3D8E2715
BDA5BCBB
3E367D5D
3E1D511B
BD2F266C
BE9F930A
3E0E9F49
BE206184
BD28A96F
3E2B5C5B
3DBAE6BC
3D219CC0
BD696E84
BDDDAC4E
BD2F0CA0
3DCD28B5
3C52DA38
BBF0B718
3C9D7C83
3E64988E
BE1B42AB
BE10E4BF
BEA91D7A
BECE10B1
BEA7768B
BE0A9323
BE3EF467
BEB5AAE3
BEC0CC18
BE00D74D
BE51D2BF
BE368427
BD8E5D43
BD9C455B
BDBE819A
BE3CC25E
BD81D846
BD5548D7
3DD91FEA
BA38107B
3C52271F
BD2EAC63
3C9D2E9A
3D7A2F13
3D91ABF1
3D23AFD0
BBC7C4A1
BE8424B3
3D6A63DC
3E5D146B
3D3F524B
3E0C5012
3E93BC28
3E6081A1
3E92369C
3EC53353
BDA69B52
3DC9660F
BDB063FD
BE082E52
BCE34285
BDC79432
BE12F4A7
3D34BB08
3D13D8DB
3D9FF7E1
BE7AF584
3C8FB783
BDB782FA
3E6D5447
3D4B29A4
BDF44AF6
BE0CA3C0
3E366D52
3DB466C3
BD80D130
BE2B32A6
3E23A210
BEBA835B
BE465604
3E9728F3
3E1E692E
BD899376
BDE057EC
BD6FF312
3D08605C
BE0BBA48
3BEB2D42
3E1347C7
3E61A75D
3C85AC62
BE14745A
3E370146
BDF771D7
BE67F709
3D2A519B
BCB461DC
BDE4A424
3D0773F2
3D81D95F
3E48D7F4
BE05E7EA
3EB72A43
BE4B2BB4
BE12F7BF
BD041569
BE0A4A2E
BE1B0DCB
BD19A7AC
BD38BC64
BE0CFE52
3CF6A1B8
3D0DC710
BB891F5F
3E3D7D0A
3E6F6C41
3EA045E7
BE0FE3B0
BDD93D38
3E1E99DC
3E4869FC
BDBB3ADD
3CF28ADD
BE66920C
BE609529
3DE8D010
3C3E4144
3E7FD497
BE4D03B1
3D12E512
3DF0FD56
3D184FE5
3ED20331
BDE654A0
3E190AFE
BC3A3D73
3E5FC598
3E0755AF
BDA89F78
BE5251FE
3E1AB141
3E15A837
3DCCD5EC
BE494BE7
BE500ABF
3D7AB2C1
BD18F1B1
3E07709B
3DBC04DD
BD413D92
3D12F848
BE0587EB
3E4C0F4C
BE93A0A9
3D3A898C
3DFC390E
BD88814D
3E051421
BD881939
BEABDF24
3DE397EA
BB235E99
BE8A3EDE
BD0B5A6F
3E8A007E
BE8A8ED9
BE7D9331
BD77A764
3DA2A961
3D853732
3CD971EC
BE49FCF4
BE9B98B4
3E1525FB
3D25B5AA
3D59B2C9
3DFD5E2F
3DF7D8EA
3CB06791
3D2FC835
3DC0706C
3E082972
3DABA1B2
3D6CFCBB
3CCF9A0C
3E9250F5
3E186672
3E210C98
3CDFEF2E
3DBFE5C0
BCC34E2E
3D9B3C86
BD1CFD8A
BD5804DC
BD36F514
3C7B5A29
3E3BFF3A
3D551080
BE2B4E91
3CF92947
BE2D0CCA
BE1DA280
3DC62AA2
BE8DB655
3DA4CEE2
3E31FB4D
3D2974E6
3D32CA32
3E39473C
