BCEFD947
3EC83DFF
3D8031C3
3EBA90E5
3DED798E
3E850A2E
3E83778A
3E090A7F
3E58FD92
3EB065E5
3D1073E6
3ECC14F2
3E350A82
3F2610C9
BD3BF13D
3E34E11E
3E97204D
3ECC6EB1
3EE6D9CF
3E5ADDE6
3CD34D45
BD6D5CAD
3E8A4AB8
3E0592FB
3E811C48
3F099D42
3E059C00
3EF30FBF
3EAABAF8
3D077EAD
3EAA2A65
3E3F1D82
3EB68D97
3E5F430C
3DF4799F
3E95BCD2
3E1FDD15
3E627646
3ED2B184
3D7892D1
3E32FAC9
3D1B25E9
BC580545
3E92F2AC
3EA50FBD
BCC99EEB
3E9CDED9
BE23FAAA
3E48C02E
3E5FE0DB
3E97C600
3EB4615C
3EDA75CA
3F0FB1D7
3DC49FB5
3E2E6384
3D1989A9
3E75E0D6
3E94ACE2
3EBE825C
3F09F2D4
3E734804
BC54C6F7
3E6465C0
3E30B8B5
3E87CBFA
3DD4247A
3DFA1B34
3DD87CDC
3E1AD77A
3D99CBF5
3E176C05
3DB9A427
3E0B8B3A
3DBD78F1
3E853303
3E1A1413
3DD9C645
3E1437DA
3E29F19A
3E9C4BC9
3E2CD072
3E99BB6B
3E5E50D3
3E7D8FDD
3EAB56AB
3E9C2690
3EAE7D7F
3E23D7B2
3E830B79
3ED471E7
3E52B94E
3DD72028
3D8BC8D4
3C831BDF
3E328B67
3E91153E
3DC31CF8
3E444A04
3DF0B4D4
3E933400
3DDB258B
3EDCDD47
BA82B888
3CF426EE
3DCAAE58
BA088300
3E4F396D
3DE964F6
BD349005
3ED62D3D
3DA06C0C
BD0D7806
3EEE696E
3ED3C8A6
3EACF5F2
3E9E6DD5
BCCDDB6B
3E67DE07
3F014338
3E0E3590
3E9E70F7
3EAE4731
3E8E8D33
3EAF2D0D
3DF2FE3F
3E89E8C8
3ED80D73

