3E5DE8DC
BDE61D50
3E6BA216
3DCA940F
3EB9F7BC
3DE07BC9
BDCD755C
BDD34FD3
BE6D3C22
3E0E6EF9
BDE1BF38
BD6010DF
BC18A688
BE38EE6C
BE643287
3D61432C
BD75D5C5
BD51B8FB
BC2682AB
3DE814AF
3C182504
3E1B7A01
3CA5CA1F
BCD1FBB0
3D15D9A9
BDBB34D1
BEE79545
BE6B1CD7
3DEBAB07
BD62240C
3E0AA74B
BDFFF9DE
3DAE36CF
3D2986EA
3D9D75D2
BE2E99AD
BDB025F5
3DF75595
3BF8DB6F
3DD09C22
BD852DF1
3E139502
BC1AE2A7
3D7BE0A4
3DA1EA8B
BE129A9B
3E574C83
3E78702C
3C6300EC
BE182BA6
3C26768C
3CF83E8B
BDE17B38
3CDA1A22
BE106CAF
3CA04494
3E5B192B
3DA48E42
BD848989
BE135420
3CE88F20
BE0BB1C3
BDD8AA1B
BD4CD276
BDD336DF
BDBA6BA5
BD6ADD06
3B72CCAF
BC371906
BC91D27B
BD3378B3
3DB90054
BEA601E8
BD976F07
3EA7F643
3C3B6EE1
BEB420ED
BD5C8A55
3E6D6EDB
3DBCEA1A
3D7EB199
3DBD09C8
3DA4B14D
3E09DBB6
3E07825B
BD4BC018
3E4954F8
3E02DF21
3E0239B1
3D43811C
3E121EED
BD07E844
3E152758
3DEFA2A0
BE187E83
3D14C07F
3C240C59
BE60CF11
3D9AF339
BD3D88EA
BD0C9AA6
3E60C3E0
BDCDEA97
BBD48804
BE5F2445
BDCE1021
3DCAF5C4
3C2F7B63
3E0D3AE7
BEC3E58D
3D0D8544
3C0A6EFC
3E87B9B8
BE393936
3B1A4062
3DB466FD
3D2D12B3
3D8B1EAD
BE02C414
BD95C14B
BCC47BA5
BDD43DE8
BCC8073B
3DE2C6EF
3D30ACAB
3D893A10
BD21D222
3DFD0389
