BF0BADC4
3E353573
3D83DDEA
BE8B8D03
BE09D5F2
3E9C24C4
BE426CEA
BD28FE36
BF2322CA
BE549499
3D4323D4
BE9EA60C
3E854ABF
3ADE07EF
3EAC61B3
3E87AE97
3E1B7EC0
3E14A403
BE837747
3E2402D1
3ED5B608
BEC4CE81
BE632C77
3E5334FC
BF119BE3
3E34ED7D
BA7CD501
3CCB9372
3DC937B2
BCEE0353
BDBA0FAD
BEE75C87
3DE273AD
BEF9D10E
3D093513
3DA390CA
3E8B72E3
3CD3AB18
3D88B691
BD63B148
3F1BCA3F
BE179124
3E4A7023
BCC3B8E2
BC4ACCC2
3EBA1EEA
3ECDF0A8
3E048F11
3EC92E36
3A9D5DD2
3DDD2E6C
BE49B809
BE9C8CC5
3EA39E1E
3EB8AA28
3E3624F8
3E007A80
3D889CE7
BD5699D5
3EFFC86D
3EC8E080
BDE7011E
BEFB03A6
BDC1DCD3
3EEB3DA5
BD50C473
3D4C4CCA
3CB34750
BEE8A188
BECB76CB
BE290265
BDF936E0
3D14F8E6
3F006E02
3CDCEC3A
3E230172
BCAFB4AE
3E645D35
3E9205E4
BE33F240
BE1CA142
BC7D3098
BE0399E2
3DF3553A
BEAECD5B
BBC2C54C
BDDE760D
BE0ACAC3
BF036E2A
3D668250
3EA59469
BF07EA54
3E9864ED
3E75849E
BE83F437
BE64F4AC
3EC4D3FC
3F005D88
3EA30FEE
BDC7306D
BE4DA442
3E9203AD
BE2AF4CF
3E3F15D4
3EDC7065
BD4F6E6D
3EBA7CA5
3DC054A5
3DCFCC33
BCA0F4B7
3E7EC81A
BD52CB67
3F274F0F
BC6FC81A
3D921C8D
BDE1BA72
BCD25532
3E15F38E
BD3633E1
3D823725
3E8089B1
3E4FAAD4
3EE0533B
3CEDF2BD
BD2B2164
3EA9A4AD
3E3C860C
BED37224
3E0382C3
BE55FC27
BD964BF4
3E003D79
BE84C763
3E488BC6
BD851907
3E8AD546
3D9C11B3
3EFB5E7B
BE840901
BEC36A72
BE0ABB23
3EB8AD65
3E5F1610
3E1384C7
BE9E8E4C
3D28D0FA
3ECF51AD
3E354039
BF04CFD1
3E8BE511
3EA7FB99
BE98A802
3DACE02D
BF04DEBD
BEDB2E0D
3E987BEA
BEA1E52A
BE1347CE
BEAEADCF
BEE09A99
BE5352A8
3EF6B7C2
3E6572AF
BE81A93D
BE9795EC
3EB4332C
3E2EFC4B
BDE2D6DF
3E8DDCF9
3EB67B05
3C983A23
3EC336A6
BC97D9F7
3E139813
3EADA010
3E30EFA0
BDC802DD
3E31723A
BE91E662
3E862772
3DDCD8DC
BE7DFFE0
3C71E850
BEE73EC9
3CB0F52B
BE7F4B98
3E998684
BE0724E6
BE6FC3C9
BE957212
3EACAE35
3EE36FC8
BE8A84BE
BDB68A06
BD720A26
BE5C85C9
3E259B44
3D99F3BC
3E91486D
3D435609
3CD742B7
BE4610A7
3DB9BA1C
BEDF604A
BDD57E17
BD08C922
3EB5E23D
3E325475
BDD41F2F
3E04A0F1
BD5F13DF
3ED72515
3ED885A7
3D88D5F0
3E25F3EC
3D83E37A
3EC3775C
3E08005E
3EE2A2D0
BE0D7FBD
3E2CE79E
BE932A57
BD34CF1D
3E76D982
BEA5C8EE
BE53E667
BE60585E
BD19A873
BE86FD9E
3DD90E59
3E757067
BCD85C63
BE0B34CD
BE58BEEB
3E5586F3
BE554676
BDB515F2
3E02D0B0
BEC7C9AF
BEBC5602
BDB6E040
BE9A03E0
3EA145E6
BE5C374D
BE2F3373
BF10C0DE
BE0CF964
BEC95301
3D608206
BEB3D157
BE3752C6
3DC68A42
3EE3AEF5
BED38547
3EBF1E30
3ED54700
BEBFF664
3DF08081
3DB6DD7F
BE516052
3DD677CE
3EAF6C5C
BE048989
3E86190B
BE9C9BB7
BEC647ED
3E3F76C5
BDB90495
3E801D60
3EA54D4E
BE717D2F
3E22501B
3E8B0066
3E8EE515
BE862CB0
BEF80B50
BED98F93
BEB12001
3F12FC4F
BEA05720
3E55B292
3E46293E
3DFE879D
BE51E1C5
3DB8D9AD
BE3BBAC8
3EB11641
BC3A2286
3E90A234
3EF86298
3BE956A4
3D816FC2
BD996E4F
BEF275CD
BE76FC30
BEB23AD5
BDF6F09A
BE38DBBB
BDD9E2A2
BE30B355
BD986F09
BD416015
3EB663CE
3C29156D
BDCC4FE9
BDD199F1
BE24E182
3DBEE7CE
3E117A7C
3E9736D5
3EBDC0BA
3D8A3D4B
BF01856F
3EA96F72
BEB3DA54
BD0E8A21
3F40F6CC
BD5C4185
BE2FA073
3D75CCF1
3DA822DC
3E3E5E3F
3CF0BE4E
BF1D3C24
3DA4FAAD
3DBF68AB
BE755E51
3E63BE73
3E2A068C
BE982B91
BED1C46C
BE1DF125
BD2E3D4D
3E0DF39B
3E4BC9AC
3C77F072
BDAE503A
BDABE68F
3DFE69BB
3E20BB47
3E20EE2F
BD25D877
BEE3E242
BD0F0EC4
3EA8EB06
3D88EBA3
3C7CA1A7
BE77DB32
3E56AECE
3E9F5AE0
BC9566F5
BDB3AE74
BEE9053D
BDEE8D6F
3D91EE0F
3E254C84
BDC3E386
3E245466
BE785F80
3AE259DA
BE2020FA
3DCB558C
BED4E3AC
3E0D0B08
BEC8CE7E
BD077E0E
3EB6EC07
BD479AAE
BD28E958
3ED03B31
BDFEA52F
BEADE739
3E9ECC6A
3E8E99BA
BDBAC8F8
3D9F8D65
BDF782AB
3E8772D3
BE2A9995
3E1CD3FC
BE339FE9
BE29798A
3DC04350
3E73E2C9
BE0BFB08
3DF818B8
BB37AEAD
3E5D66A7
3E01995D
BE6DACFC
BC26C323
BD7BB454
BE3369DB
3E200899
3DA3858D
3E36A02D
3E64F9F8
BCBFD751
BD8280D6
BDA5E534
3EA57B92
BE9CC7D8
BC6F1A1F
BD867C79
3D866387
BCAA96F8
BE7E22E6
3E817823
3E12CE32
3E0BB9A7
BD6C7008
3DE46A1A
BD7CE83B
3E8A4303
3DBE394D
3E8AF69E
3E1256D7
BE7BF8E2
BE8C5788
3CDD43CE
BC607825
3ED476B3
3E5A136B
3E165160
BDD4227C
BE4CA333
BF063E7B
BD8990A1
BDB8D6FF
BE133C60
3EB4C137
3E0BABD7
BE5DAAB4
BDFA01EF
BE0D4215
BE166A84
3E720239
3EF88484
BE153A3F
3E3CF68F
BE86BFD8
BCFDAB87
3ED581A0
3A84393E
BDEA9CDC
3EC9A1FA
BDCD1103
3DDC29BF
3CB7A284
3DA3DE01
3E582CB2
BDB90749
BDFDF839
3D28A3D3
BF34295E
BDCE4D1A
3E1AEAF4
BE59DA74
3E8D4C52
3E00DAA1
BE8FF4C8
3B2D6E40
BE0E3476
3E12BD72
3E8B31DD
BE8D1874
3E45C791
BD857D2C
3EB5DDB8
3D3B745D
BE947AB9
BD0C1D88
3CC1FA0B
BE2717B7
BED2B8A9
3E2F530A
3E7D2143
BDEA7928
BE68CCDE
3EB7A7D4
3E48A9BD
3E18082E
3C915EBD
BE918018
3E8ADADF
BDB8CCF4
3E3E7092
3EC68F55
BDC7710F
3E1F8BB7
BD8AFC47
3EB8C536
BE6065DF
BE330BCD
3CA54006
BE417537
3D875FDE
3EB3427C
3BE26D6D
BD8175D9
3EAD6C39
BECBF04C
3CE255D6
3A717DA2
3E918489
BDA47F94
BE27C55C
3C643A07
BD79B59E
3CF92E2F
3D3C185C
BE7181D3
3EA236F4
3DA0CC57
BE0D8FFE
3DA92A6A
BD941243
3E044F13
BE707379
BE05DC39
3E1EE540
BBB8FBD3
BE7E0B2D
3E4F101D
BE8F3B54
BDFED7AC
BD0C6094
BDF50317
BED372F1
BE227060
BDEFBD42
3E3AB08C
BDAA7192
3D52E42B
3CED69C6
BEB03F8F
BE8FBDF4
BE954336
3F11E586
BECA0498
BB7A50A9
3E49D7DC
BD7A6074
3E226FEE
3D87744C
BDD856E7
3EBA7F4E
3D9EABFE
3E139B10
BDD40BA0
3E1A47ED
BEA78C80
BD3E40E0
3E745A74
BDBC8D10
3F0E5C2A
3DAA142A
BDA0D78C
BEE04B17
3D88EAF4
BE8B0193
3E0BB477
3E813873
BE313214
3DBE01AA
3E225065
3D94C3FD
3DB42E0D
3E6FD2CE
BD840F3C
BE4E8D1E
3DEA76CC
BED2F4F8
BE28C56C
3E813866
BD7F5307
3E511DE5
BF09CB7C
BD284DED
3E12C358
BDD57109
3DA15B7A
3D6607E4
3E5B066D
BE5EB36B
BC38A192
3CAD97BE
3DDC80E2
3E510E8F
BCBA68AC
BEB4E17F
3EC195B2
BE371023
3E8903EA
BEC2BF95
BC303C9E
BCB84216
3EE59DB7
3EAA9DA9
3BAE64B1
3DCF0513
3F03E81D
BD8E1632
3E80F59E
BE9557D1
3E898E2C
BD21AE10
3DABD07E
3E454D5B
BE13F20A
BE3F93DE
3DD34AF3
BEBB1272
3E4A9F09
BDD8B206
BE8A9995
3E1D16C0
BE89DABE
3EB6BE4F
BEB7D040
BB8634CD
3E0801D6
3E8139BF
BDB4AEE5
BE8ED6F7
BECDCFDA
3C4039A1
BDB796CC
3F095BFD
BE1D2FBC
3DC63CA3
3ECF28FD
BEC18EE4
3E03A43D
BE391F8C
3CCC8C30
BDC23CBB
3EAFF089
3D355681
3CB2A930
3E7C6C26
3DE9D104
3DCDA90E
3DC12EE7
3E0036F9
BEBF592C
3E14A9D4
BDED4F9C
3E7A2F7E
3E52996D
BE279ED9
BE8FCF26
3E320CBC
BDFDED29
BEB1ADF8
BC36C9CB
3E94F44B
3E04D83B
3D1F9E61
BF15C289
3B6B0088
3E49A389
BE08901A
3E178092
3E03BC1E
BC9BF600
BE1443FD
BE018414
BC1301FF
BD97F361
3E35C5FE
BE815999
BE9AE5BD
BD0BDDB7
BDE6B625
BB827FEB
BE9DE3B9
3DC89577
BDB669AD
3D307C92
BDE414F5
3DEC38A3
3E8951DA
BDA43D5F
BE257DB2
BE314813
BDDCD3D3
BE7469B6
3ED6B2A2
3E02679E
3E4E3278
3D8890BF
BD84FC06
BF1CBBDA
BEC0BECA
BD81A98F
3E80B942
3BE12BA3
3EE2DFBC
BE308913
BE96C1E3
BE499A05
3C52F977
3AAF1ACF
BECEC311
BD1CE30D
BDCBC6EC
3DDAACE7
BE668AA8
BCF2FAC4
BEF855F8
BE8F8DC2
BDF80C66
3D814333
3EB63F8A
3E7AFD83
BE3283D3
BE6C8E33
BEBB9460
BE99EF41
3E28B12F
BF060104
3D484AA2
BE92385E
BEE9D5DE
3E30BB4D
3E26E0BE
BD31325D
BD9EFB30
BE0FF386
3ED7A44A
3DB3897B
BEA31FC3
BEB643C2
BD55BDCD
BEE274AC
3DA22AB2
3E1F3B06
BE3EC9B3
3E3C7B17
3DA29752
3D5D551D
3D682A43
3EC71EB0
3DAB0DE7
BDC67822
BE2A65DD
3D30873F
3E607E54
BE0A8F3B
BD34D1FF
3D92B442
3DA5C764
3EC4CCC6
BD402D5A
3E2FE68C
BEAB9B5D
3D175816
3C97AF94
3E40AA80
3EA80E2B
BE9F3838
3CC5442D
3CDF82E2
BD9EF08E
3E2B7479
BDF3254E
BE3973BF
BE2C0C41
3E098803
BDFA8D2F
BD5DC098
3E0EEA85
3E21C737
BC8C15EE
BDE3801D
3C16FD3E
BE8F4444
BE0E899B
BE3BB7FA
BE518F17
3E2386D3
3E8E271B
3DE0FDB4
3E2DF3B6
3E056ACB
BE70CA9C
3E5F58F0
3EA1CC46
BE0CB1E7
BD7A2144
BED6BF44
BD305E01
BEA2421F
3D816DE9
BEA61386
BDB6E7E3
3DF4FEE5
3E6BDB72
BEB7F8C0
3E71128B
3EEE1915
BD08F6B4
BE2E20B2
3C36AF9F
BE1944B1
3D0C8B46
3EBD6BBA
3E230A48
3EAF7825
BE834D13
3EA21668
BCEFD037
3EEEEF47
BD734F3D
BD874C93
3E341194
BBE0555E
3E626ED4
3F3DDFC2
BE737D41
BEFFEBAC
BF0E3232
BED30EF5
3EA2BB08
3F2C01B9
3D84F705
3D71C2B8
3E048FEE
3E914C55
BE52BF7D
3D8F3267
BEE57863
BE97A015
BD4CBEA2
BC200DD3
BEA3A7E8
BE3390E4
BEE2C69B
3E19584D
3E04B37A
3E4A9098
3DB59B0A
3E2D2828
BD436DCE
3C43BAD5
3E96ACF1
BE0FAF78
3C4EC8D0
3DB8F60A
3D809267
3DACA009
BE6E7B9C
BE8D08A9
3E98D181
3D01C3B5
3E9DA2E1
BDE2D880
3D733D2C
3E162F8F
BE33038B
3E43DDE2
BE342657
BD6740CF
BEA28D7C
BE8E9BBC
3E6E2930
3DC7652E
BDC9E5C9
3CD502E1
BE07D813
BEA62091
BCB85C7D
3E7E2428
BE6BFD7F
3EDE2E1E
BE199476
3E30661B
3E90CE74
3DF87783
3E5A7023
BE40CF98
BD9C9F93
3E98116B
3D9BD819
3E56C193
3D065D7D
BD055991
3E51EBD6
BB9AFFCD
3ED09C8D
BE2909D7
3D95366E
3EF7476D
3E27A85E
3E042771
3E8E97F9
BE79209F
BEC23B01
3E0E91BB
3CFBF12D
3E370677
BE07D242
3E85BD29
BE1591FC
3D760A03
3E91F476
3EB70AA2
BE11DF6F
BE659473
3EAE4A8C
BDD30A26
BED1924D
BEC0659F
3ECA6854
BE82E5C3
3DD25E2F
BDE8694E
BE5AEA9D
3EA62B61
3EA32A2F
3E19C8D0
3E287D2C
3E95EDEB
BDBAA947
BDCBB38E
BEBCFE8E
3DFCD2C7
BD6BD8A6
BE86951A
3E496DE7
3DBEF33B
BE8C30EB
BEAA4A75
3EF0F191
BE9872AD
BEA28767
BEB21AE4
3E2F1ECB
BECA3C2F
3E58ADB9
3C2B24F2
BE3BBB55
3E85BE78
BE87325C
3C92A844
3E381CFE
BDE285D1
3D813C7A
BE62A44E
3EE68AF8
3E5DD016
BDA162C6
BEB5C94F
BED2B8DB
BDCE71DB
3E11B054
3EA23B0E
3DE3ED96
3C0F6957
3D4DFD77
3E8D2BA5
3E3F9252
BE01D4B7
3C9808DB
3C306416
3EA060A4
3DD632C2
BE4A5106
3E52459E
3D619214
BEA9C953
3E62F3E4
BDE67D0D
BE5EFDE5
3ECD0431
BF132352
3E1EC751
3D45000D
BE64211F
3C432605
BC37DD87
BD9AE9B6
3DA91EE3
BEF79922
3E78A882
3D1D1F18
BE2CBCA0
BEBB217E
BEA89C22
3DB2C749
3EA2D744
BDC5B1E6
3C2466E8
BE838448
BE3992E4
3E823CBB
BC91E515
BCBF7EA0
BF20D9E7
BDD8A944
BEC80C52
BE16BC2C
BEB4985C
3E9E32AA
3E8E1B67
BE87A179
BD9C64AA
3E460A42
3EB635B5
BEA34978
BEF18C4F
BE6E5E03
3D6567D9
3DBB518C
BEA0A1FB
BEF2343A
BE4978C8
BE1C16E6
BED888E8
3DB02637
BE4691C2
BE3EE71D
3C19F26E
BA894632
3DA53BFA
3DE852F8
3DB34AB0
BE883C52
BED01C56
BCA773D2
BE77B664
3E3F9C69
BE7FE308
3DBDB03C
3E41F729
3CB6C3AC
BC3AC229
BD2B78EA
3DFC5932
3DFFF16D
3E1439A2
3E62D030
3EAED278
BDC26E11
BD9FA42E
BDAE9847
3D878FCC
BE9EBA09
3CC0E802
BE168181
3DB2A2AD
3D8EDF01
3E7000F2
3EAA7B3E
3D5BFC60
BEC34296
3E8B9C2A
BEC8703D
3DC833B7
3E8C3B60
3EB35DE4
BE5240E6
3F0B9B18
3DCBF31F
3ECDBA8D
3ED37BE4
BD826738
BDE9B2DF
3DEA629D
BE7F999B
BDB6D9EC
3E9ADA7E
BE1E4E8B
BD3A9D52
BE157B99
3E5F2050
BDFFC6E8
BEA5B01B
BD820675
BE00A124
BE2E4848
BE48DFA3
3D979CC5
BE7BEE80
3BF23A7C
BED0D00D
3D6A43A3
3E55A258
3DAD6D91
BE8347B6
3E1B2C55
3EA13A21
3D84D41D
BE81DDBF
3EF29CD9
BDE70D05
BE378B6D
BF04890E
3D68AD05
3ECA60D8
BC8ACBA0
3E87FBF7
BE943D51
3D2C4DC1
3EBCB3F3
3E09FC6E
BE2B4818
3B8A5A07
BDA44CFF
BC9AE188
BDA8A893
BEAA3AAD
BDA06488
BE206EA7
BDB63909
3E8769DB
3E644FA0
3CFEF477
BD7ED1AF
BD6E7DEF
3DA23BCA
3EE75A49
BE42018A
3DD42968
BE0441F1
3E4B54AD
3D554829
BD2A3B1F
3EAE4F91
3E34B2D2
3E8E8C8B
BD46C340
BD81125F
3CD24237
3C2C26FA
BE803BE3
BE574CDA
3CC64B4E
3E89554C
3D067F76
3EC2748B
BDC85889
3E973068
BD49CE45
3DF78DBB
BE83A9BA
BDCEFE1A
BDD0EF56
BD2BF9C9
3CBBCF2E
3E00E9E9
3DC6A6ED
3E29FE36
3E0F7DB7
BD10D5F1
BE44530F
3E5FC94A
3EB8012E
BE2BE5CC
3E83F594
3D8BE072
BE959A23
3E3F7179
BEBE4D21
BDB3F580
BE20977E
BE3BE6C5
BE9A24D3
BE329F9D
BE1A6B6C
BD3AABC8
BACFE7AC
3E7FFE74
3D1FA7EE
3EA321F0
BDB86C90
3DDFA341
3D96DE7C
3EA0105C
BC38D0EC
BE83C63D
BF1002A2
3EA820A6
3DAD6B8B
BE293144
3D6E531F
3DAACEAA
3E905EC7
BE95376D
BE164254
3B8BFE9C
BE369AAC
BECD8BDD
BC09B6A2
BD66B7F8
3DD6FCA9
BE3EF77F
BE24837A
BEA9581A
BE628991
3DC770B6
3DDCEC34
BDA49753
BE52AD3F
3E631C51
BCA52BDF
3DB6E621
3DF713C8
3D956E96
BDE12176
BDD12132
BDE5D272
BE2FF14B
3E714A2C
BD827A41
3E2F342F
3DD52EB6
3E8EFF4C
3E242104
3E62A597
BCC8160F
3E43ED67
BF0D6BD9
3EA301DA
3DD80D30
3D4C71BE
BD296673
BDEBA4BC
BE2A750A
BE64F008
BE0C1787
3EA03C37
3DAF5CF4
BE58CBA2
3E3D6A88
3ED7416F
BDE74BEF
3DFC75D2
BD3A8412
3E0A2AF5
3D89BA07
BEE26988
3E3822C3
BE34F44E
BDBFECB9
3E63DDFD
BD49EA98
3E803424
BD38F806
BE99030D
3E733FC2
3E3F0238
BEE84213
BD9D0640
BE173ABD
3ECC15F8
BE86A293
BE79140A
BE86CC81
BE4F041B
3D5678D3
BD35F8FE
3E931290
BCDF0BD4
BE90E593
3DE2F901
3EB02FCD
BDDDA7B1
BD708526
3E526EEF
BF06BD9A
BE9B7055
3EC61067
3EB79E38
3DF43908
BD1A82EE
BEB1D1A5
BDB86CFF
BE11ECA6
