3DB5502C
3E057E1D
3E201B14
3D461AF7
BE20B20C
BDD123EC
BE2A1A14
BDDAAC39
3C839EC1
BE96CD5B
BE311C1D
3DE0F932
3E81BDA2
3E834BD7
3E274F28
3D1F2D65
3C1E4345
3DD43E89
3D84CC98
3D81E570
BC74A44C
BC26BFB2
3D3A6D2C
3C7FDDC6
3DBFF4CE
BDBD0BAE
BAA42995
BE1A6344
BD6BBCEA
BDDF286A
3D4BA2D6
BE7948AD
3E1D1FD2
BD56CAA2
BD224DD6
3DD54AF8
BE6626C0
BDD36C59
3E98DA1E
BE54DABF
3E74DBC5
BDC4729D
3E80C9E1
BC38C0FC
3E9C457F
BDA8505A
3D2F7A0E
BDDF936C
BD529E7E
BDB2E75B
BE85604C
3E33F474
3DFC055C
3EF73A30
BE57058C
BDC7C511
3E23E228
BE13A3C4
BDA0708B
BC320A7F
3E760327
3E3C37B8
BEA8D12E
3DA9C2CB
BE756AC5
3C458A18
BE97FA3C
3EA5696E
BC630A31
BD815740
3DF82723
BE8D09B9
BE93B7CE
BDE08A92
BDA13DCD
3D1E91B1
BC8E036E
BE141066
BE168B78
BE5356B8
3DF62846
BC6F2C7E
BDC2887D
3D9A84B8
BDE6F629
3D12716F
3DF46CFD
BD0107A2
BCA849EB
3E12E855
BDCF880B
BDDCC609
BE401487
3E9B232B
BE0394E7
BD2D2D95
3E8C9AAA
BCCE78FF
3D0E1201
3E12F96C
BBE797F7
BB3DDE14
3E5B16AE
3D461A2E
BE7F5141
3E8F2C55
3E185249
BE033A76
BE048F89
BE03D450
3ED9D788
BEE763A2
3D832155
BEA62916
BDBF3C3C
BE8005C8
BE121442
BDB698F5
BD2B5C8A
BDE8B3C1
3D606B75
3E816016
3DAC3D2B
BC8F301F
BC979AFC
BC6F68CE
BE247F3B
BDADF370
BD74ACA5
3E621188
BE3A082C
BE02F647
BE573EB2
3D0DB687
BD24EE77
3D8A47BB
3D355F40
BE7C1439
3D32F38A
BE2A29DC
BB966F29
3E6C676E
BD144CFC
BE57ADD1
3DE1DF26
3D90FD45
BE076E46
3DF5BA7C
3D3975F3
BE88ADEF
BEA207AD
3DC3CBDB
BE23403B
3DD2DB39
3D08AA38
3E60FB07
BEA076BD
3E040372
3DBDF806
3DE64679
3E067275
3D3CE826
BC87368B
BE36DFDA
BDEBF877
BD9173E9
BD26E728
3E3C5CF1
3D45873E
3C028A1F
BDE3BA42
BE94DE06
BD396DC8
3DE6F502
3EBF1141
3EADAB27
3E7B13ED
3D5584FA
BE386474
BED198DE
BEDBB200
BECFF262
BE98CB12
3E18A0A4
3DF26627
BD98EB6E
BD2D0C07
BD08F669
3E2A3CC2
3E46AB6C
3D456BEB
3E051097
3BD42098
BD98B914
3E91EFF3
3D82EAF3
BE1C8176
BE275DC2
BA84F2DD
BE85D544
BE0B7B29
BE1BB4EF
3E7C34A0
3E3E9C31
3E33895E
3E2A7A0C
BE0C7E6B
BCE8D0CA
3E5A9A7A
3D0BA7C9
3E1C3167
3DC94C0F
BD02393E
BCD1FD18
3E1F5B0F
3D48142B
BD23111A
BDE3E4AC
BD3D4FD7
3D7CEFB8
3D546BF0
BD2F1732
BD21372D
BDC1A78A
BE3CED0B
3E20E42C
BD9B33AB
3C94147F
BC05C452
BE5D3C00
3C41E80D
3E279F0F
BDD57796
BD0ABAB1
3D6BE881
3E316D17
3DEB9FCE
3BE8434B
3CCD2AEC
3C8CB5E1
BDAFB6CB
BE9E2E14
3E05ED4A
BDD2A04B
BDFA71EC
3D917E91
3E3F919C
BE1205F2
BD92B4DB
BB234EA8
BE5B6BA4
3D86838A
3C8B7AE3
3E8278E5
3DB7B460
BDB5EE21
3E6A8E1A
3D99B311
3D9001FB
BD95BC9C
3DBA7A57
BD9FC8BB
3E16AAF3
3D9BE0AF
BD838C6F
3D66D211
3CF8FF05
3E8E3F9A
3DD6D1C6
3B9F8116
BD15C541
BE3D5E3D
3DF65F88
BE09157B
BD58C709
BE009283
BCF40F71
BE0BB3F0
3C355D6F
BE248D20
3E034203
BE4F80FE
3E8ABF26
BC944958
3D75D841
3DF9C6E6
3B8C5152
BE1656A5
BDCE993B
3D50A1B6
3D398FE1
BE263C82
3E370A8E
BE739644
BE591EF1
BE6CA721
3E382EA3
BD4248F5
BD86D8E6
3CA9454E
BE58B7A2
BD7CF899
3D694BAB
3E484DE9
BE195F3F
BDCD387D
BDC731DE
BE02E8D4
BB4BC98F
BDFAA3F0
3C81A99E
3E4AB5CA
BE052A05
3C31DA4D
3E1DEA54
3DB497F1
3EEB3A58
3ED4F0C4
3E83E05C
3D3F1B31
3DD8C147
BDB28F16
BCB12537
3E4E3ABA
3DD578B0
BE13560A
BE7A013A
3CDCB1AC
3D97E742
3E4013C4
3E04DD5E
3E7AA8C3
3E334246
3E036AE8
3D84C299
BD44CCB9
3DF616C3
3D3F581A
3E28DBAD
3E43DCE9
BE065FAA
BDDEF508
BE122F56
BDF84BAE
3D4380B3
BDFF113D
BD3D8790
3CACC8F6
3CE76FAB
3BA09460
3E76319B
3CF949A8
3DD503FB
3E1A6A66
3E0FAE22
3D5C3827
3DFE5513
3DA52252
3D34727E
3D9CDBCB
3E08C77E
BE7BDA5F
BE8882D3
3E1B87B0
3CD3B85F
BDB81549
BE6BAC8C
3D18BB05
3CFD66E9
3D31E2F1
3E8CB098
3D4FD7FA
BD994E96
BD2BD6F6
BE612A73
BA8A997F
3E8680F5
3D20D35F
3E19EDE8
3E848213
3DEAD6E6
BD87C5EF
3E56D44A
BE50B1C9
3D94A5F1
3D4AF7AB
3D4F54B2
3DF01CE3
3E1A8247
3DA51AA4
BE05B014
BE1DA0ED
BD9BC7FE
3E3C9FC3
BCD18980
3DA65B70
BD8BA550
BDEDDC1E
BE009408
BD272028
BE20338A
3DB7FA9A
BDF43F45
BDABB1BB
BE2B44A2
3DFEBA0D
3C7DDDC7
BDCD6239
3D640B3A
3DAF50F7
BDD06721
3DD99E52
BDCF5D93
BD4BBFA7
BE343A1B
3E1D5F8C
3E04B6B4
3D32172C
3D1CA37F
BE4F628E
BD85F69C
3DCBC9A8
3E5D9B30
BCA4FA4B
BD29EF8D
BE0470F9
BE18FEE9
3D1C7A6A
BEA9932D
BE3843F9
3C485B59
BD3CD2A4
3E3E2D12
3DB60951
BD88E2F6
BE890049
BDE9FD44
3DF4CC4D
3EC78A7E
3C62A918
BD9519E7
3DF08886
BBEE7764
3E4F2EA7
BD347BC8
3E308E95
BD9FE2F4
3E2CC5E1
BD3A893B
BEA52CC5
BDBDAD2D
3DE736CE
BD8B6198
BD684B50
BDAC80C9
BD7693A8
BE31403C
3E312487
BCB71398
BBD12824
3E1F0D9F
BDF8CDDD
BE0931A9
BDFB1268
3E019894
3D33D3A5
BE369030
BE287740
BE24B897
BD08A048
BD997C00
3D281827
3E7C34B4
3E056536
3E203021
3EA0E648
3DAE68C8
BE04951F
BE92A183
BEB7F276
BE28FB4B
BE08A633
3E14E8FB
3EB73578
3D2ABFE7
BE03D435
BE1DAFD1
BE210089
BE26CA47
BE59325E
BE7508CE
BE17CCE8
BE8F84BA
BD261995
BC837C7C
BD83FC6B
3CB62434
3DB33A8D
BDF4AD79
3DB6E4D6
BE4E45EC
3DC42614
BE36897A
BDCFDA0B
BE710067
BE49BA36
3D963C31
3CC532FA
3D8F6701
3DC330F7
3E6A7470
3DC382D8
BDA18E50
3D479FA1
3D974365
3B4B58FC
3D67F674
BE1A3C00
3E322489
BDA06F0D
BD872A2E
BE818974
3E1B5108
3D2B5A6C
BDE1A0EA
3DB4145A
3E2A8C73
3D9130D4
3C94D89F
BDF522CF
BC145581
BD2E72C5
3D103EA4
BE4D3F55
3E15B8CF
BE919C5A
3C4F09DE
BD295655
BD66727D
3CAED250
3C86064A
BBC368F2
3E0AEB45
BD2C78FD
BDE8220D
3DABFC2C
BD80140E
3CC655E5
3E3FF5AC
3E63DAE5
3E6ADD16
3CD25710
BD42901D
3D2BE851
BEC93303
3E04A3CD
3E4B8214
BE0A9797
BE105A8B
BE1D5707
BE735E60
BCEBA84F
BCE0C242
BDD0ACE9
BE4E43F4
BDBEF7D2
3CA91141
3E649C11
BD71C496
BE46A0C8
BDD23415
BD819E72
3E1F5855
3CC39073
3E106226
3DFE1735
3DEFA9F7
3DBFA185
BDE6B98D
BC14516C
3DCB3DD8
3DE6C615
BE7BB6D9
BD853559
3DCC47FE
3DCF478E
3C41C689
BE480750
3E1EE2BC
3D3B6930
BE16755E
BDA3D7FF
BE3ABED6
3E03CB2A
3E1E8FD8
BD8AF858
BDC672A4
3E977D0F
3DF53D2E
BCA7E770
BD98AFC0
3D89EC01
BDF36212
BD801A96
BE44DA75
BE283E1A
BD39BB98
3CE4BD2E
3E10E0CA
BA6BDB13
BD5BAA3D
BE353E20
3D6B89A1
3BCCE2FF
BDD73FFB
3E18DC19
BE27A82F
BBF1FF52
3D071F66
BC2313C4
3E0A4C3A
BDBADF8A
BC448291
3D84653B
BC710A59
3E34F92E
BE51B464
BD9C1F8D
3E81FF32
3EA0DDAB
3DD1AD49
3DF05441
3D779C6C
3D701831
3E8302B1
BDA04E70
3D4DF5BA
3DAA80C4
3D56C564
3993035D
BE301770
BE88DEAE
BF05EC9D
BF120C6F
BF2ACF20
BF03DCA5
BEC9E860
BEEA8EAA
BF3309D4
BF1E2A16
BE8A21F4
3E0FEF61
3E1C0D83
3DCE497C
3E8DDF98
BCC94D61
BDBA2FA9
BDC864F0
3D7E80C7
3E1647D6
3BA973B5
BD1ACBE9
BA61455D
BD613763
3D7A7933
BECE2234
3DEE81E6
BE930905
BDA1F3E3
3D10505A
3E1CD4E6
3D154272
BB6BAFB3
3DD2E3D3
3CBD753C
3E838CDE
BE0A9C3B
3E5B9581
BEA1AECF
BD83E954
BC9DD030
BD34D113
BDD4AA7C
3DEFE883
3E0751C1
BD8708B4
BD35F748
3DD3F515
BE4D7753
BD67AE65
BE344927
3E8D6268
BE5094B7
BE34448A
3DCA3C90
BDE4CEB7
BD4B1D70
BE011CC4
3DD28F4F
3E3D313A
BD832A11
BEC7A3DF
BDF8F621
BE74DDD0
3D8FD1A8
3DC3DBA2
BD0061F0
3E2150CD
3DAE875D
BCCE10DA
3BE3DFAA
3D1E3DB3
3D3A75B0
3DCA7C3F
BC734EE2
BEAAE2D4
BDDA6F5A
3E3ECF78
BDFD79A8
3DD165C6
3E238801
3DB5FD6D
3BC89910
BD802081
BE428721
3D1D554E
3C94CB19
3D3FE1BA
3CB7BDFD
3CD0A9C1
BCBBC944
BDE9C894
3C911FDE
BE17F9F2
3E30E857
BCEDB616
BCBFC39A
BE40312E
BE10EF6B
BE5790A4
3CAC957A
3E0F914C
3E0D57DE
BD30F731
BE646448
3DE6FDF9
3E31FA3A
3D821E1A
3DF6CF27
BE13931E
BDC60EC4
3E0DE55F
BE0D4AE4
3D8B7910
3D4E201C
3D4E10FA
BE522DAF
3DCDFFD3
BE92EFE2
BDA0B9B9
3E345F54
BE368C5C
3D629137
3E01DBBD
3D3681C7
BD4FFB58
BC44EB17
BD4D0A95
3D911053
BD100C82
3CF276C5
3D2A839A
3D2E20C5
BCC8DB2B
BC8B4B12
3E22EA09
BE4154EB
BD743AAD
BC08F6F2
3D81B67E
3E77B9A4
BCCAE404
BDC59A7A
BD721404
3D2AF3D4
BD3C3DF4
BE05ED1B
BE638BC7
BE14C59E
3CD8AB93
3DA9AFF1
3E9851DB
3EE514BB
3EDE31C0
3DF737B2
3E727E23
3E01C4CD
3DA7200D
BE28B608
BE76AD2E
BEB87400
BE0D7CDB
BD6D1173
3DC8B163
BDA0808D
BE50C4DF
BDF03ECF
BDB7332A
3C452747
3E0DD6B8
3E46CAF5
BE47D1DD
BE2FA9C8
3E0F6542
BB41E72B
3E401EA5
BE820F6C
BCDE1EDA
3E2B8EDF
BDA5DB49
BDE4A566
BD32B2D8
3E20B963
3E608348
3DDDC21D
BD90F92B
3E058A8A
3DFA530A
3D8568BD
3DCD0551
BD204649
BD81B0CE
3E70A768
3DF6BF7A
BD5006BE
3CD484D7
BD8DDCEC
3DA0DE58
BE6121FC
BB0F2DD2
3D0E9D5A
3E6667E5
BE7E7261
3D1DEA71
BE7CBAD8
BD4BEAD8
3DC0E326
3E3C2C14
3C381CF2
BE40F374
BD075CFE
3DC75666
BDF2A23C
BDA72321
BDF4D171
3D47AFFA
3E08840B
BDC0608E
BCC80A8B
3DB39EDB
BD480E7F
3E31EF1D
3DBD7381
3D95E65A
BE2D9528
3DC20516
3CC5A343
3D475841
BD4634A2
BC094F06
BDCE3136
BD8C2C4A
BC145B38
3D920545
BD583B28
BC935095
3D617D10
BDAA9062
BE68DD7C
3D508E40
BCB6CC50
BE184612
3BEE2334
BC908025
BE7038E9
3DAA3AFA
3E6A8445
3E817CF3
3D4F2A52
BB72F461
3DF9968F
3E7127CE
3EA01AE2
3B38DDE9
BE2DD45C
BD42B6CC
BEAA0173
BD6C6028
BE17DD66
3D0B1DA0
BD83CEC3
BDA27F42
BCED39AA
BE5AD5F5
BDECF851
BD46C2F0
BD4F67AC
3DB4615C
BE1EEEBE
3D6D031B
BDFC833E
BE3D8D4B
BD3DFD24
3E3773B3
BE6D04F4
BD048A2E
BCCD5E37
3E2E813E
3E3D9B30
BE9EBD17
BD103D42
BD74D7B1
3E098966
BE1DF783
3E7580FF
3D889148
BE8C2925
3EAA11F7
3B95BD9D
BDFB426E
3D696E6B
BD1623C6
3B0CAAF8
BD718E22
3DC370A8
3E6F553D
3E5BEAA6
3D221A5F
3E97D88F
3E89F7F5
3F04BD83
3E6CE132
3D3E9A85
3E20BD23
3DADF641
BADCAE05
BE84A53E
BE5FC618
BE3FF603
3D8D10D4
3D2126E9
3D08A226
BD7B3172
BD044AB0
3DE608EB
BB3195F2
3DBA1881
3D7100E4
BD04C8D7
3E6AF52D
3D973378
BE8CB4CA
BE04761C
3D869CEC
BD75CD41
3E55E489
3BA0C34F
BDCBA340
3DEC34EA
3E28E219
3E0F23E7
BD3729FE
3D6E3C28
BB26104A
3B07C2C2
3D6F3F00
BDECAEC2
3D4437FE
3E3064CB
3B9AC1F8
BDB81CC7
BA677884
3DE59917
BDF7C55C
3E767F9E
BDEE9B6F
3C070F1C
3C07286A
3D93C18D
3E4FD7CA
BD8C9538
BE3C8924
BD2114FB
BE4DCAD8
BE954933
BC4CC5C1
BDD3132A
3D1B1758
3DED0600
BE2B57D2
3DA32AC8
BD85B813
3D384F82
BD0CBF20
BD6148D5
BE2F5346
3DDB0814
BDFADBD4
3E62BD21
BE03AB00
BDDFDF3B
BD336D80
BD631D0E
3D22C98E
BDFE6F21
3B6287E8
3CF6E16E
3C90B97C
B9E2B86B
3D1DA6CF
3E4DA646
BD740D53
BDC07B90
3E5F5DD6
3D4A6239
3D1C9996
3CAB1811
3CDA315F
3D30BCEC
BD370CF5
3D8DA6D3
BD1C41DD
BD6A3CE2
BDF377D4
BDFA79A1
BD7D30C0
3C0EE168
BE196235
BE405C17
3CE197A0
BDF803E8
3D957EE3
BDB3FE7F
BDF6F984
BE20B7F2
3D548BCB
BE0CAD8D
3C3204F5
BE1B0F9A
BD3BCD79
3E212190
3D34B983
3D2C0319
3D153F0F
3DC07AAE
BC42CE1B
3D98BACB
BCF542FE
BE018867
3C850456
3DD9F575
3D6F31E4
3E3E998B
BDC70795
BE698C8C
3CCD8504
3D173784
3E52D60F
3D28FE1B
3E0EAC5E
3C4015CF
BDE8996F
3DE830D6
BEA81A69
3DB4CEE6
3E292924
3C494F6A
3D02E73B
BE43293D
BDB6B79F
BD70C644
3D2AA28E
3D243DC8
BD21BC96
3DE667F9
3E097AFB
3DE172FC
BD53426D
3D162DB7
3D79B680
BD114669
BE0D9D92
3DC0114F
3EAA5E5E
3D3766FA
BEEECB64
BEF6F061
BEDD1ED7
BE8BA164
3D139E90
3D98A822
3DEE982E
3E071115
3E2A22E3
3BEAA418
BE5D3466
BE9373E6
BE98BB4A
BE987EEB
BE426175
BEB99897
BF205BEC
BE8AD589
BE87C7AA
3C7A03FD
BD02B30B
3DC626E3
3D12175A
3D72D46B
3E4C93B4
3CFD0D57
3D8C3A09
BE0EE01D
3D8C26CD
3E3596C1
BE1098C7
3DDE3095
BE5FA22E
3E494651
3D6C6386
B952C621
3E60B41F
3D733595
BD85E186
BDD8AF16
BCD2DED0
BDC8DB6D
BE26A54A
BE2A6F03
BD4EDFEA
BE0D4BF7
3E0C68B0
BD72FD08
BD8C8EB3
3DA8ED30
3E1E4686
BD150573
BE2EBB3B
BDEC5198
3A719FB6
BD94A89D
3E69DDC2
BDEC8BFF
BD7F2F32
3D84A4A6
BE143ADD
BD0E82F5
3D8D6BF5
3CE0115D
BE1691E4
BE0AF95F
3D4AFB41
BDB12DEF
3D746B24
3DA0E13D
BE13ECEE
3E18B073
3D9B428E
BDAAC48B
BE0589A6
3DE8826B
BE4821DE
3E1666B7
BE13CE71
3C3E7F0C
BDA61FB3
3D1E4B0F
3D994157
3D5DC5C1
3D0FF1B3
BCD72093
3E2A0FC6
3D877887
BE3F1A4F
3DEB3C9C
BDF7AD15
3C6F1953
BE1D0247
BD4339B6
BE16AE19
BDFC7086
BE20FA52
BE090230
BB2D3FF7
3D0668DD
BDB51ABC
3D8ADDAE
3E3300BD
BDC624C1
BDDFEF46
BE22DF21
3E0FB4BD
BD7E7427
BBA9633B
3CF3B539
3DDA11FA
BDE40C5C
3D37555C
3E7043BD
3E27D5D9
3DB6F687
3DC9C48D
BDBDB822
BD95A3ED
3D2887C4
3D3A62F8
3E5ACEE1
3D2DB354
BDA461B1
BD8DBC9B
BCB54811
BE36AEB3
BD894C6B
3CF94F17
3D9CFBA9
BE3384AD
BDEE1AE0
BBF51180
3DF9806F
3B81D9CA
BD76DF0F
3B13FFC1
3E1C3C2D
3DBCECAF
BE592ED4
3DA78210
3E89A108
BE2FE422
3E2F3216
3D346FA6
BDEEC446
BC4113C7
3D294B3D
BDAD056B
3E25CBC3
3D9E2486
3E866462
BE27921C
BD9268F9
3E0D3A82
BDBF56AE
3DC77E51
3E854097
3EA9F414
3EEFF1C7
3EDBF71A
3EAEF0B2
3E771B33
3DD2293B
3C2DB6DD
BD5C7BA9
BCCB3EC8
3E6BA967
3E494665
3E012AC4
3E0A7EB7
3D397366
3D951868
3E302279
3E6BF841
3E86458E
3EBAEA06
3E038A42
BD1B4083
BDFE018E
3DDF5431
BDD98E54
BE5FB331
BD0F2064
BDDFC463
BE1DACB2
3E5E24F8
BD9B0C68
3DA05BC5
BCDD5703
BD8879C1
BDC1BF11
BD592784
BDA20C19
3E4290EF
3E4C9173
3D3ED35D
BE814089
3E2091D5
BE3D396F
3D272665
3D53C651
BBCCE7EE
3DE7D574
BC48FE81
BDF85F3D
BE5D51D7
3CA1A597
BE2D3DB5
BDE286B6
BC81AB3B
BE7F3033
3E079FFA
BE87BA85
3D4DC934
3CB1D916
3D123A80
BD82D14A
BE262117
3E15BDCA
BEAA53F9
3D9C6287
BDBD0124
BDF438AA
3E03F672
3DE3A7E8
3D8F5438
BD98B54A
BD7E2B0E
BD933B62
3D92C055
3DAF0F13
BE04DDD0
3E96E47E
3BB511C1
3F22A4B3
3CC4D161
3D2F14F6
3D0BE7FD
BEAFD94F
BE184C8C
3E3C52CC
3DA15C27
3DFBDC4F
BDAAD894
BE51CF8D
BDAE00E5
BAB60D29
BE347C45
BE1C5297
3CC85EE9
3E22AA27
BDF90F9B
3E4036FF
BD37F9DC
BDF00970
3DDF1E59
3D3FB504
3C119E75
3E0E1D0D
3DD7C831
BC1503A5
3E7549BD
3D8C84F8
3E0ADE4B
3D31E477
BD0E4250
3D16C531
BC0D6F42
BD184465
3C9817B4
3D87362C
3E0CA622
3E40C49C
3DAEB748
3E581CF1
3C8F007E
BEAAD9A7
BE664A5A
3C0464B6
BE0395D2
BDBCA4C8
3E0BB98C
3DA25A39
BD4F47C1
BDEB2A78
3E19C0D1
3E83CDB2
BE8232D6
BC91B03C
BCD83662
3E187CCF
BD7D2339
3D746AB3
BE1461D8
BE081BE4
BDD8FF68
BE382AB4
3E31696B
3DA089A8
3D513316
BDF84F5A
BD63E862
3CB2349B
3DB12481
3DB734FF
BB339E93
BDA96BF7
3DDC8897
BE15F3F3
BE4316CF
BE8A8AC2
BE0BA05B
3E320586
3ED9A1C4
3F14E285
3EE1446E
3E55620A
3BFE4FFF
3D99D655
3DD476B0
3DAC1347
BAD60005
3E8055C6
3E8531D5
3CB111A6
BE63489E
BE09D00C
BDA7FE34
BD85FC3F
BE1F2A97
B75D3D85
BBFA14B5
BD33B54F
3D0C65FA
BE0F9633
BDD2F5A6
3B6C3F84
3C84CFBE
3C8BB88B
BE45D895
BE99E1CB
BD67BE55
BE476351
3E432E2B
BE8847C6
BDF3BE08
BD37A92C
BDA8458D
BE1C0486
3E24CD96
3E7CB988
3DA3EE74
3E2CC059
3E5A27F8
3E0B0CB8
3A0459BB
BC3F02AA
3E437E62
3E265FD9
BC2D04DB
3E146951
BBF11F6E
BD08C16D
3C12E0C7
3BA65D5E
3D153221
3DE135E8
3E0A9BE4
3D9ED199
3E390C41
BE3735C8
BD11C0BA
3DC67098
BDE914F5
BD0FE210
3E323AFA
3D92ABE6
BE774BD4
3E11AC07
3D9A3FB3
3E0CCD38
3E1AD100
BDA9A184
BE8C9B2A
3E671016
BE462406
3E4ED32A
BDAA0BA1
BD0247DC
3CBFE3E6
BDAB03C5
BCA853FC
3E33CF7E
BDEA41A2
BE280941
3E2B7CC2
3D436B7D
BE29D1B3
BE47BAA3
3B3B7605
BCBAA80C
BD65A83B
BDB07B49
3E580AFC
3D7A8D6D
BAC8A020
BDF51DE2
3DDAC0FC
3D1CFC37
BE963935
BD6B4005
BCCE7E0D
BE662B0D
3E2B955F
3E41EA43
BDE9F418
3DB8A9DB
3D82D40D
BE5AE4F3
3C432707
3DD90159
BD4EF182
3D3F48B3
3DA5937B
BD40C18F
BD94DDA3
3D427461
BE302BA6
BDB249C7
BDAE09C3
BE07A843
BE40DB27
3E3A86D0
3DD95F9D
BE3F7462
BDECD16A
BE9D724E
3D4DB728
3E2DEAA4
BE1746E0
BE5B7C9A
3CC92492
BE9DE654
BE6F7539
BDE6F735
3E0DDD46
3D2E33D8
3E2CBD34
3E26B0E0
BE347072
BDD4B041
BDBA3FB8
BE0B9D2F
3D12A765
BDFCB8C6
3E8C3EC2
3E26A818
3C8F4F63
3DE024F6
BE10CFC0
BD834A99
3C12E3EA
3D6D414F
3D72AA9A
BE17D8FE
3E393CD4
BE2F465A
BD0A8097
3E2FDA40
3D7A4784
3D4FDA1D
BC89C8C1
3DBCAC2B
3E6D5CD9
3E990EA3
3E2435C7
3C8B378C
BD894975
BDEBFD49
3CAC8A1C
3D7FB0B5
3E1B26DA
BCB331E6
BDBB723C
BC9F47A4
3C88CF3C
3EAF532B
3EB96939
3D8448B9
3E4B9EC9
3E42DB39
BD84C329
BCD97003
BE6D1AC3
3C5DB634
BDBA22D9
BE03728F
3D23A73F
3D5D3C79
BD862F7C
3E065C8B
BD91102E
BE4DBDD1
3DA0175F
BD1D1A98
3DE5EBC5
3E22F48C
BCC06789
BC5A3576
BE0FB3E6
BD946ECE
B8C55360
3D43EF23
3E1AE4A3
3D9A00D9
3CD22349
3D05C40A
3DA48B8B
3DC2CC6C
BC8E7853
BC930BDC
BD18C836
3CB735DC
BDBF1009
BD40E53D
BCF8368D
BD4AAD7E
3D450807
3D95A982
BD4987DC
BCB522A2
BE990DEB
BDE96008
3E3B34EE
BDB456F7
3D5244BE
BD2A8606
BE73E7A2
BE309BFA
BD851E95
BD1475CB
3E43A069
3E2F4F9A
3E1C3A72
3DF98592
BE0ED65D
3E3845D6
3DAEE433
3D68FDF8
3E1DE354
BE103EC2
BDB9894F
3D146349
3E23928B
BDB70196
3C9E408D
3D90506C
BDADE000
3D986B1E
3D4C55FF
BDFCAB24
BDE4D50F
3E3406D4
3D414991
3E09464A
3D327761
BD0A4A0E
BD30D136
BD5E7D9C
BC2F4304
3C08B97B
3D3E87B8
3D7AB9F8
BD46BAE5
BE041C90
BDC3C420
BBBB5594
3E0C41C9
BD3A249F
B90A1146
BBD62347
BD9FD404
BBD9F202
3D840973
BD0B00F5
3D96E9C4
3DD24C76
3DEF9A65
3E11F5A4
BDA20969
3C89D53C
BDEF1E81
3D68890E
BDCBE8B5
BD8728B2
BD72E601
3E33D4A8
BDBB5343
3E8063E4
BE180700
BD6744B0
3E0C4D81
3E0674F3
BE2A5834
BCADB194
3E505AAD
BD7FC99F
BC7E5BD1
BDD85829
3D6286B0
3DB131EC
3DE479D5
BCC962FB
BE51A2A5
3E0C1008
BD535DA3
3DDF90BF
BD373685
3DBAA13D
BD277702
BD9E79C0
3DCA5E6E
BE95250A
BEDEFFC4
BEA4417F
BE0BA400
BC05E9E7
BD6E42C9
BD6E2E87
3D8BBE4D
3D86E2A9
BD3EFD33
BE0D9514
BE0D94D8
3CFAFD67
3E1D9C06
BD8A4336
BD6B34E2
BD5D3941
BC62E5FE
BE7EE50B
BEF0809F
BECE31B6
BE8FA4AB
3DCE1346
3C74945C
BE76CE1B
BEFD29B8
3C52D357
3D829B01
BE87E5BF
BE461AE7
3E327D09
BD1ADCDE
BE3EED75
3C035ACA
BE1DA3B5
BE30405B
3D81CDE4
3B941DAD
BDE4FE29
BDCC2440
3D4259E2
3E810452
3D2B7295
BE2FEE55
BDA740DE
BE18C2AB
3E92C31B
BE84E403
3E6CAD00
BE1A33A3
3D6928FE
BCAE06D9
3D36856D
BDFC8847
BDAB7021
3C4339D1
3E165B21
3C5E029F
3D368EA0
BDF7B642
BD4BE0C7
BD505154
3C4B2CA4
BDB3DA52
3BA51889
BD73CA72
3DD899B2
BE1FEEF6
BD660159
BCA18866
BE15C407
3B9E21F9
BE3F808C
BC606E80
3D9C35D5
3E07732D
3E2E71F6
3C54ADC2
BD8E3E1E
3DD569BF
3E29443F
3E001733
BDF49EA3
3E68D61F
BE27C555
3D1331E9
3ED13DA7
3D8139B9
BDA04C57
BE05F8A4
3E9759B5
BD08CEEC
BD85D294
3CFFD3BB
BE8AAF6C
BD1A979B
BE8EF508
BD2408F4
3E48DBA0
BE264ED5
BE3AF336
3D2963CF
BC8197A0
3E46DED4
3DE71957
BE0BB3C8
3E3AF372
BDDEF98B
3DBD6E73
3D0120A4
BE484296
BDD64650
BE6618F0
3BE3C948
3C12CF5E
3E2B152F
BA0DD693
3D080F96
BDD1E563
BD2D81E4
BDDD0892
BDF0AC3B
3D92EFBC
3DD8C0B4
3E4F3890
BCCB8BA4
3C91ADA2
BE0C7BA4
BD5A1288
3DA0A10E
3E1015C9
3E104CF0
BD018C72
3CED0FAE
BD3D9E61
BA57D498
BD6ABD73
BCF24C1D
3DA31A1C
3EA0768B
BE0328C4
BBD4DC99
3DCE075F
3DFAAB2C
BE036086
3E12E8E9
3AFFFBE8
3D99A0DB
3E21AFC7
BDCF6ED3
3C9CF53E
BDD37444
3DF87FA3
BD048EB3
3CB127CB
3E6EE067
3E87FFB6
BD00371A
BC6255CB
3DBDF45B
3D84200D
3DE4CCD4
3DC86A1E
BE02415F
3E07063B
3E205781
3DBB1981
3E0AD795
3EB9AF4B
3E9C47A1
3EA885B8
3E94FDCB
3DFA28C8
3DD165C6
BE8D52A0
BE6C6046
3CB7B757
3E0CBA58
3E27056B
3D7BDFB2
BE8C76A5
BE713067
3DADAECA
BC45BF9D
3A7A04BE
BDF15C7F
3DEF247B
BE4D2194
BD60377B
3DC4C342
BD38BDD7
3E007802
3DD5E55F
3D0377A4
BD90071F
BD5BA83D
3E9DA2F5
BE1F8416
BD118E7B
BDC2FE1A
BD392388
3D546969
BE340BD6
3E0ED14D
BE07DDCA
3E857336
BCD787F7
3DFD4A6B
BC549A41
BDB84940
BD9D8BB7
3DDC36DB
BEA76AE8
3E662167
3D4617F2
BD9F40A0
BDA2E887
3DA1B090
BD8A719E
3D242445
3D073C6D
3CDDEB08
3DCDBA25
BE85FD63
3AF2FAA3
3BF6B2F4
3D9657FF
3CAC57D8
BDEBA6FD
BCE95DE8
BE517AC6
BE4CCBF6
BDF5072E
BE9706BE
BE27E02D
3CC5FC59
3E0A1DFC
BD91B7F3
BE4067A7
BE740CBA
3C04B50E
BD261E65
BDDBE7B0
3DCE4DFF
3E988C5A
BDC43C79
3E59165F
3E099228
BC2F06D4
3E795344
3E3D5F93
BDBF6608
3E08AB2E
BE41F5BE
3D0C1E03
3DCCD226
BE70ABC2
BDF93F5F
3C865DED
3E859261
BCE141AF
3E3F3097
BDB6F791
BE84365B
3D022061
BDD00219
3E394863
BD26D785
BDE14AAB
BC005371
3D991B2C
3E121C70
BC6029F7
BCF09625
BE9FF367
BDF7A33A
3DC14000
BC9A1B2F
3E86A7F6
3E4ED147
BED55FEE
3E2D4281
3D8BBA9A
BDAA28F3
3D5CF577
BE2CC214
3E626B79
3DB3F691
BDD83BF4
3C45A688
3DEEBED2
3E32B3D3
BDCE15B0
BDFF2AD3
BDAC1F27
3C2621C8
BD23957E
BDC52CD5
3D9DFB73
BEAC686D
BCDFDD15
3E0E2FB1
3CCBC3B8
BE4A9C5D
3B916436
3E044AAC
3D2CE5F2
BD5BD5C4
3DF65725
BDA190DB
3E18CABE
B914DA82
BD8A4A74
3DD21137
BD2252F4
BE0A3360
3DA855FC
3E7DF8EE
3CA0C94E
BD8335BF
BC5E5CCD
BCADBCD2
3D80F864
3E673513
BDE43A14
BE211ED0
BD8C2587
3E0CF399
3E50E326
3E4E8548
3E9FA4B9
3EF0467E
3EE75463
3EB26FA1
3E4E0887
3DE5EFA6
3E242317
BC940B5A
BC932E60
3EA2F95C
BDE790E1
BDC2871C
BE43BC97
3C1B7641
BDBA2658
BEB8AEDD
3E8A3EA5
BC832584
BE8100FE
3E452DDF
BE032AEB
3D212FD3
3D3A828D
BD98DB45
BD5CA47E
BDFC5E3A
BD1B82B8
BE552114
BE98ED95
3EA452A7
BCFE41BF
BDE8081A
3E0000F2
3E2498EC
3E7BD472
BD90059B
3DADAABD
BE5E905F
BC904121
BE2A2C59
3E621F73
3D879B0C
BE39021B
3D91F7A8
3DE6ED4D
BE88250E
BE077F72
3CAC4350
3C0891F9
BE88155D
BE027610
3C9145C8
BD2F4BB0
BDB8ACC7
BE5CA383
BDC50C9C
BDD47EC2
BE630A0B
BC4D75D5
3D927E6D
BEAF8C2F
3E8DF669
BEB851C3
3D89729F
3D6C0C93
BD41947D
3E50ABE3
3D2F6CE8
BDEC24DF
3E3CEAC3
3BD5197E
BEAF9976
3D43BD85
BE07CF88
3E6C2AA3
3B995E60
3DB3F2A2
BDB31A6B
3E3EFD00
BDA86A12
3DAF4F2E
BD8F2C47
BE520699
3E97D425
BCE5BF4D
BDDF5B02
BEB4C865
BDA05D59
3DF74F80
BE468E46
BE5E785B
3E56BBA6
3DA81A56
BD242810
BE838063
3D53A7C8
BC80C562
3EA33AF6
3D7B517A
3EB2C1CC
BE83F38C
BCAE5E72
3D3CE91A
BE8DE230
3ED0F3C1
3E2E754A
BE6553BA
3F0F11AE
BD81C3DE
BDBEF83B
BE5C2B08
3D525AA9
3E921735
BEC8A287
BDBB42C4
BD4DCD6E
BE49F5E0
3EBAB8D5
BD1D54E0
3E7A402B
BEE7D6E2
3E735D39
3E0A6436
3C9707D9
3E92CB8C
BD98C849
3C31794A
3B5D5806
BD14EEBD
BB03EBD9
BD5AF7EB
BDD55C1D
BE8245D4
BD3980B8
3E7D1D18
BE0CF865
3E01B7EE
BC63B801
BE4B133F
3BBDBAA3
3DCADF60
3E40BB97
3E394C73
3E8F1CC3
3EDB54CF
3ED714EF
3E58BAE9
3D28B114
3BB645B7
3E48B0F2
3D03DD7D
BD124F9E
BE04EC56
3D8B60D4
3DA72576
3E846A9D
3ECDC091
3EF9566D
3EE02470
3E4BC998
3EA60547
3E4A50F2
BE3754DF
BD9B0DA7
BD6E35CB
3CA5BD74
BDD0243A
3E1FB8DB
BDED6734
BE35E636
BE49B944
3EA0ED77
BD5D1026
BCE22087
BCEA7DB8
3E14002C
3D9B42A1
3E2BC855
BCF18F24
BD055788
BDC34C3C
BE1BFD0D
BDA37D68
BE4E5789
BE109B0F
3D8350BA
3D9D96AF
BD019D9A
3E920AAD
3D3A2A4B
3E8C4190
BE87CCDB
BDA6ED1C
BD373CA5
3E0DF047
BC150EF5
3E00BDB7
BCA4422F
3DED3034
BDCB14ED
BE9D2B5E
BDBB3468
3E0BEA9F
BD549BF4
3D76E288
BC960C01
BE684443
3E40AC9F
3C2F79E0
BE8B1B6C
3CD802EC
3D600622
BD7E2087
BD099EF3
BD61F269
BD9FA542
3C4C6BC9
BE8E5EAE
BCF47395
BDDE86FC
BCE94472
3DB2E0E4
BE3F6EF5
3CA1143D
3DBAABB7
3D03D1FA
3E0F1D38
3D2CD63F
3E2E683C
BD731E7B
BD1E3977
BD56004A
BDC5F422
3C9DC487
3D752A1E
BD907FB2
BDCD6A24
3E4D7492
BCC00E78
BE58C232
3BF72B8C
3E8D27E2
BDA6AF10
3E0352C3
BE390448
BC664712
3C419D4F
BE2B0497
3E399DB0
3E23A791
BD71D1E5
3E31D77E
3B4FEE73
3E1BBD24
3E3D7A93
3D0A0623
BD8993F1
BB1C5FCC
3A68FC08
BCDB1A9E
BE6BB42D
3D412DB2
BD862A2F
3DAF3F13
BE1D0CD7
3CA7A3C8
BD03B4DE
3DB6ADB0
BD8AA81D
BC888D32
3DD0F005
BE1724F4
BD326570
3EC7E1AC
BD39688A
BBE72465
BCF57614
3D4F750B
BC9E2194
BE572346
3E4060F1
BE9E0921
BDB3B411
BD9B7537
BD167494
3DEA8212
3DE88C89
BCD5E4C4
3E6D00C8
BDA125E1
3E6FEB30
3E437B36
3D9B1391
BE7C5CE4
BE60D526
3DCDA738
3BE7F56E
3E2910C9
3EE04447
3E8BFCE1
3DE161BD
BD11138E
3D065077
BDEE04E9
BD855D90
BC87C9A3
3D448828
3D4CB0D8
3E93DDDB
3EB42056
3E34FDAA
3D856BAD
BD50AE3B
BDCDACD4
BDF1286F
3DAF93B9
3E32B3AB
3E426E7D
3D9ECF4B
BDA73057
BEC47AD4
BD320866
3D4BA111
3C9F657B
BE30F56B
3E4DA3AE
3DE7C492
3E50D4C2
3DE6159B
BDF886ED
BC7CF493
3E4D6D64
BCC14687
3D8F37C0
BC82CBF8
3CD31B96
BE09A141
BCD02816
BDD53063
3D73DED2
3DAD116D
BE58FF4D
3E2DECDF
BD3BD78F
BDD97926
BBC4D4DE
3C40F0CC
BD9EA265
BE80DBF0
3D778664
3EA306FA
3DB93E33
BD40B473
3D3669B7
3D8B2B01
3D982EAB
BDAB3B04
BDE08165
BD60F5FF
BE0031A0
BCBEC004
BD95150C
3D16541A
BD7CDF77
3CCF8CB6
3D60D14E
BCA2DC03
BD39A85A
3E05F63B
3E00CD27
3C0032D3
BE071ACF
3DB69680
BCF74318
3DA4B53E
3BEEF81D
3E26E617
3E0F78A1
BE45B66C
3D4F57B9
3E7F553D
3D07A624
3D54A2ED
BCE228EA
BDF81959
BDDE8EF4
3C17D74C
BDC086CB
BE0366A9
3DCD7C12
3D3BEB1B
3E9BDDF3
3ECA370F
BE28ABC2
3D093D3B
BD870550
BC29EDA5
3C1E68EE
3BAE960D
BE29B3C3
BD1AEBFA
3D8B484C
BD58C2C7
3E5D8CA3
BD4A49B0
3DEA67A5
3DA80A25
3C156978
3D53A8D4
BE3B8D3F
3C82A998
3DBE0BB4
3D8491BF
3E18E787
3DBAC235
BE39D68C
3B4C0D8E
BE11600F
3E78272A
BE791DC3
BE15A1BD
3DF5B2D5
BC651F09
3E66CF3B
BE778126
3E1A8721
3DFF9B64
BD6EBEDA
BE9153B0
BDA80A5C
3E151AFF
3CA523AB
BDDC1DE6
3E5CDA39
BD96F579
BD53A544
BD82833E
3E4446B0
3E0D65CA
3D46B7CA
3DC74E35
BD1CD147
3D79FA6D
3C0443F0
3BFCC450
BD60A801
BD5C1B31
3D790A86
3E0BAE5B
3EFB0352
3E579F0F
BD382D9E
BE648388
BB9E48F4
BB9CC30F
BC852D2B
3D06083D
BC1F51FC
3E78265A
3E652136
BDC4310F
BEAD1842
BE97DB5A
BEC618B7
BEAF5AD9
BEB6348E
BE808DF7
BE93766A
BEA96005
BEDD487B
BF1ED880
BF13F69C
BEF32B6D
BF080C9E
BEA34388
3D672373
3E9EDA4B
BDBED02E
3C8B4249
3DE06CBD
3E0DEF63
BDEA96F0
BE07BD35
BE2F8D8C
3D110599
BCF154B1
3C8E4461
BB3DBBFD
3D7B772A
BEC28870
BDDC3F23
3E0F321D
3DC4F3C7
BB04536A
3E2C6FD1
3D2D4409
3E6C2027
BD3C8986
3C3C77B5
3BDB279D
BE306B59
BDD4053B
BDD80EC2
BD19B21B
3C1A0B1A
3D6C07A0
3CC40FBF
3DA21A49
3DD2F3F9
BE1A411C
BE851963
3C95C23F
3DB4B691
3AED3E76
3D7634F6
3D899CC6
BE3D9D13
3C30860F
3CA1FD00
3DA1E6B1
BE50D16D
3D83C843
BE8E391A
3DE967CB
3DA79FD0
3E9CC862
BCE8D08E
BD7D4276
3D88EB27
3E7A8778
3CE722D4
3E577ABA
3B7200AC
3DED0826
BC9AF793
BDF8D27A
BDDC5AAA
BACFE234
BCA67890
BD804B0B
BD9A5F0C
3DF3BE9C
BD6F6C72
3DDB1085
3BAFA8C5
3DA73D12
3CE47FFD
3D2D236C
3E8FFF8B
BE886B5C
3DB65E64
3E626D26
BE01DB7A
BCD1A58A
3BD1D4E8
3E12A8A8
3DF3ACA0
BD97FBBB
3E149EB0
BDF307CA
BE9C65F3
BE2C2932
3DAEF395
BD91CABC
BD88AA6A
3D29CFEB
BDCFEF2C
3DADBAC2
BE232555
BE5BDAEB
BD310797
BE89BF42
BCD57F8E
3D2728B3
BDA28024
3DB84F17
BD2557CB
BD8122F5
3CE79B7A
BE641780
3E1CA98B
3E347CCB
3D2FD611
BDC084C7
BCB83AEA
3B0FC7AB
BD6F7CFB
BCCA9DDE
BE1D0BF3
3E1E4CF2
BD4828B3
BC601757
BE0448A1
3E833669
3D3AF0CA
3D3D9493
BDA35C80
BE687D62
BE0AF563
BE1B225F
BE8276A4
BDC5FDDF
BDBF6DD1
3D95C62D
BC509D7C
3E166ABA
BE4D9191
3D74AAA2
3E82A60C
3D7DABB2
BCA22676
BCC4A44A
3CCEC1A4
BE162A01
BB4DCCAB
BE5941A7
BD512DAD
3D35BDF5
3DC86BC8
3DABEA48
3E0FC526
BE19A8BA
BE9CB53C
BE8D71FD
BE96C926
BE2733DE
BD873708
BE1BB088
3DA32C5A
3C4ABEAB
3DB72F03
BE477E5F
BD06C531
3E6706D5
BDDC810A
BC15392E
3D293104
BD095C1D
BE3C5126
3E1745DA
BE28E7A8
3D8C46AF
3EB4BD37
BE4E0EFA
3DCBFEC3
3DC1E916
3D1068FC
3E760AC8
3D870A06
BE11576F
3BC37D0B
BD3F0B33
BD2DB30C
BDD831C8
3E21A03B
BE197501
3DA1A736
BE477800
BCAC487E
BD957494
BE32DE3D
BDBFC7E9
3E38D061
BDEEB5E9
3E9EEAB4
3D82DE59
BE1DEE35
BDDC9181
BD5C742F
3D8B364F
3E4855C6
3E13B822
3D9A6B4D
BE406997
BBCB73B8
3D2704D4
BCAA081C
3DE48B22
3B49380B
BE625C88
3DB182C4
BDC10CB0
BD287A17
BD0CD746
3C9542A2
BDAA3DED
3C98F565
BD060487
BE3C04D6
3E66F56D
3E2C62EC
3E3E13A4
3E270791
3E2D573D
BDD61B45
3D306A28
BCC71E12
BB108D05
3D637F4E
BD3584CA
3C767197
3D19F204
BE5ACFBE
BD7DE457
3E31B7B8
BE67065C
BE8C87F9
3CE44214
BD89CAC9
3E0A5566
3C14675E
3B79F1AB
BD6E82FB
BE8867AE
3E330B75
BDB0C058
BD96FB86
BC18E58D
BEB5D2B9
3DF50C6C
BE682E2A
3E51E5FD
3D3E1636
3D129F6A
BD088580
BDDCE739
BE0801FE
BE677F14
BDE02638
3E1E7664
3E438A99
3D901A53
3CA93070
3D8B351A
3D18BC29
3DE7D2FD
BE03781E
3E4FB353
3D1A502E
3CD46065
BC90A9C6
BDB67ACB
BDAB63E5
BD84CAF6
BE0438B0
3E3A0862
BD6FEE14
BD3C41F3
3E4841A4
BE26DD20
BDBF860C
3E450AD9
BDACEB4C
BE4D0438
BD7BA64F
BE00E44D
3D19E13D
BB94A020
3E3828A2
3E393731
3E088C90
BD804BB2
BE104648
BE4ED209
BE53A7A5
BE599D6D
BDE798F4
BE3D6A74
BDB2A534
BD19B281
3D71A8E2
3E17191B
3D6D970F
BE3CB10A
3E3A334C
3E8FC492
3E868EAE
3E22E3F4
BC2EE977
BDB552A5
BC9987C1
3DA60095
3D6A458E
3DAEC6DC
3ED51AE8
3EA1146E
3E17A4E8
BD8E74FC
BC0D2C23
3E9DB072
3D82B516
BDC7B41F
BE810B16
3D802D73
3CE3C5B8
BD8FDD41
3D2607BC
BE48834F
3D60DD3B
3D018D0E
3BA82D23
BD0B7F83
3E171B3A
BD869601
BD01D517
BD354894
3EBEECD4
3D0F0295
BC44D8D8
3E063264
BE4FDD8E
BD072068
3D358E2F
3BEA4999
BC9E2A6D
BDB87726
3DCE4CCA
3CDA601E
3E030CB1
BE13FC87
BC350E6A
3DE112E2
BDB10865
BD6DF15A
BD26EBA2
BBDD5431
3C4EF6D3
3D89BBF9
3E5E3BB9
BBE59A27
BE9FD153
BD993CEC
BCBF64F0
3DDA77B0
BE69F333
3E1E64CD
3D078532
BDB67E10
BDBAFD10
3DACF7F6
BED401B1
3E313B98
BDEA1B42
3E524C2C
BD9AEA8D
BD3595C1
BF0A671D
BD44628E
3C029713
3E2F8686
BCDEC4BC
3E8C3FD8
BE35C5A7
3E054DB2
3D78C539
3E0428CD
BE049441
3D8BE5AA
BD2862E8
3E3F1AD5
3D53203E
3E76BB63
BE3E9814
3E9B2DBF
3DB24749
BD18EB89
3D0103E6
3D9EA2C4
3CC777E9
BD2C5B22
3DB2AF14
BDC852CC
3C4ACC6C
BDF9A573
BC49409B
BC55BCC0
BE7601CA
BDAB3F23
BC92D469
3DAF79A4
BEB16883
3E3E8640
3CD120CA
BE29291D
3DE8B96A
3E1556EC
3E1E8406
3E44840E
3D432D92
3E863B76
BEB0D4C2
BE6D588D
BD258EB5
3D320DAF
3E520DCF
BD8A5C3A
BE830D7A
3E4CF9AE
BDF085BF
3C2E9B89
3CB482FA
3E530271
BC90EAA4
3C715624
3DAACC29
BD392677
3DE30A41
3DC0EABF
3D51E8B6
BE4F69B6
BE1BC91F
BE9F48AF
BE34F84A
3B2236DD
3E36A429
3D16D681
3DE4F02A
3E53847E
3E11D500
3DEB3EB5
3D78E765
3E1ABE71
3C7EF12C
3E15098A
3D2D545F
3E70AF6D
3E68D676
3E41B789
3DCE62A7
3E105FC3
3E393EA3
3D106416
3DD7C038
BE6DB58F
BE8201DE
BEE6D50A
BEB7B095
BE8ECA51
BE366C67
BE9EBFEF
BEBB7D9F
BEA6160A
BEBDB9A2
BE941095
BE27779B
3D63651D
3CAD1359
BC422600
3D414D60
BDDECE9A
BC3201F0
3D8212A8
BE755411
3E2867BB
BCE7C318
BADF0C95
BE2DCCE3
BD7C7FE0
3E9694A4
3CA2CA2A
3E8B49EE
BC070F9A
3DAB5458
3E1A7ADC
3D89D331
3B52FC00
BDD9D0A6
3DD5FE04
BD50DB85
3CFD72A7
3CC998B5
3B725E4A
3D5E2B9F
3DF4E669
3E8D4D39
3C053DAD
3DD3FCA2
3E7AFF66
3E0976C3
BD8FBF9D
3E4704BC
BD7B7D64
3E12A03E
BDA1F6E0
3DA9497D
BD1012D5
BE025842
BCD38777
BCD17461
BCDEF9E1
3DA219B3
3E2A130D
BCBEBE5C
3C9CD182
BDE12CFE
BDB81E3C
BDC656C3
3E1E2889
3D112849
3D8C8D3A
3C977CD9
BE0D8596
BDA99CA8
3E24AA76
3C534E46
3D95F3DB
BE21E3D7
3D0ACB10
3E567C14
BB7A9C65
3D09626D
3E1AEF2C
3DDBD2C4
BD1A6498
3B7BC0DA
3D042526
3DDAED64
3E2F0190
BE93E9E7
BD9C5895
BDA2B7D8
BD998923
3D7761BE
BCBEC66A
BC9CE259
BC8AA4DF
3CFDBEB2
3C110E4C
3C801316
3E276B50
BD67B553
3CD45857
3E043D47
BD930D62
BD268C00
BD563086
BDF7CD03
BC7B1C6B
3CE45290
3DEEFF34
3C8FFA69
3DB17785
3DAA41AE
BE5215C0
BE07FD2B
BDEF9790
BC4AB789
BE07C038
3D3AC881
3BBF753C
BE716576
BD4FD52D
BE31054E
3E2FCAAE
3DE9D2A4
3D9CE43C
3E4DDF22
BC3F638D
BB5B2D92
3D9185DC
BC8B6589
3DE5BCBE
3E020D7E
BC6306CB
3DE45770
BE1FB4EC
3E655A84
BD5B5792
3C4A959B
3CB27B73
BC21DC9B
3D2413DE
BD815187
3E7A7646
3E8352B6
3E77E868
3E6C1425
3EC0FDD2
3E5B374A
BCF908C0
3C69E039
BE9C74FF
BE977E6C
BD3DB67F
3DDDBFEA
3E39387A
3E70BA62
3E4D6C22
3E403BB1
BD6B08C0
BE97AAB9
BEE1DB08
BE63E708
BE3FA63E
BE41E569
BEB5CA77
BE82E847
BC1E9A42
3D6A1540
3E3622E6
BD0D2E9A
BC6EA2D6
3C9F12D5
BD0E79EE
BD326499
BE62EC58
BE086870
3D733867
BA9C2C60
3E39B6DB
3E34BA44
BD2E07BB
3D529EBE
3DAE95E5
3D82FC61
3B4090A1
3D0E5FA7
BC0276E5
3B83282F
39C3DE44
BE4069FC
BE50A7C6
3DA54835
BCC704AC
BE8AAD20
BE0D8A4E
BE9AE2A8
BA7A4E84
BD8377FD
BD9E8A2D
3ED5F202
BCFD61D0
BD268A1B
3DF26E47
3B44D9B5
BBAF7181
3E181F75
BDFB9595
BCEA8D62
3E58794B
3DA58A9A
BE443427
BDBED4B3
3D228797
3DB29510
3E8C36BC
BE615875
BE2B2570
3D994B7F
3E25AEDF
BD9856B8
BDC4E019
3DBB7F79
BDCD127A
BEE76304
3DA45474
3E19E77C
BE8A9FBE
BDA1BED8
3D462C4F
BD6087A5
BDAA1A7F
BE0F312B
3E3254CC
BDF3FD00
3D83B4A6
BC7F0CFB
BE1D986F
3DB4224D
BD7DC469
3E8B1F68
3ED19DBE
3E57A589
BE2EF1DC
3D7FCCA1
3D6B8082
BE604BBC
3E7CAF85
3CDBCDF7
3E940973
BD665ECC
3C4C1DC6
BD695FA5
3DC2D5AC
3ACAD9E1
3D043CFC
3D49661B
3DEBE081
3DD87534
3CE135F0
3D9EE565
BDD97A9D
BE0F6711
3D074173
BD4E6719
BE8173FB
BE96F1E0
3E868918
BC914C1E
BDC184ED
BD3D07D0
3E5E67A9
BE0606C5
3E017E56
BD2CCD43
BE043167
BEA03247
3E9DEE24
BED0C1C0
BE837DAD
3DACB468
3D39E6A4
3D8D02DB
3E3B1B0E
3DE3CE7E
BD8ED479
3D448D4E
BDFF3C63
3D18BCC0
3DCCD233
3E5E819C
BD6C8F0D
BD7284DD
3E31672A
BDD08264
BD45C33B
3E9F74DE
3C11AFC7
3D886A39
3CC84C5F
3DE1BEA4
BD79C203
BE8B53FB
BDC4863F
BB4C5E05
BE044CBE
BD9D3F98
BD6EC799
3D92994D
BDF5B714
BE6EC81A
BABE7D54
3C8B6E68
3E4A74F6
3EA35D14
3E363052
3D932921
BC8C3BA8
3C8AD7CA
BC141B31
3DA9D1C8
3E01B8F4
3DE3B511
3E8BE316
BD0963DF
BDD120FD
BE6D54C6
BD82CFBD
3E264474
BDBC4A8D
BD2781DF
BCC70C23
3E59B93E
3E17589F
3D86B4D7
BCDDEBE4
3D05B86C
BCB85029
3D8F5768
3D9B99C2
3E5ACF9D
3C79BD1B
3E457AC9
3E2C3FDF
BE74C682
BD2292EA
BDFF5CA2
BDC7CB1D
BE2776BE
3D7D8648
BE89CE1C
3D70DAE1
BDDFF1BD
BC501415
BC9D6CF8
BDC4F959
3E513214
3D2476F5
3B82C551
BD6E3F4E
3E50A89C
3D4DDB12
BE18EB83
3DDE13A4
BE37202E
3E276923
3E1D0771
BB127074
3E363D88
3E3453D2
3D069CC5
3E4A44C1
BCC4C99E
BD0E939C
3E54C6CC
3C3EBF4E
BD1B88EA
BD8FBFBA
BD83B3A0
BE05C528
BCE96FD0
BC8DD36D
3E4393D4
BCE68A99
BDB73A9F
BD94C7EE
3DC46698
BE550460
3E04BBD7
BD6317AD
BCDA001C
3D41A7EE
3E6467AA
BE4E2A5E
BE2E4785
3DA665F2
3DAA9574
BDA0E5D0
3E10BE3D
3D8D2570
3E7962F8
3E27237C
3E0DEDDE
BD043F0F
BD9BB295
BE3B6842
3DB5B70B
3BF77935
3D43C7AB
BB904E21
3C3A0AB3
3D4AA1EA
BC82C06F
3C445C30
3D84961F
BDD945D2
3DC5313C
BC111B5C
BC2B92E1
3E8FCE0C
3D1EA2CB
BDBD60A8
3D569D79
3E04B29D
BD809DB7
BCE90064
BC989DD6
3D8A4214
3CEAF4E1
3D849DCF
BE0BCF19
3DD90C41
3CFE0B49
3DA5B583
BCBC43BE
BE80C632
3E2466DA
3DE1AB31
BE6171FD
BDF7887D
BD6E0ED7
BE333EC3
BD2D4B17
3AE68F41
BDAC4F3C
B9EFB39B
3E04145B
BC2F1AEB
3D740EFB
BDB6119D
BD679545
3E1DF51A
3D9B8E29
BDC05C40
3CD858A7
3DF63257
BE114F48
BE83F5C3
BE84FF7C
BEA2A24D
BE19BA2F
BDF3359D
3E3BEF00
3D60C710
BDAC328D
BDA94A3A
3C27B546
3D4C838C
3D669D05
BDB1BCCC
3E839A86
3E77C738
3C7904CF
BE92FF0F
BE88AAA1
BD1BF9C1
3E11B5A6
3E5EEEFA
3E537EF6
3EBC495C
3E371A92
BE2F348D
3AC86FCE
3E4DE1BB
3E958EEB
3D978D88
BDAE41A2
BE447A1F
3E3A63EC
3DD926D5
BDAE319B
3D9EFB97
3E54FB84
BE4C5792
3D814E43
3DA96607
3DE7D5ED
3D2BE993
BDFA2E65
BDE52EB6
3E764126
BE16D66A
BDD02894
3DD19EA9
3C79550B
3EB06B4C
3D83B576
3E265563
BE9BA315
3DA20695
BD0D6597
3E3FC90E
BDD0A732
BE3B7161
BD1291E0
BE54DD2F
BEB3E246
3DA45988
BDA8DAA9
3E1C5910
BE0026A4
3E341F5E
3D2171BD
BE02908A
3DADE9AC
BE5FC852
3CE34519
3E214820
BE5C9EE6
BD102AFB
3D9A1230
BDB6EA91
BC360B75
3D190306
3D79F0C5
BDAB0053
BE07237C
3E19E59F
BCC77FB1
BE8206ED
BE05733C
BB0CD3CE
BD33E7BC
BD3C531D
BDC7533A
3DD09E99
BE9FC185
3EA9ABE9
3DF198CA
BE3DE120
3DA3C3FB
BC81DA00
3D9590C3
3E275EF7
3DE57598
BE651061
BE40DB63
BD5743D1
3DC04569
BD363C17
3E03F90A
3DF7135D
BD446903
BD5A8CE4
3E509CAF
3B74F5BE
3E0A08F5
BEBDDAE0
3D4C2C4E
3CB462A3
BE3EB6E8
BDD95D41
3B5FCFEC
BD0ADAF2
3E1B100C
BD57E006
3E0DE064
BD4BF2DD
3D7B4C3C
BD74751D
BDC9E058
3CA4D476
3E610E1D
3E2E32FE
3DCC9D39
3DABAB0D
BE5CD68D
3E1ABEC1
BD147D1D
3D8D6958
BDE85D09
BE1D0155
BDEAA3FE
BE223B07
BE1E571E
3E1CFC61
3D9AF576
BE09A452
BD28F367
3CCBF6EF
BD6998CE
3E0ECCBE
3E91A4A3
BEA313FE
BE6DE1D5
BE29AD57
3D5D13CF
BE1E7F0B
3D48B9E0
3DF6ED75
3D8DF95D
BD84CF77
3DB448D8
BD875CDD
BE1F469D
BDA25E6A
3D871EEB
3BFB6171
3D782050
BD915B00
BC56E60B
3BB07454
3DD2E33F
3DDC1DBE
3DB619AE
3DD048D3
3E01FA47
3E0E49E8
BE255411
BDDB0849
BDC2C20A
BD49B589
BD81C054
BEAE9E72
BEAE13BF
BE81D6BB
BE05D9F1
BCE456F2
BDFF7DC4
3DD06A03
3D7BB388
BC6D5934
3E6F6A58
BE38D266
BDA5EA6B
BD58BDB7
BE13B978
BDB1C3FA
3D482F79
BC6A3243
3CD31B0A
BE6CD467
3CAF3822
3DF5697C
3E1AAA99
3E0138BD
3D81B744
BD8AD6B5
3D10F62F
3CD03F1D
3C91DDB9
BC32EC11
3DA762BB
3E044F9A
BE37B5FF
3D77ECE4
3DA03A5E
3E06FD4A
3D9FB006
BC4D7468
3C0AECB3
3DA01BA0
3CD89161
3C841EFE
BDEAEBB7
3E3A432E
3CE46824
3E0FE168
3D91807D
BDAB96EF
3C9FF2CF
BD8D7928
BE86EDE4
BBABB92E
3C555897
3E2E8478
3E025B89
BE321E09
BE05BB67
BAB65E29
BDCA6F29
3E81B552
3C29FE0B
3D59AD18
BD3D08BD
BD1BCD05
BC97B4D3
3DB33B22
BD1519C5
BD93CB8E
BE48AD25
3E13CD8D
3E3A5FA0
3E21FBA4
BE42DA2D
3DB4FB3B
3D9743D9
3DADE3AE
BDFB4E70
3DE3B305
BC66079C
3D40195D
BCDCCAA1
BD0A9C5E
BDC0AEAB
3D9BA711
BB2362FA
BD429F2C
BC263782
BD91B9A5
3E54DD28
3DEDCBD0
3DC811BE
BD4F8B28
BE1D1783
BE208D88
BCDB9186
BDB98FAC
3D65672D
BD643165
3D8C9848
BCA6A571
3C039153
3E55028A
BDCB1256
3DFA6AE5
BC3F9D9A
3D5AAA73
3E036298
BD239C5D
3E49DA24
BD3FAE13
BDF9C348
3E55D79C
BCA59012
3E78CF62
3D0D495C
3DAEF9CF
3D90B083
3ACC95B4
3E117E8C
3DA24C13
3D43AF90
BE0A2A91
BD7667BE
BDCC87B7
BD839578
3D9A3A66
3DB8FCB1
BD7F312E
BE037B36
BD9B4B73
BDF889DD
BE8A68D7
BD541C1F
3DCF95C7
BD60E59E
BE090FDF
3E410060
3E150735
BE2ED08B
3C40226F
3D13D50A
3D354D87
3E14D482
3D9D50E8
3E3A0C50
3DB22BA4
BC31F6D3
BE304E68
BD4E6AFA
3CB6A279
3E57ADC4
BE179BA7
BEE479E6
BDC0B4F0
3E63D853
3F096C05
3F28B245
3F178FD9
3F094AB9
3E98C5D7
3E981345
3E1AA978
3D92A249
BC8432EB
BDAB81E1
BD32BEEF
3E16AF5B
BDC9A09D
3D31D037
3CE43356
BB3042DC
3D89A02A
3E7DA159
3D86E98C
3D0480AB
BD824A6F
BE142F4E
3CD2A29A
3DBFCE99
BDA0EBE9
3E061A0A
BE43E3A6
BE323084
BDA77AF1
BD9A13C2
BCD7AC74
3DC0DCC7
BCBC68CC
BDFEDC8C
3E758157
BD7CA730
BEC68724
BBFCE3DF
3D23D9A9
BE0BF74F
BDD05B7D
3CFA7592
BD9613EB
BE5CFAFD
3D84C28A
3E03C134
3EA22F16
BD139612
BD8A2E65
3D92EDAD
BE16DBF9
3C4643D1
3D249F21
BC6B6655
BE15EA5A
BCC395E7
3DB7E73C
BD52141F
3D9E70AD
BDAF9065
3DBA70D7
BDEED719
3C34642B
BCD38F2E
BCDAB09B
3E7228A7
BE4A5043
3E6891BA
3DD5FD1F
3CC787A4
3C1355BD
3D0AD3F1
BCCE8A11
3A83C3A2
B97394DC
3E2ED578
3BC25753
BD5DB0E0
BD23E97F
3E3F4879
3D4D75E2
3D4A449D
3C8030A7
BD0B7F6D
BDE671AC
3D07E057
3D2C9AEB
3D475BED
BED990B3
3CD0A00B
BE5ACF74
BDAAF3B4
BB97D57F
3CC602CE
BD1631C3
BDA83D57
BD289289
3E323C9A
3D17DD7A
BDD600E6
3E081CCF
BC9AE73C
3B9A0BC3
BDE5D8A2
3E81CF0A
3CE30B83
3C71CB54
3D2F7FC5
3DE311DB
BE5C677B
3E820D4C
3D2E5F79
BCB86BE2
BE387421
BD91A630
BDA97C00
BE834E7D
BE117AA4
BE1473AC
3DBA8C71
3EB362F0
BDA6D120
BD6D9341
BD43094A
BDA99917
3D08D6EF
BD2E4893
BDA88504
BD56A2CC
3CD3E708
3C4DB8A5
3D29D3C9
BDC89320
BD10A5CA
3CC860F8
3DDB7A44
3E95D0C1
3E8E3221
3E4FA47C
BA20379C
BE0B5CD4
BE69D9BF
BEDE9391
BEE35870
BE88A7EE
BE2B2FDF
3C8EF968
3DCC7AA0
BC6CA087
3DA7C5FF
3E364EDC
3EA2A458
3D1AF046
3D8BF99B
3DD196B1
3E558E6B
3E8BF815
3ECF113A
3E880347
3EFF7CF1
3E7C1DA9
3F067256
3E402D5A
BE52AF80
3E5E7D8C
393DC045
3BB1932F
BD826BA8
3E2F859B
3E0ED56B
BE00EB3F
3DA8322A
BC8E9A42
BCBF33CD
BCAAD404
3C4D6315
3D5162FC
3D6B39C0
BE5FD794
BD1DFA67
3DFE3BCD
BE6D5370
3BCC9CFC
BE1D622B
3DE15AF9
3D832AE0
BE38F56B
BCCE84E3
BE2E8FA9
3DE430B1
3DB89DB2
BE880930
3E05FBB5
3DEB857D
BCA01CE1
3E3B0596
3CF058EE
3C2E9783
BCB34024
3D9C4474
BE149378
3C8E9C76
BDA02911
3E8C48CF
BDB93001
BE2F6F2A
3DB47D24
BDDB6B46
3DBFB5EE
BDA21874
BDA5D3E9
3D7B4D30
BD0E5434
394C9C59
3E7A875D
BE004CC8
3C3E0386
BE03D64E
3C73EFF2
BD1E4604
BDC91684
3D4AFC5B
3E07502E
3D1B677D
BD7A6762
3C39ADE1
BC8B7752
3D9AFA3C
BDA8F351
3D8DE9CE
BDA548E5
BE5755E5
3E8124D7
BE8F64B5
BE1852E4
3E2A9838
3D9F92D1
3DF6CDE5
3C97A30A
3D0617A7
BE270938
3CB44D65
BE650ED6
3E97D274
BC84E7F7
3C0147B5
3DD5CD77
3BA900B1
BD903C50
BCB8388B
3D2B7871
BD4B6630
BE01BBBB
BDA0338A
3DDAD6D9
BDE828C3
BD99726A
BD107452
BE44DD6C
BBECC9DE
3D4D0D4F
BC7199AB
3DEEA2B8
3D3B22FF
BC9F4A0D
3D142A49
BDB7FCEB
3D570DD9
BD42DDB0
BD26C798
BD632DD2
BE3C177A
3E339F19
3CFBFD72
BDB987EA
BE28852B
3E970751
BDD5DB34
3E6F687B
3E933D29
BD8DF895
BDD7B56C
BDB0033D
3DDD39E8
3D488B52
BC97C168
3D3EBEBD
3D2A3505
BE361D3C
3E35D3EA
BD3AC830
3DF81C71
3DD86071
3C24B7C5
BE2269B1
3DE7DD51
3D1601C2
3DAAC9B9
3D03170E
3E3BFCE5
3DB47BEC
3DC36C52
3DD222FD
3DC2FB87
3D97F219
3DCFA00E
3E5C2B52
3E3D77D9
3E732569
3E7D9070
3E465244
3E837312
3E63EF00
3E78A7D3
3E9DED5E
3E8F1A49
3CB7988E
3D78C414
3B80B10D
3E9170F4
BDAA1C66
BD09E3A1
BD4805D3
BD6976F7
BE406595
BE07F1BD
BB9759D0
BDDC2A10
3E06C022
3DE7F4A6
BD4532BA
3E0835A9
BE0C5CB5
3E0B42E7
BD27C63D
BCAF5233
3D652E96
3D46432B
3D5200F4
3D969805
3E46E6D3
BE056903
3DE3B85F
3E48AA1B
BC9451E7
BE15962E
3D8B3296
3DB036BA
BE2E2182
3D96181E
3C08DA15
3B5BC7C1
BD29D1DB
3D2E993D
3D790603
BE70D188
3EAEC07C
BDA629A3
BD2CBC94
BE852BAB
BAF1FCF7
BDA483CC
BE2EE24A
BCD6D168
3D7CABD3
BE758A8A
BCEE01A0
BDEE12F6
BDE9A8F6
BE8F8808
BD9CCD8F
3E128E49
3E4335AA
BD8D24E5
3E8AEE5C
BE332E5A
BD9B110B
3DB3FFFD
BE8A9E57
BD9F8AC2
3B2D6900
3EDAD730
BDCAC945
3D9E7B99
3E855E68
BCB9144E
BDF72E1A
3E04808B
BD3E1DBD
3E92F725
BD876E68
3E13FCCA
3D0E2885
3CF7282B
3C1E8409
BDA779D4
3E03682E
BC21D1D6
3D47BDB7
3A98317E
BDFE9440
3E094673
BE94B75B
BD7E38F3
BDB50FB6
3E58AB7F
BDE79C19
3C908FE5
3D1B6020
3D8536F0
BD591D8B
BE18634D
BDAC4F60
3DDB2DEE
3E417EA0
3CB4BC85
3E02A16C
BCD872EE
3D4D7249
3D373F85
3DB69B55
3C17FBAC
BE1A862F
3D6700DB
3BED7021
3DF73CD5
3E4829A8
3E85558C
BD888F56
BE49B90F
BE4B766A
BE48BD2A
BE38F946
3DB9686F
BD3E86F4
BC847A93
BE4E3E87
BD54DDC3
3C77FBA5
3DE31536
BDC5C120
BE4E3D59
3E195E33
BCAA1E06
BDF8D26C
BE50EA7D
3E56F8EA
3E0C81C6
BDF7CC55
3DCCB2E2
3E83FCAC
3E1D13B6
3D6D90F0
3E873497
3E89DD57
3E0721B4
BDD740EC
BE1C995E
BCEE062D
3CF9E28F
BDD060F1
BD75440D
3C426327
3DDD35B6
3E16D33E
3E47F767
3D904EBE
BDAB129F
BD0D1016
3D736695
BC7C1092
3E8B87F7
3EA62D44
3DC7E130
BE6644B7
BD32A98E
3E2362DC
BD7D1339
BE1EBBF0
3DC36238
3CCCC556
BCDC9CC9
BE43AD70
BE03340A
BDCA2B24
3D802D11
3D03BCFC
BE01739E
BE312CEA
3DD0B25D
BD824214
BDB69A92
BD248FDA
3D63FB6A
3D694FD5
BDB8778A
3E3709C5
3D52675E
BD48A29E
BC9BD9C6
3E2D314E
BDF3E715
3DE2E141
3DC98BB3
3C505BD8
3CED29D4
BD165562
BB2A0F08
3DBAC4B7
3CECE180
3D8E113B
BDDB403B
BD91C8C5
BD20474B
3D93C28C
BDB285A0
3D63752A
3DA2549E
3DA4350B
3E19CFF8
BDC9666F
BD9E5851
BD14E773
BDA15A0A
BE414F56
3E43B6D9
BE33DA30
BDE674B7
3E3C906E
BB8E391A
3E1F649A
3E26D18A
BDD75E56
BEC05554
3E49B04D
3D7598DC
3E6B0C7B
BDDBA619
BC8D3FBF
BAC33A5A
BCE82273
BE359FDA
3E86E29B
BD19C54B
3CD295EF
3D9A4CDF
BDCA2795
BD11137E
BDAE6190
3C2602B4
BD035BC5
3D38EEFC
3C1210CD
3CAD06BF
3E42970A
BD52BB03
3CB7299D
BDC063FB
3D96F8FF
BCB9018E
BB3B4837
3E69B55C
BD42BA75
BDECE5F7
3CD57DDB
BE0D61CD
BDCC8DDC
BE8A096B
BCCDBD12
BD82E6FB
3E162039
3E63A1B2
3E18FA88
BE14EDA6
BDBFA484
3DE4A269
3D96EFCE
BD4AE8FD
BD95CC01
3C70504A
BE08C452
3DC2D2B8
3D43D621
BC9FA5BD
3D5E2A42
3B14FBD0
BD0CAB87
3AD75305
3DED066B
3D8DD34C
BE326938
3DBA3FD6
3CF20F5C
3DD502FC
3E28B0F9
BE04BEF5
BE828119
BDB821BC
BAAF276D
BE1398E3
3DFEC71B
3E415C56
3D4909F7
3D493CF3
BDF92487
BE072B88
3DE50EF0
BCF44F12
BDC900AD
BE2BD48D
3E131FC6
3E78654B
3E5DCCE3
3DFB6F5D
3DC7DBB9
3CC7309B
BDA117BC
BE5F7872
BCE5BBC1
3D06CAF0
BCC7EC22
BD8C5285
BEAC0725
BEBA8B67
BEA2B43E
BE648F61
BE9D6430
BED27E74
BE6F8983
BDB630A0
BC91695A
3C9E8EB1
3E546683
3E391284
BDE86E3B
3DC8EB49
BF0176D9
BD52CB97
BE6BFC6C
3E34DDF2
BE1717B7
3E155285
BE08131C
BD7C6EDE
BE62EE6A
3D4A049B
BE06C821
3E13A68B
3D65E770
BDC51F45
BED36CD5
3E9162D0
BC13D9EE
BE20F75C
BD74B300
BE6B3849
3E539072
BDE1D276
BE30692C
3E66ECB9
3E1DDCDA
3ED53C2F
3E23A5EA
3E044B6F
BE7C8B3D
BE4FEEC7
3E77DA47
3D95544F
BD95D798
BE22517E
3E84D519
3D84A1E3
BE867FFC
3E1B3BC6
BD484955
BE4F009F
BDD39764
BDBAECED
BDACE03B
3E3ADEAF
BE1A246E
3E0BA593
BF15AE24
BEBA114C
3EB6F6EC
BE7F4AE9
BD589DA9
3E445C2F
BCD45AB0
3E94A5BE
3E6D1F6E
BE739BD2
3AB89F5D
BE35D3A0
BEB83028
3EB22C38
3D0DC776
BBB6921F
3F08E28A
BD7FFF52
BE24AB1D
BE78F7C7
BD05A015
3DCC2C17
3D75B823
BD6B9735
3E9C00D7
BD7105A4
BCA16E5F
BD9D0B33
BEB328A3
3DCF5B37
BE8A2B90
BCE0E6FB
3E2D70BF
BF0A8C5D
BE8D3BB7
BDC87E0F
BBCDEB36
BDF56613
3E36EA13
BD214753
3DFC4362
BEAE5790
BCCD2F4E
BE007E11
BE2938BD
3E79E188
3EA88701
BCFEF5DF
3EDD1FD2
BE46F1CF
3D841CE5
BDB57B90
BD418EE4
3EA2C398
3DD72332
BDB57C0A
3E48E17F
BD9C7F20
BE34E301
BCF1020B
3BF35372
BE85FFB1
BDD0FA3E
3D4BAB2F
3E45CDAD
3D9CC481
3E03D966
3D99CE86
3E4E2406
3E36EFD8
BDF3D486
BD589E82
BE2C5F47
BE19420B
3D2E69FB
3D9EFD60
BE2CAD4A
3E34580B
BECF5EE3
3DF6D1FC
3E6248E5
3F1A7C25
3F246D9C
3F36E428
3E95D71D
3EB8240F
3E505D82
3E5A9B3C
3D8C3F1C
BCEE318C
3CA532BF
3E14CDE0
3E162F8F
3E5262BE
3EAEA4BA
3EB77AE5
3EA0E42F
3EBD228F
3E395BBC
3E4CD17E
3EC02DF4
3EBFC1E3
3E6B914F
3DFB19BF
BDC7081F
BE42D82F
BE40808E
BDA202EF
BE8F5085
BE82E777
3E8E73F7
BE253020
3E1404E4
3C7CD4D2
BD533C0D
BE037840
3C9CD117
3D7000A1
3E2B97F8
3E402F5F
3C971027
BE8B0103
3CE5D983
3CB20E5B
3E46C1B4
3DF62FFB
3E2C3F2A
3E274BCD
BDB34841
BD6B151F
BE0EB888
3E3FAD4B
3D29F991
BE30A853
3DE51373
3E5CCBF6
BD8DE1DC
BD9988DD
BBFCC2BA
BA7FC848
BE0C5AA3
BD1C1ED7
BE00CEBA
3DA45D1C
BEAAAD0C
3E2467E7
BAF2BCC3
BE867A27
3DABEAAB
3E15A562
3E6A17CC
BE0B893C
3E0BC4CB
3D592314
BB2688B8
BDB07C23
BE578B52
BCCDB215
BE03B4B3
BBEE9AE6
BE0FB048
3E1B3D30
3E242799
BEDE940D
3C9DE4D2
3E4AC039
BDD9A1AD
3DDF2E3B
3DD6D9F4
3D14D50C
BBBCF69C
3BD90D04
3D3BA63C
3CDB4A6E
BD4DB2A0
3D80292D
3E2E5F67
3E5EE745
3D5A8C53
BDFD1400
BD1AB8AE
BD79B474
3DB2BE45
3D2C2939
3D9D62D1
BD1D089F
3E2A3FBF
BED627B5
3E55DCE1
BE3133FE
BD4F339D
3E7F00CE
3DB488EE
B9414B49
BC417F1C
BCCBBD33
BE2FB02D
BE1C28CD
3D22F822
3D6CF62D
BE61C695
BC648647
BE0D4D11
3E8044EB
3CD44B8C
BD6D2D32
3BAEBC04
3C6B1578
BD639D74
3DE5598C
3C3FA938
3E2BFCD7
BE4911F7
BE279D39
3E89F1EB
BCA014A3
3E1A8D22
BE240FE6
BD938C5E
BE3298E7
BD2A1DA0
BDC95FB3
3E24A842
3D6EEE73
BE711391
3DA71199
3D908494
BC4C2735
BDE78423
3DCDF190
BE8F7609
3E5B189E
3D61EB4F
3DF9E64E
BE053CDE
BE0D02D4
BDE998EB
BED09E0C
BED486B1
BEA7B4A9
BF0413D8
BF0E044B
BF16EBCC
BF2E366C
BF3C7F59
BF1FEB1B
BEA2FCE2
BE51D389
3C8B2B72
3D6C65CC
BCF70738
BD8ECD43
BC79D731
3D33ABD1
3C9CB476
3E17B76A
3DD3FCBC
BE147391
BD901194
BE18F769
3DA10BF9
BDB4C76D
BDDF93AF
3CBF5941
3DD468D8
3E144BA4
3DE08EEC
3DDD73AE
BDF272AE
3DBB3C86
BE208C32
3E082DFB
3D6975F5
3DA06A74
BE9AC299
BDD91545
BCFDA649
BE18D5F0
BCA7563B
3DC73226
3DD91171
3E8DE8B4
3E23598D
BE4E99D5
3DF4AEA1
3E134D56
3E2F47B6
BE381C78
3CAA591F
3B68C969
BE531EE2
BE975D46
3D812D5A
BD999347
BDBC3456
BBFE7ED8
3E1AEF47
BAFE5C3C
3D41731F
BDCDBE06
3DF2B23A
BDD6470C
3D5D9B7F
3E008A70
3D36A91C
BE22D532
BC4EE805
3B08096C
3E3AF96C
BE3879D8
BBC9FCEE
BD8BE2DC
BE36DDE9
BE002E7A
3D8AB129
3D3C6630
3D895A3B
BD1DD703
BDD41A77
3D615545
BDD525F5
3DC08107
3E3CE358
3E6AC740
BE03B3D6
3CC56C20
3E14421A
3D262467
BC91C2CB
3D569DFF
3E1769D8
3E184619
BE3A1E67
BDFCF29A
3DF1E03F
3E696689
3D15011E
BD8B40A5
BE69C660
BDDDBAC6
BDEE6398
BE11A643
BDDC0A4A
BD217CA2
BDE09AE0
BE02DFC2
BDE589C8
3D9EF063
BD58A00F
3D5AF7FE
BCEBAADE
BD3EBB29
3C1D49FC
3D4073D1
3D8FF6CA
3D132ED9
3EBCEA6F
3E890D06
3B2CB30D
BE14EB86
BD06BEC3
3E1AEE19
BD9F682F
BD8CE9D2
BD105852
3D4F7D54
BDBFFB12
3E179A4A
3DDBD068
3DF4F872
BE792996
BC17DDDA
3DCEE5FC
3DD8A6CD
BCCC1186
BD291146
BDFC5ECE
BD4F2C08
3C14FC6A
BD070997
BD03B9E9
BE0FB452
3E135ECB
BDBC73EF
3DD8429C
BE5AB390
BE07A355
BDE85C5A
BBE50F68
BE5D79A2
3CEA5DDD
3DB3448C
3D5F74ED
BE19DC6C
BDCE307A
BCAF0E8B
BE8D9C8D
BEBE560B
BE7574FE
BE803B3F
3E287952
3EAAF58F
3EAFAE36
3EA3E100
3E8F915D
3E74B098
BD7403CB
BCB2BAAD
3DD196CC
BD115BBB
3E3D4AD0
3EC0DB1A
3E2C76D1
BD905F62
BDA7F123
3DC4BCE7
3E822428
BE9E36F7
3E0D450C
3D6610AE
BE170E04
BBC2922C
3EB9CC7F
BE01DE27
3B51CCBC
3C86D450
3E7DFD05
BE277073
BC7CEA57
BDDBE66E
3E1E821C
3DDAEBFA
BD369484
3E2C9C1F
3E598B14
BE25FA58
BE0C3FC4
BE4B070E
BC96F032
3D8B4BE1
BE0C2D06
BE2F51FD
3E1EF1E3
3E1CD5C4
3D2215CF
3EA5A29E
3D2B26AF
3E597EF7
BEBE2475
3E84B326
BDE7E9A4
BD0951B3
3DA7BD37
3C993617
BCDB052F
BDB02B73
3DF2FB78
3D65F6CA
3AED9E31
BCAA3C34
3DFC6003
BD35401B
BD1C2B7D
BD35FEF0
3D9E106F
3C1BEAA4
3C59E94B
BDFA2E3C
3E88C28D
BE7D23C1
BD71B4A3
3C5C791D
BE25A6C6
3E08F4A9
3C52762F
3D569C7A
BD1BB977
3D6F6D84
BEA1CFEB
3C8902D3
BA82E8D4
3D943B47
BD7A8E5E
BDD6F933
3E931A7B
BE039694
3E26FD22
3DA7F25A
3DA2C79E
3E520D27
3D44C11D
BDCA2AFF
3DC0505C
BEA6DF9E
BC56C330
3D53E103
3DFF124A
3E8E5592
BD0C8A5A
BA911759
3E8D0EFA
BED74E7A
3D45F1C4
BE9AF6B2
BE1B34B8
BD96A48D
BD8BC154
3E678133
3E557FD8
BEB3CB60
BDB57E39
3DEBBEA2
BEADD5E8
3E2F8B6D
3E0AF703
3D3D1C5E
3EC59575
BE5195EE
3E4BB54D
BE5C50E9
BDBC8931
3DAAFA14
BB98B05F
3CD68D25
BD3FA303
BE317706
3E5C38A3
BD86027E
3DB07710
BE61AD50
3DA98F18
3E9AE184
3E552708
BC9CB99F
3E224A2E
3E0FD673
3E039AE7
3D9EB023
3CF2CA68
BCCEDC01
3E201B72
BE228CDF
BE11AD50
3DA373A0
3DB9A20D
3E9D514D
BE03956D
BE5334F5
BE4E9079
BE5FDA69
3C8448A5
BDED0AE0
3E0280DD
BD440840
3E28DDE8
3DA3E9F5
BD6F695F
BDC94C76
3DB6273D
3D8834B6
3CE774AE
BE9B0BB2
BED70AE5
BE9078F1
BE0C269A
3C2AC9EE
BD96DAF8
3D5240D0
3B3E1651
BBB42346
3DA9EC3C
3E81BC8B
3EE9647D
BD8019B3
3D8C24E8
BE2D46CD
3E0AD122
3E21A61B
3D30B7B3
3D92D363
3B5CEE87
3DC644BE
3DABF2AC
3D7F4807
BC888B64
BD448345
3E2BEFC3
BD86713D
3E8E78B9
3CF43094
3CE54D8D
3E10F78B
BDE0A98E
3DDB63D4
BE6FC4CF
3E1E18F6
BD1CCE6A
BDD43E1D
BDC8FBD3
3E24A3A5
3D368A18
BE80C6F8
BDF8F77D
BEA21848
BDA6C90D
BDD30660
3CDA3BEB
BE85398A
BDF10526
BBB8FCF2
BB013E25
BDCF97E0
BD7246B2
3C879F81
3DB41F1A
B8FDA041
BC125860
3D107637
3D1D6147
BE3B94B1
BE187571
BE4CBBB5
3E3A4FCA
BCB9E66B
3E6D06A8
3E854CF6
BEA8868F
BDF19978
3E233164
BE526C21
3DB55E21
3E18ABB4
BE02381E
3E37FE53
3E05FD63
3E2B64AB
3DADB4A4
BE691C7B
3CBAAF43
3DAEF78A
BE6953F3
3D521C90
3E0509AB
BD1E12C8
BBE385DB
3DD6C5D2
BD8B3E65
BDD469A2
BBC3F1B0
3DA00420
3E1BC84F
3C5CE41C
BBFAA2EB
BD65DECC
BC85D2D3
3D6AA08A
BE20C254
3D85AB4D
BD3C77D3
3DD97064
BB251A63
BCB87110
3DD88999
3DBDEF89
BA80CD42
3E6B2A6B
BDC406B7
3C3B5E5B
BC995FA8
BE5E6157
BE216EA9
3E50FBF9
BAE43A74
BC0B35F6
BC36864F
3E4894ED
3D8C60C5
BC8A5859
BD6D20B8
BD3F0B69
3DD83B10
BBDE2746
BD5191E3
BB9CE71B
BD831B73
3E13AB07
3E6E1756
BD56AF04
3AB89351
BE0457CE
BDBFF8DB
BD93DE28
3A264E3F
3DC3D3E2
3E80666B
3C4C03AF
BDCB5991
BD2DB045
BE29D7CF
3DEE708C
3E1D5C53
BD5746F1
3E373C42
3E1C7D87
3DEC852F
BE6DF472
BEE82187
BDE7DA47
BE434AB7
3DC8F82F
3D9B510A
3C2C2FB4
3E5DF1F5
3D7F9D95
BE5B1F68
BE633A5B
BCF4C199
3A319FED
3E271EEC
3EABAE6C
BCF34039
BE2BC2EF
BCD56DFB
BD8010CF
BDC5E08D
BE25BA9E
3BAB55AA
3B8C2C5C
BEAFDCD2
3E1A1724
BD5FD71E
3D4D2456
BD27D04E
3E7CC243
BD70D22D
BE45B149
BE035E09
BD5EEFED
BD91B2C9
BE1BA810
3E8C9767
BB6D5E01
BD708C7A
BDDF28FD
BDD7CC7D
3DDE01F9
BDB17003
BC96C5EA
BE4DE926
BE0EE2EB
3DDF405F
3E1D4F95
BCB257E1
3E0B0293
3D7145BD
3D8E4F0C
BDCCB0EF
3D3DD1E0
3CA0C882
3C1DDC88
3D5549D9
3E83161D
3E01A13A
BE60D11D
3E04573A
BDB2E945
BD25DE43
BDE5E5CB
BE6A9D62
BBE1075D
3D7E21AE
BE200B7B
BE5594CA
BD3F3408
BE3262B1
BE87B101
BC8B5A5C
BDD63FF8
BD82A361
BBFF8B6A
3C9F92DD
3B928CB1
BE7E71C0
3DC768E0
BE6035F3
BE60E41E
3D3C2136
3DA88CDC
BB7FFBF9
3DBEE57B
BCEFE33D
BE25EB53
BE17BECE
383D7B15
3D40E261
BD9982D9
3D87BC0C
3E17464C
BC481CFA
3E2B5661
3D42ECC4
3E6A8912
3E29A064
BEA87F64
3D940947
BE423209
3D1EB770
BC884787
3D0B312E
3E321C69
BD9B69C7
3CA9CD89
3DA04550
3B37718F
BE09ED47
BE314ABF
BD9FDE4C
3A84B7F1
3BD1DEF6
3E75F6F6
3DB1D8C0
BE7AFB56
BE2254BF
3D12585A
3B1AD555
BDEF3DCE
BDDFA2F0
3CFFCEA7
BB8B27E9
3E13B8B6
BE417530
BCA4129F
BE11D587
BD039744
3C95AFE5
BE8581A4
BADBA11D
3D1B30C8
3E140952
BDE73C0C
3C860456
BE87458D
3EA1B827
3E508100
3E00948F
3DD12EAC
BE4F32D9
3E219FE4
BDD4DE99
BC081393
3D0F538D
3D63D3BF
3D86B0EC
3D6E661A
BE130E80
BE12F145
3D3441C6
3E57CCD4
3DC8ADED
3E46F877
3E826784
3E6D1EF5
3E5995CD
3E86D89A
3E8A4D86
3D11FF71
3E046463
3E9EADF4
3ED18C27
3ECDF387
3E95531C
BCACAFDC
BE659CD6
BDFFCDD3
BE03B99A
BE136E86
3D6386C8
BDEBA83F
BDD576CD
3E0C4EB5
3D74874C
3C92A757
3D23E903
3E217991
3DAC08CC
3D6418B6
3DAF873C
BDE83912
BE1E5EC6
BE4FC767
3E524E31
3E2F73BA
3E2C4114
3C86555A
BE8D5F64
BE1E032E
BE1D60CE
BD8829EF
3EA1AFB3
3D9D019A
3E3DE325
BE2F8891
3D1506AD
BE56432B
3E4279DD
3DA2035C
BE52D6C5
3E4E092E
BDB9B21E
3D1C5E6D
BE08ADE8
3E9624EB
BDA448B1
BDB8AD1B
3D8F0429
BEE63088
BEA6ADA0
BE224ED9
3E6BE4EF
3E40CD2E
BDBE0FF2
3D3B795B
BE9313BB
3E1A6692
BEEA0F5E
3E2C4666
BDD3444B
BE6F4C7C
3DAA0A0E
3E630806
3E7F7CEE
BD1E8742
3E192868
BE17AE72
BD4F3C8E
3DAEDEB9
3DE4A63D
3D0E9537
3D54B9B6
3EDDEBA0
3D5073E6
BE0C5D1A
3E3BA3DF
BE8AAFD4
3D8173D1
3C6F6A31
BDFCB31C
3DA59719
3D9D176D
3DAFD0C8
BE121434
BAC9FE08
BE28FE77
BC8E257D
3DF71CB2
3E92138D
3C38ABAE
BE668D61
3DD23847
BE4E8C2D
BD7AB94F
BDCE5845
BDA80358
3D8B8A5A
3E570A3D
BDDB0FF1
3EB1D309
BE666E30
3CC39A4E
BE1D81E4
3E6882BB
3A0ACEC3
3D49BD5B
BAAF9BFE
BDA9CABC
BCD931F0
BDA210EB
BCC4DE21
BD5F1755
3D08C076
3D904318
BD906F81
BDF38200
BDBEF203
BBBBED18
BC8D631A
3E9E47F7
3C8A4C54
BE8ADD85
3DEE28B8
BC88CACF
3E924B1C
BE1DE08D
3A8D1D9C
3E7D3F0B
3DB58AA4
BD8720E0
3CEB2E97
3D4374AC
BCED9C56
3DE7BD2E
BC12BCAC
3D54348D
BD088F7B
3C4383A3
3DDD94D1
3CFE49DD
BE2681E6
BDBC2175
3DB4A554
BD3ADDA7
3BC70B93
3CA42AC7
3E3EFB1D
3E5E0689
3E6DCB51
3E16B7BE
3E4AF973
3E42FE03
3D876EAA
3CB13309
3D642871
BD6731C5
BD9807F5
BE06F5B0
3CDAF81E
3E513257
3DFC986C
3DDDF87C
3CBF0854
BD78F5CD
3D156A45
3E07D963
3E177100
3E1B6D4B
3CE957D8
BADFFC43
3D9A9009
BD04AF95
B83DBDF4
3D31BCA6
BDBEF6CA
3D68A30A
3D3E75F5
BE43404F
BD06609D
3DD6177F
3D91DE3D
BE74026D
BDC590B9
BDD79FA9
3DB9ECFC
BD17AD7B
3D9AE529
3E14E259
3E0FD5C5
3E59CCB8
3E838F5F
3DF9295A
BE668CE2
3E0117A1
3CCDE3D3
BDD08023
3D3C4312
BCF72734
BE2C72A6
BB87EBD4
3D6C3392
3CBB186F
3DF0588D
BCEA518D
3DF2F258
BD7510E1
BCF86577
3E1772AE
3CA91ED2
3E30D116
3E4E3A2D
3DB9C30E
BE168E1D
3DF7BD56
3E2F1774
3DFBCDFF
BD00F1DD
3E3D79C3
BE45EF63
3D3D4944
BD8CC583
BD9CD75F
3DA3A5D5
BDA77C2B
3C6F3EFD
3E2D311F
3D951D8A
3E1A7D7B
BE0D09B9
BD1DC860
BE2AF8E6
3E10870E
BC72D0C2
3D5034C6
3E7051CA
BE50A102
BD596D0C
3DFE2BA7
3E492832
3CFCA8CD
BE85F828
BD7B1677
BD379731
BDC89E95
BE9F94FB
3D8653FB
3D181EF0
BC68D79A
BD65CB1E
3E4D65DE
BD0A4F21
3EA1C9D6
3E4D59A0
BDF20FB2
3EDC643B
3CD79045
3E3CF5C6
3D0A1367
BE0EADEA
3D0DD92F
BDE232D3
BE14A694
BA525C3D
BD738D9C
BDF20C65
3D284114
3D6750C2
3E845EAC
3BB71062
BE59E9BD
BE60F65D
3D78AC82
3E85163D
3D306C31
BC32B783
3DF039E2
BC33BFB6
3DEDD3D6
BBDD6CD8
3E720A09
BD08BC8A
3BBFF39E
BD10CD38
3E20EAEF
3E04D643
BCAE8732
3CD07294
3AC62228
3DF19653
3E7E61E4
3E327272
3DFDD9D0
BC289A33
3E187754
3DEE70A6
3DEEB5B3
3D4D201C
3E840AF2
3CB78CFF
3DCF5D00
3E3F4D16
3DBBED0A
3D579825
3DD19462
3E9FCD65
BDEA9BEB
BE57690F
BC2284FB
BB991E1F
3C380F46
3D16B16D
BD4CFBB9
3DEF60B9
3E9A1AEE
3E35FF53
3D5F5A33
BC9E4C5C
3A85E9CB
3D0C2FAE
3D3A57F0
BD794E90
BE3FF3C2
BEAB129E
BE4855EE
BE058B7C
BD8824F0
3CCE6F6A
BB0FB464
BDB27A28
BE11CC96
3D77388E
3E20D4A0
BE2947E4
BE40992C
3E64332F
BD99709B
3B26F4EE
3D8F3F5E
3D1B7F1F
3E81184C
3E80A56A
BD2269BD
BE4A28D6
3E157A43
3E730E4A
3E859EE2
BDC636CF
BC038BC3
3C9302AC
BE479599
3BDEA645
BCC43472
3CCB962B
BD99CCF8
3B3E29FF
BDEC9C40
BD70483D
3CBE1717
BDDCE2C5
BE15CBBC
3E169630
3E29DECE
3D8BCD8D
BBB68836
3D9091AF
BE290866
BD152152
BC9CC9C5
3E2EDEFC
BC5F8AAA
3C9F7E20
BE93E381
BE267F5B
BD7E647A
3CAB962B
3DCF3BF8
BD4AE27C
3E90E6A6
BC7B298C
3D21DDE9
BD2C226B
BD68B893
BE29EBF0
3E262F7B
3D0E2646
3AAE4429
3DC3C47A
3E0C7878
BDC9BEFE
3D6EEE2A
3E384F32
3E21A9D4
BD32FC9F
3DC9B71B
3E6CC55B
BD1B6F1F
3DF2EF76
BDD1E38D
BD7762B0
BE2836FF
BC9C416F
3E0DAEB1
3EB9678B
BE1D5B39
3E815D01
BDEA039C
BE495DF6
3E1AE53D
3D9EE9BB
3D9AAA2C
BD3400A3
BDEF0ED4
BE104BA1
3E1B7041
3CB6E63B
3E581DE9
3E04FC9D
3E06AC43
BDAF8AE0
3DA15A48
3DE5911F
BE95ED5E
BE1AB727
BC8D29B4
BE420CAE
BE43165D
3D28C2DD
3EC44135
3CF37B58
BDA3F426
BD89EC59
3C748131
3B9B1680
BD621165
3E8B7550
BE042990
BE50C3C5
BDC53D6F
BE4CC50A
BE49C83C
3D700172
BEE08DE9
3D9BABA9
3E61F3C0
BE54070A
BDF51C6A
3C4420EC
BE350983
BD9A3B30
3E2DE63D
3D92BA3B
BE318322
3E02F930
BCB81576
3DA9AD45
3D0C4520
3E6A7371
BDEF5192
3D6F1BB7
3DBBA9E9
B9F630F4
BCED8B54
BE6EA041
BE82965C
BD790FD9
3BF71933
3C5D74E6
BDEACA00
BE05BD5F
BC8682C1
3E8729DE
3DE47E14
3D06A0E4
3C20055A
3E0DA357
3E8C6B48
3DD2F4F8
3D98E1FB
3DBFC3C9
3D505DF7
3E1DB7F8
3E6A082C
3E570F46
3DE36347
3DB66BD6
BE53FC9B
3E0D361A
BD3B8712
BE011D8E
BD259058
3D97DC92
3CD14D15
3D4DAA88
BD3D9275
BE5463F1
BCF47FFA
3DC82C99
BE0B33D4
3E8C3386
BE0948F7
3EA1C0DF
BE271C4D
3E66E9DD
BBE82E6C
3E03645A
3D8711A7
3E2E1247
3DDB9C08
BE735349
3DE71A63
BD39A7A7
3EBE35BF
3D6FCDEE
3B788596
3DDA75C0
BDF3F268
BE77B572
BD846405
3CDF4708
BD090F20
BE804CDC
3E3CE2A3
BD599D12
3C428D64
BE8C08D6
BBDE7993
BA0E4C22
BD01B346
BCE8D013
BB8D1A36
BDFB601B
3D454742
BDF8C36E
3E2E0A71
3E599037
BE27664E
BDC55851
BE3397E4
BD3F2A2F
BE4CD2E2
3DAA02ED
3DDC37F4
BE8243BF
BE79E07C
BDD608B6
BDDBD083
BDCB5B4E
3D1F5D63
3EA314E2
BE4AC7CD
3EA157B6
3E82F8D9
BDE2BD21
3E4ACC13
3D148909
BD926528
3E80BB32
BE0A2EFF
3D658E47
3EB81553
BE3B1A09
3E2778F8
BD77CC6D
3E5118A0
BE1FE19E
BD867CB5
3D4C6A19
BE4C0FCB
3DAB7151
BEAE070F
BE15F959
BE1FBC4A
BDEFF858
BDE675B6
3C341F4C
BD288BE5
BE091B24
BD90D746
BE41ED54
BE04D431
3DA73B70
BE0A5A47
3D5404B2
3DEB3D23
BDDFB3AA
3E09F7AF
3E427745
BE02B933
BE02C7F5
BE98FF22
3E275467
3DE59DDC
BC948A10
BD865F65
3E404175
3EBF1E26
BE3567AD
3E8A9213
BEA1AAC9
3D85C74A
BD5553F5
BDFDA895
BE98AEBB
3C5E6BBB
BD0B1F9E
3DF5C1AB
BD98CF18
3DF7DBE7
BDA91567
BCC9B312
BDA95205
BE01C10D
BDA2168F
BDE425AF
3E0DA5B9
3D970A6C
3DA1FB9A
BD6F5ACF
BE34338D
BE66EB19
BE08B1BC
BDC9B8DD
BCA42B28
3DBC8B75
BE143D33
BDDFFB12
BD648093
BEA43F92
BDAA3D82
BE03F006
BD896C77
BD5D3708
3CAFA02C
3D738D5B
3D337733
3BD11992
BD3F60FC
BE0802E9
BE700B1D
BE465BA0
BDD1A55F
BE09529D
3D88AA9E
BE89A533
BE035B19
3D87D13C
3E08E94F
BE9B402D
3CA84407
3E804DC4
3CBBB36A
BE164C6C
3CABC86B
BDECC5AB
3E1D0B2A
BDF92070
BD2657D0
BDC6A6A1
BDA38FAF
BE18C03B
BD2E0615
3E0149B3
3DE3BCAB
BE71D997
BD618FFD
3DB607C7
BD4FAAC6
3E324FD8
3DD5F4A1
3DD00615
BBD56DB9
BD8395F4
3E3C8EDB
3EA68EEA
BE5C1023
BE3ED93F
3DEAB3FB
3DAE9EEC
BE2BA23F
3DACF97E
BD16F545
BE1F615A
BDCB6F5F
BE18FB44
BDC15239
BD20A735
BDBC1F06
3D3DCD08
BE4B1D56
3C30C174
3C12F8F6
3D21DA38
BD958826
BEC58B17
3DB9B024
BD188C76
3E924A0D
3EAF200A
BC078E10
BDD4C81C
BDE41D59
BC949218
3DC48156
3CB432D8
3E28C61A
3DC3AB15
3E60B963
3DDC4985
BE61AC65
3D0769F2
BD9384C9
3DC95D34
3D58A13F
3DABC6C9
3D7EDA46
3E99F418
3E35594F
BDFE60DE
BE3E2443
BDA361EA
BE0801A7
BE4FDE00
BC1C1D0E
3D29AFBC
BD6D96B4
BD7ACCED
BE489297
3E2C93C2
BD309FDE
BDE0BD5F
BC78BA11
BE4F3A36
BE32F789
BE52A5E8
BC70DC77
3C8D041F
3E01FF49
3D9E3106
3DAACB36
3DE0A295
BDC6F5AD
B9F0C031
3E7F18A2
BDD19843
BCC5E88D
BD613E23
BC89EBFD
3ECDAB66
3E17FD90
3DFC8989
3E551513
BDD54BDC
BD965AF0
BD5ABC2C
3D935A4A
3E11ABCB
3B63CDF5
3A2793D1
BE57F2FF
BD9325FC
BC01B4F4
3DDFBF4E
3DD65BCF
BE240351
BE445720
BCB787EC
3D06123B
BE1179C7
BE113FD8
BE114941
3E34B557
BDDB2F4B
BD5451D7
3E4300AF
3E39186A
BE17B932
BCC65A0C
3E0BB95E
3E330193
3E145169
3C6D2C94
3E373C7E
3ED0AD25
3E85A976
BE199D88
3DA3819F
3E80A45A
3E8D7F34
3E8FAF0D
3E7B064B
3E613745
3DAB22FC
3E212E3A
3D4A1169
3E1475D2
3E93E0FA
3EEB29E1
3DF9BB78
3E2EFA54
3D790FD4
BD67530B
BE81D074
BE085B1F
BEA1E3EE
3D7C5688
3E5615A9
BD547EF5
BE3E6F72
3E598B50
3D91FF4C
3E8D9B58
BD9D8A20
3D9D809F
3DDD2EF2
BDB6B74A
BDA7735D
3E0A2AB2
BE735A1A
3DBBCA35
BB2BF0B8
BDF329D1
3E65FD41
3DE66582
3CFDAE6C
3E09B8D2
3EB73B1B
BDCFFE0F
BD827226
BE8408F0
3E2795C7
3E6A1B05
BDB773AD
BEB89D24
3D27A444
BE074F14
3CF83CD8
BDD45F5B
BDB3EEC0
BE28818D
BE60ACFD
BBA47BC2
BE41B9C4
3DA45FFF
BD21F911
BE261EDC
BD6EE43C
3C9F8B86
BD4D75A2
BCC34E99
BD7855FD
3CC857EE
3EB0E3E8
3E17D0DE
3E9D2465
BEC748A1
3DD1C4EF
3E4D771D
BE26A27C
3DC7E196
BD2ABE35
BC897F96
BE2B5300
3DE314BD
3E5353DD
BE589AA4
3E29C82F
3E9A8FDF
3D8FA0EC
BE12B672
BE0F25E5
3EBC2D71
BD9B4B92
BE46B972
BE1C106C
3DB87324
3D39FCAB
3CF151ED
BD5C7790
3CD4B5BA
BE7CF539
3DAACFEA
BE187D98
BC99ED9D
BDD72870
BE0AE4B7
3D2A7628
BE942EC1
BD3CACEF
BDFC972A
BE7AF26D
BEB14131
BE8ADCAB
BDD8F52F
BD161E0F
BCC8A424
3E856D8C
3DA4B730
3E22B72E
3ECE686E
BDC1D9C0
3D1E2F38
BE853752
3E1EE43B
3DC62F09
BE83C16D
3D53A6C6
3E0F42F1
BD8B0D28
BE8A68FF
BEB72C84
BE8A160E
3E1B20E7
BCFB2479
BBB9FD87
3E55ED29
BE1BBD96
BCB34D7A
3EA71678
BD3A1017
BDE87E46
BE73493F
BD72C74D
3DC8DA5C
BEABA9C8
3CFC79EE
3DCB3372
BD957AB1
BD3C8834
3C522FA3
BDA4FE85
3E016356
3E024060
BD6860F5
BDAA6620
3D01B061
3D4783CD
BC964373
BE26CA68
BCD697E7
3D14C036
3E8FCDBC
3E1BB19B
BB72CBE5
BEC5680B
BEFC39A2
BE2C5B01
BD1D1067
BDAF43E5
BB9626C4
3D554798
3E00CD7F
BDD46C69
3DA36814
BDD01902
BD133F25
3E2645A2
3E54CA3B
BE1BE4AC
3E82A487
BE7B11E8
BD2F53E8
BE28022D
BC0050F0
BDCBD31A
3D85E198
BD2A9BD5
BCF724AF
BD35ADE2
BDCFC57D
BDC36294
3DBE41F6
3C526390
3D045CF1
3CA94AF2
BE36F80C
BE328998
3E0E6DE6
3E141538
3D8F0C36
3E119151
BDF67CFF
BDA5997A
BE341180
3C912D09
3E150FEF
3DD5402B
3E40F3CB
3DE57CE2
BD0898D0
3D30DFA1
3DD503C6
BE7D91E1
3DDF5BCB
3E97AD70
BDB49823
BE4AFCA6
BE422CD9
BD110206
BE78D1FA
BDC82CC8
BD0C531A
3BABCE09
BD3D777D
BD8DB180
3DD77341
BDEAB05D
3CEF5EE3
3E1337C3
BE22E408
3E7AB778
3DCF8AAA
3E739354
BD08D4D3
3D85ADE7
3E274843
BC7BE33B
BE46F1EA
BDD8C452
3E1D8CD9
3D57F1D4
BE2C6830
3DD3E89B
3B92F73C
3BE15957
BC33A8E4
3DB997BA
BCF6A2B4
BD43894F
3E35FBD0
3D884BD4
BDD950EF
3D835886
BC244D52
BD7E37E4
BD10A3CC
3D4B49FE
3E145F18
3C3BAE97
3DE66FBB
3BFB4503
BE3A1A93
BE56CFCF
BD948167
3D8AFD1C
3D9329B3
3E0EB19C
BE05A13E
3DAA430B
3D7613B0
BE2A6571
3E03A2D9
BB634E10
3DCBF617
BD8AB3A0
3D18549D
3DE6D52F
BE8B727F
BE373DDB
3BAC146C
3D076C86
BE11A805
BD47DE8C
BD8DCEFC
BD8AE4D3
BCDB4FB2
3D058F10
BD9BF873
3E96F6E1
3E164614
3E068B56
3E7A9960
3DE0AA22
3E6EE6B1
3E95204E
BD70014A
3DD685DB
BD162AE2
39BB9B2B
BDFF5954
3B929BCC
3E282350
3CE35844
BE29C242
3E05929D
BD1924DA
3E597241
3EB3D454
3EB73813
3E93035C
3EAB1EE9
3E20677F
BC35DB84
BE44CB3A
BE327371
BE082009
BC17034D
3E37850E
3EA488B2
3E90DC95
BD49C53E
BCB1D977
BCEA7FF6
BDD476E5
BDB4ACAD
BDED373B
BECF68D9
BF1D15F9
BE62E035
BE1675F2
BE7D799B
3DFD8C0F
3E0B6325
BCCAFBED
3CDF207C
3E65FD3A
3E253F41
BE86DA1C
3DEE2AA8
3E3C5C36
3D333DB2
BDD5FD63
BDA0A608
BDC90236
3E347673
3C9B0199
BD37D1C6
3E1BAE4E
3E0F962C
BD6FB196
BDB1E8BA
3D06C11A
3D004217
3E03C3E1
BE149B12
BD1C3634
3E45509B
BD63A65B
BE106501
3D9C95EE
3DC8159C
BD36338E
BE250D4A
BCE34B74
3E42939B
3EBEB4AD
BE867B8B
BDF566DD
BDCDC593
3E34312A
BD77BB6B
3DDC46A2
BE10EBAB
BE0A39D9
3E55D518
3E5DB63D
3C2E03DF
3D8EB29B
3D8865F0
3DFE505B
3C6CBEC5
3E4BE8BC
3E69EEFB
3D14CC8B
BE1D80A1
3D52257C
3D0C6FB0
3C6B42DA
BDC10FD1
BE2CF67B
3E76CC23
3CF1E992
BD31E078
3CA2E558
3CF51F8C
3E50032C
BDBFB7F6
3D4C4E0A
BE1A424A
BEACDADD
BE5CA9F6
3CCAFCE9
BE184274
BA9DCBA5
3D42DCF7
3E79A466
BD3288FC
3CD6E295
3E671591
3C77E4F4
3E2AF725
BD09B911
3DFA6CFE
BE3A4D5A
3D1EB68F
BE0443AC
3E8241B7
3D41AF65
3E21061E
3E25A4F7
3D98AD0B
BD6C4DDF
BC3F05CF
BDF650A4
BCA8CE70
BD44A8EC
BD0765CD
BD8EE8AE
BC379832
3D83DBEE
BC6B0F0D
BE673428
BD894AC5
3DBB6FC8
BE2D2F57
BD594680
3CE1DB8D
3D6ADD71
3CDB76C9
BE0F9CBA
3DA5D6E8
3E12F266
BBA56DB6
3D2E1C40
3D78BDA9
BE5A53CD
BDA090D7
3DD93533
3D7BB494
BDBC2F77
3D904317
BD996A48
3D9DE46E
3E7A80A7
BD412A3F
3E50EBF5
3C9BEB08
3E339F85
BE85BE7F
3E382C4D
BEC7E470
3CF50BD0
3E8B181F
3F051DE3
3EED5BD3
3F2D4FD5
3F10FA7B
3F2E5EE0
3F12AF0E
3ED55D16
3DFA1D9E
3E764E4F
3E669ACD
3D2AA703
BD4097A0
BDB38E8D
BDB9CFE1
BDDE3A2D
3D211F3A
3D60E5D1
3E16CD4B
3E3275B2
3E539E2E
3DCDEA54
BDD36827
BE617482
BD66D059
BE325CD8
3DC6A5DF
BE05CCB4
BD2A9316
BDF631D0
3CF6B67B
BB402F8A
3E534E0B
3B749869
BBB84ECB
BE2C2A1D
BCA0D045
BDDE373E
3DD3C064
3DDEA77E
BD662886
BC5BE315
3E47BE48
3D0844A0
BD66D940
BE8DFA66
3E27B481
BBE28BE0
BD4D3471
BD15834A
BDAEFA01
BDBBBB35
BD5C7039
BDABBDC6
BD64FED0
3EA5A1B7
BC790D5D
BE2DCB29
3E7033FC
BD572162
3D154A32
BE6B9805
BE38FA31
3D7E82DD
3D52D768
3E6BE77A
3D44547E
3E191453
3C321241
3C122DC1
BC3597FD
BE0E886D
3DDF9519
3E00BB54
BD0DE655
3DFD3FE2
3D4F96B1
BD66AC47
BE1041E7
BE19A565
BE54669E
3E8F897F
BE92C8CC
BEC2B471
3E356990
3E000424
3D564ED9
BD2A9F63
3D8DAF74
BE4D483E
BD500A31
3E0A7371
BD07234D
BDD156BA
BE08255B
3E4C62F2
3E0A37DB
3DFF5E27
BDA1B82F
BE27D403
BC0984FE
BD890D25
3DEDD096
3CC39632
BD69B55B
BD5E3065
3DDC106C
BE1363F5
3DBEEAE9
BDC4ABC2
BDA9A7E7
3E2E91B5
3CB01064
BCBCF829
BCDE741F
3E5E38E4
3DB89F89
BD972515
3DBCAA8E
3E0417D1
BE1D6CEB
3DD30779
BE470486
BD8E0776
BC7AD330
BDE04585
3D06CA14
BE0B8598
3DCF9061
BE6F2680
BD3CCEF6
BD721C2A
BE830EF9
BE812CBB
3E5B8690
3D9AE160
3EBF3842
BD8766F0
BEACC801
BE002D38
BE824FF3
BE5FEDD5
3E15E5F3
3D28E07C
BD861B0E
3E0C5BCA
3CDB7019
3E301381
BDEAD935
BD7F3532
3E2CAAB9
3E3A2700
BE208030
3D5D1783
3DBCB78E
BD8E4B79
3D8B00FD
BDCCF28C
BDB6206E
3D78EEC1
3D6DA5D0
BD7CAF5B
BE8FDD08
BCDA3FE2
3DA6799D
3E5110AF
BD71061A
BD5AABB8
3D7E5DEF
3CD3B0F2
3DA416FF
3DD2612C
3DEEFAE8
3CDC822C
3E266660
3E29183B
3ED07AEF
3EF47B35
3D85B40E
3DB3E45E
3D1E17E9
3E2E1ED6
3E0CAC08
BE262FB7
BD095564
3DB1C7BF
BE25B9FD
3E4CD8CE
3CE13FB6
3DBEB39F
BD7A5FEB
3D37C3BC
3D96C4A5
3DCCCDE7
3D32512B
3F00C74A
3D67479A
3C97CD67
3D5C8727
3E8350F7
3D4FAE87
3DB8286C
BD70D9ED
BE1BA40E
BCD2076A
3DFF5BD8
3E766637
3D6A1773
3E557364
BDDD58C9
BE0DC9A3
BE46C52A
3CC3D0DA
BE1ED9CC
BD12600F
BDC0B42D
3C3F6505
3DA78C2E
BD463A5C
3D45C506
3DE2DB39
3D060A73
BE732075
3E27AB68
3DD5D3EA
BCDF6FB2
3E5CD185
BE260E59
3C033D0B
BDB82D69
3DF06713
BE284B43
BDF39DCA
3D7E38A0
3E1E5E75
BD4AA44E
3E184CB4
BDD7679E
BE2B7F89
BC240070
BDEDE177
BE5A23FC
3DBAD2C1
3E7E194E
3DF2D3C8
BC925B21
BD5D0389
3DA0ED95
3DB06BE7
3E38F4A2
BBE7A22E
3D3B4995
BE2E748E
BD30CEDA
BE0FCAC2
BE006CB6
3E710463
3D886AA8
3E0F5B37
BD3115A7
3DD94E0D
BC0BF43D
BD3881AF
BDFB3588
BDE8FE19
3B3290E1
3E3E4DA7
3E3C71A7
BC3D7DFA
BDD18E68
BC8C01EC
BD921508
BE3F493C
BDE378AB
BE569630
3B7D4326
BE8C368D
3E47CA9A
3E87AA70
BE20EDE5
BD1295AF
BCB8A7B7
BE8DC2D2
3E3F7631
BE78D07C
3E225DC3
BDF47779
3D962122
BD908927
3E1B9424
3DF4E0DB
BD869869
BCD09691
3DB200E8
BD9267B8
BDE0EF9A
BDE16EF3
BE33F8B3
BDFB540C
3D9373DB
BBB4DE46
3E17252A
BE31DFAC
BD678B72
BE84B567
BD921D70
BD2A1001
BD5D41F0
BDD66D95
3E426209
3E2CA721
BD28CBD4
BDD4671D
BE44742B
BE19741D
BE3D53CE
BE1E0AC1
BE16887B
BDD96562
3D28D821
3D6075CC
3E6B2EAA
3E98CCA8
3DA6FE0C
BE61EA36
BE18C466
BD51C773
3D15A30D
BD8D86C1
3D063AC2
3DCA1632
3DDDD2AF
3DF4F144
BD696483
3CC31C14
3E9367F8
3E402CAB
BDAC4C0C
3D8A5ED1
BE0B7147
BDD22340
BDA46F5E
3DC701B8
3E0AA06D
3D627A2E
BE5748A8
BE733065
3D888EB9
3CF38C5F
3D336AB3
BD3E8E89
3E6631A8
3DFA0A1D
3DB2D2BB
BDC7038E
3E2DC8C6
BCFD0C35
3E4A3642
BD502DB5
BBBD7B04
3E082306
3E0A256D
3E0AB8BA
BE04C9AE
3EAC5348
BD8F5583
BC7346FF
3E46EBFD
BD4C03DF
3E5EF4B1
BD97A129
BD86E0B3
BDA04FFE
BC343D6A
3E73A0E8
BD7228CC
3DEE6D74
BDE76493
3CC4AC1C
3E289099
BE562146
BDC97D2F
3DB8F88D
BE0434EA
3CD2AC45
3C431350
BCB0CC36
3D15DFF6
3E1DD90D
3D519ABA
3D9B929B
BBB39179
3E649907
3CD573AA
BD93875F
BD7C8F38
BC1EA882
BE598407
3E50AAC3
BE84DD90
BE627108
BE06E782
3E101210
BD7D7356
BE679915
3D81AC3A
BC3B01A9
BD6F4882
3DBE7636
BDC630E1
BB300364
BD104FDF
BD237BD6
3C325410
3D92478A
3D74E032
BD790062
3DD84AD8
3D95762A
3C338D0B
BDB1AE22
3D634E81
3D857928
BDE477E4
BDA98533
3BC29913
BEB32827
BE3166BE
BEEB269B
3E1D5DE6
BE15F06F
BE70BF64
BD5A00AA
3E49E5F0
3D407DB7
3E3F0098
BEBB7DB4
3E6C6F87
3E4DB8BB
3DD56324
3DCD8707
BE1DBA9E
3A5C52A7
BE4B0FF1
3E18711D
3E464254
BE88DEB1
BE681755
BDE9B520
3E0D34CB
3DE4CB19
BCA337C8
BD389456
3E05278E
3D5CC601
BDFF6845
3E931C00
3DBA805F
3B00093A
BE0A5397
BDBCECDB
BD329259
BD4CDA41
3DD3B363
3D62F6D5
3E31F2F7
BE65AEB1
BE783035
BE4B0D01
BAAB39E6
3D4C0A52
3DC398F7
3CD89085
3D99C012
3C08757B
BE62AFA8
BE7D2CB8
BD39CCF0
3E84B3BA
3EAC338A
3EADD68C
3E53C57A
3E8459C2
BCFB4DEA
BE4A4AFE
BD2B1189
BE1BC86A
BDDED0F6
3E54FC61
BD7238E0
3E54A7AE
3DBC921F
BE818F2B
3D8BCD5D
3E85D0A6
BDE3AE0A
BCFC49D3
BE790E16
BE2621BF
BE255707
BE2AB08C
3D42D3E0
3E168394
3DF12D27
3D4838A4
3CC05F3B
BB78E385
BE3FBDF1
BD5CDDEF
3E162542
BDCB4257
BE16F142
BE5417B6
3CF6C320
BD96145C
3D2714BF
BD348B05
3D9983A3
3E940BCF
3E8E3A2A
3C1854B3
BD966159
BE0CBC50
BE4574FE
3EA50B56
BDB26619
BDC94D2F
BDC11589
BC91E951
BE212514
BDB62216
3D9AFBAA
BE000545
3CA16992
BE090294
BCCDAC4B
BC007AF0
BDDF9F60
BE3BE5E1
BE64A65F
BE321ADD
BD8D4180
3D35CC83
BC62AD5F
BE42010B
3E1133A7
BDD75AAA
3D899786
BC6B70E7
BE43F9DA
3C90A620
3E44C533
3D9DD325
3E419AA6
BD3E3D52
BD17D282
BDE09A5A
3AACFFF5
3D509277
BDB3C265
BDC1F5BC
BB866537
3D6450E5
BE906508
BD1F262B
3E48CC80
BD070A0D
BE8BD245
3D184CAB
3B9B2A1B
BB2854D1
BE0BCBCB
3B758A35
3E2A42D7
BDC80CA7
3D576252
BD72F934
BE78318C
BDA8FFBE
BE4DCAD8
BD951A50
BBA22FA4
3D0966E1
3AC3334F
3DDB0948
BE403E35
BE815C82
3D91D3FC
BE3AA540
3E00D5DB
BD91E967
3D092D20
BD5315C7
BCEB4F3F
BE50F1EF
3D5E5F7F
BB97D251
3E3AB20B
3D9FE854
BE199AB3
BE07275D
BDB3C65F
3E5EA60C
3D0E1740
3DEBF734
BE90BB0A
3EC73248
BD53BB99
BD56725D
3D5BF1C9
BD399129
BDB80AF4
3E8276D6
BD5A375C
3DDCF9D6
BD9622B2
BD23FE62
BE2D2FA1
BE06C9F6
3D4C51EE
3D6DD982
3DF812BE
3E55C7E2
BD706FED
3DD8740D
3E3C1666
3D5E2392
BCF526B8
3E3181DA
3E6E0D8F
3E6C05D5
3E802F33
3D856780
3D876FDC
3E38ACF6
BBEA9CBD
BDE916D8
BD705ABE
3E30BD5F
3BA1524F
BE5207DC
BDAB9BC6
BD8E5E82
3D0DACD9
3DCD74F0
3D0761BC
BD825CFA
BD09A6E0
3D4A2C51
3E05D738
3E1B0044
BD3D13A2
3D59B368
3E1B8BCE
3DBF2661
3D6307A7
3E63F819
BC939DC7
3E31C1C9
3E566122
BE590AB5
3D63BEEA
BC718904
3D129729
BE0D5FD6
BD957ACC
3BF0AAA0
3D541239
BE04A941
3E6EFE0D
BD1DCAB6
3E8A5D8A
3D4A06AA
3E8A7F2C
3DDAC71E
BD104EBA
BD05A353
3CA5E5A3
BE82DC3F
BE6FA3B3
3B7EE466
BDC3B56B
BDDBFA32
BC6560B8
BDCDF663
BCB56456
3DF88D95
3DA008F7
3C03C019
BE5FDA18
BE28B3E2
BE09A085
BDF19539
BCC03CC1
BDF9DB15
3E461F92
3DCCD15C
BD765679
BCD5EFC1
BD7DB17C
BE494F05
3DAAD0F3
3CD9C8E9
3E23C474
3D5E30F8
BDEFF4D5
BB70078F
3DA06D4B
3C93F0F3
3D204B4F
BDC367E3
3EC68262
BD9C1AC0
BE2A8B1D
3E061050
BDCAD374
BDE8D328
3E01F355
3CFF6D89
3E21C462
BD28DF78
BE4501A6
3D5E674C
BD683D9C
BDB8FF5C
BE7AA610
3D1DA17E
3CC7D785
3E0E173C
BDE9364D
3D5F4AA9
3DA3D947
BD162D9F
3E034F8A
BCC2812F
3D4AC8EF
3D399E11
3CA46A2D
BD97CA53
3DDB8BBA
3B8E898E
BD5114EB
BE2FFFA2
3E1FFF15
3E82AC61
BD047D43
BE8DC39F
BD05BD97
BDC6D28D
BD546B75
BCA7DCF4
3D4C089D
BDB40985
3D86A527
BDE59AD2
3B83D99F
3D7961D6
3C9DD8B3
BE1DBF8C
BDCCCFF2
BE7BAAD8
BE00BD23
3C328152
BD140B25
BEAF9877
3D8BCF25
BD3F8678
BE0975F3
3E124639
BDF3E9B4
BD82F703
BE62F6E1
3D118709
BD417144
BDBCEF36
3B8C56C6
3E0020E6
3DA8CF44
BE4E5C70
BDA830CD
3EA46F0B
3F065B69
3F3DF9C3
3EF86C1F
3E0794C2
3D894F39
3E1334DA
3D395A92
3CFC07E9
BE22C995
3D2E6457
3DD5C033
3BCEF347
BC045240
BE0EEFAF
BE3FF972
BE416B62
BEAD158F
BEC6E86C
BEAF234D
BE342302
BEE847FF
BE840C70
BD62F4F5
3D1421CE
3D5B006A
BDE6CE28
3D3A5856
BE11B90F
3CD069E5
BBD649F3
3D7872B8
3E04D56D
BCF1FA08
BD501437
3E406E49
3DEF85F2
3DCB28F7
BE899E70
3C57BE02
BE49B486
3DC631AF
BE053B23
3E038200
3B39763F
3E0E1AD3
BBC539B0
BE3811D3
3DAC6587
3D81514C
3E7F587D
BE344E79
BCC19272
3C5F1026
BD9C53B7
3DEAE310
3E4E6821
3E6FD8F7
BE405D10
BB55B467
3E86E0D6
BD317093
BD5CDD26
BE09DF98
3E7D890C
BEA0F1F5
BE009C15
3E2DB666
BE2217BE
BD7B2959
BE949F2D
3DF85F65
3E117014
BDFF38EE
BE210E02
3E232046
BEA17FFD
BD660644
3E36B258
3E33A9FA
3E6B3905
3D331F14
BAD14A2C
BDCEEBA6
BD901097
3C17654B
3CFC1E49
BE793349
BE7C1836
BD9DE3AD
3E3AEA02
BDD1BD2C
3E1DC6C8
3DB44425
3E48DC3A
3DCF6FD2
BDDA0AA3
BD7BFA82
BB7DBE0B
3E8ABBD2
BDFE1F48
BE2E4C29
BE35CADF
3D15433B
3E019E73
3D6BF8B7
3DA0B753
BDA19650
3DC89BF8
3DDB04E1
BD98E6B7
3D8D02CC
BE944791
BE57E1EF
BE355D4B
BE1FAA04
BD11CBFD
BC6061CA
3D8E1E8F
3E1B5C26
3E45417B
3E004B21
BE5E01A8
BDAE94B5
BD5BBEBD
BCFCB68F
BD43B7E0
BE0BCFE9
3D36CDB5
BE02EAC5
3E088DBE
BE15E885
BD737B78
3E4FD5C5
BDB96CD7
BD69E0E7
3D1EBBB2
BD1C4E80
BC6F9CE6
3CD57502
BDFC888A
BD965E78
3E0B7791
3E090767
3E222827
BDB836EE
BD213959
BD65A8CC
BD391A08
BE20A281
BC067EF5
BE582A42
BE25C9C5
BD421D8C
3DF86298
BE88E403
BE8BD48D
BEC704C0
BE37A16B
BD0FC111
BDA339AE
BDF5F535
BE0586D8
BE1F0776
BDE9E9A9
BD7E7B66
3DC8C28C
3E788DB0
3E0B4967
BBF0B3CC
3C97DBA9
BD44FBAD
3E257FF3
3E84BF5A
3EB8EEA1
3EC8FF00
3EBE5CA6
3E971CDE
3DF71C8A
3D2BB44E
BCDABADC
3D91616C
BD8C1208
BD7D824F
BE8F3F67
BD4434F9
3D93CD88
3CEEBCA1
3DD3BD82
BD06B7BA
3D457E19
3D8E6542
3B9FEFD7
BDE42932
BE2A4272
BDC3F673
BD82332F
BBC6C32A
3E4F21E9
BDA2779D
3DCA860C
3D26D300
BD744943
3DAA0A5E
BD6E672E
39A2ACF1
3C8E35D8
3E0FDD01
3D7820F9
BD439F24
BD9A989A
BDF7645D
BD94743D
BB10F335
BE170ECD
BE2C76C4
3D928CCA
3DC8B393
BE2C1EA2
BE08B40A
BD4A0AD9
3D32D793
BD8301A5
3DAA2281
BDC15B6F
BD09D46D
3D450F69
BEA9D283
BE15B3FC
BE0706E9
3E110C0B
BD59A1CA
BD17D90A
BE05333F
3E0B86FB
3E21AF41
BCF7FF45
BD9ED87E
3D1E8C98
BDC543DE
BE03BFAF
3E010AA7
BE06CD3D
BD7E7356
BE04D998
3D80082C
3D4E76DB
BDAA54BB
3D275AF3
3D990D08
BC5D8826
3E180A47
BC2D8798
3DBAF324
BC965DE0
BD2BE90F
3D6DA999
3DA96893
BDB7632D
3D016F1B
3CFFE93A
3D9F9F33
BDED8757
BD155582
3DE747D8
BD81F98B
BDF9543D
3D51C609
BD8ED698
3DF005D2
3DD91B67
3D85B826
3E345DCF
BE8BB9A4
3D7D3EB8
3D27A74C
BDEE2428
3CF0A27A
BC89A109
3E5E6F5E
BCE9A7FA
3E09E896
3E12A45C
BDAC6A82
BE9EFE43
3E0C0A2F
BDAEB904
BD3D83EA
BDC75EEE
BDBEE173
3DFD7435
BDF787E9
BD8D2F68
BE17633D
BC1BB2E9
BE02C274
3E0C1935
3D9056FD
3D59E407
3D657103
3E53D3D1
BE6F742C
3D6943A9
BC9655D2
BE0EFD29
BE4EC5B7
BE15D48B
BD36F79B
3E0DC89E
3E41E1ED
3D43341F
3D15F298
3C799BD8
BDBE1616
BE3747DF
BE973FAE
BEB72F5F
BEB81EA2
BE5F6EE1
BC01A92B
3CD2E5CB
3E76222A
3E45A617
3D896501
BE3E6927
BE3EC50F
BD3B9418
BD43B1B3
3D3D528C
3BB6D9A6
3E10C6B5
3E1F8D28
3E1581B5
3DDFAC45
3D30BE09
3E516B41
3E72AC03
3E3B7D92
3DD5D4CE
3DB1DEE2
BD3F8259
BE389734
BD0C45E1
3DBB5E57
BE0FAE9B
3D7081D0
3D878D64
3E150863
3DCA9C30
BDFD6D7F
3DB437F2
3BB38B21
3D34AF62
BCE459CC
BCDFB78B
BDA58EF6
BDD4217D
BDD6DF32
BDB0DE7F
BD03397E
3C8FCA1D
3D2D47C2
BCCEDCCD
3D2185C7
3E1A50D7
3DFFEFBF
BCD4C473
BDD855CD
3D602882
BD199E6A
BCD31185
BDF8503E
BE0A3840
3D82F90D
BDAACE9E
BD88BBA2
3E178DA7
3C309BC9
BE905BAC
BD5BB5F9
BDF63B91
3DDAF450
3CB82393
BE9B5E45
BDED5835
BE629182
BDB4508F
BE36A8AC
3CC856B6
BD03C285
3DF76FE6
BE7D7AE4
3E503955
BDE11E93
BE1C4EC3
BDEDE607
3D4F8A8F
3E334868
BE1AC351
3D4EAF00
3D1DED74
BDF6C5B7
3E08CC28
3D19B682
BD384B9E
3D85C988
3E9DF282
3E0C0A5E
BD5AC9F3
3E4EFE21
BDD0043F
BDC08CE8
3D2C5C72
3D4BE6C3
3D56AA74
BE077674
3E2390FF
BD1D628F
BB3D620B
3C11C803
BDC98322
BCBB5BAB
BD30AB74
3D799631
BB3E9A96
3DD0006B
BE652590
BE4FCDCD
3D8EBC7A
BD92DB58
3DBF3F9B
3E2E23A8
BDB499AF
BE1F87D5
3E0F6E97
BE6F8148
BD066A90
3E13F81F
3E33F88B
BDA766E3
BCC77A0D
3C47F93E
3CACD4C0
BDD6559F
BE66BB92
BE0DC2E7
3D8A0F56
BD2F6C5C
BDF43394
BD8530B0
3E31D3E0
3D88146E
BAD394F1
3CA556B1
BCA2D29E
BD9778E9
3E4AEA9D
3B145FB8
BE1FF957
BC8E1F98
3DAC6BC5
BE282AD6
BE44ED77
3DC4CF61
3D598999
3C337583
3C260D91
BDBF4911
BB90F3DB
BCCD8DF8
BE3CDA83
BDB95427
BDF4CF8D
BE0312E7
BD4A10AD
3CFBCE22
3C5161DD
3DE2D0BD
3E1AE643
3E78BD0F
3E058559
BCFD9CF4
BC80643E
BDD3DEF5
BE3161F9
BECD4182
BE91ECE9
BDC36B03
BD3C6FCD
BD846F1F
3CA24941
3D965C6B
3CFD74C5
3EA7C137
BE31B96D
BC66DE7C
BC5E05BA
3D712EC1
BE0B42B1
BD9134BA
3E1CEB64
3E339AE7
3E5B73EC
BDE9F5ED
3D967072
3DEA0DF1
BE204B2F
BD30164E
BE01FA18
BD6722B4
BDCC0292
3D00034B
BE11F582
BCDFEBF4
3E001E54
BDA9B13B
3DC71CE8
3D921AE1
BC4C8F9B
BDC39F0D
3D2B9FAC
3E86C6F6
3D76E18E
3D9C3C1F
3B44D819
BDC4FAC8
BE7FCC1F
3D463DDF
3DEF5FBA
BE08BD3E
BD9577D3
BDA79FB0
BE5CFD24
BEC73AE8
BD8141DA
BEA9D056
BD5741D3
BC965EAC
BE87BEE6
BE41A027
3E52872E
BE25E6EB
BD9516A1
BD3A2395
BDD65F88
BD7EBE82
BCDAB4ED
BBDE81D4
3DBDD197
3D86FD97
3DA7EDD8
3CF0ADED
BE5B61B4
3E0C71AE
BD2B803C
3E7BDBFF
BE0664FC
3DA1ABAD
BC06367C
BB27E6A0
3E979DBC
BD8CEE6B
3DCFCDB9
3D36384B
BDA3AA83
3E483DC3
3E331A24
BDD410EC
BD346171
BDA00B65
BDE08B40
BE9F5837
3CBA8252
3E1CBD7E
BDA50BB2
BE46E72A
3CA15657
BE776CDC
BBC0CAE3
3CA4CA1A
BDF773FD
3E0FD559
BD6A5F2C
3DF02321
3DCE0B9F
BE7AF676
BE8A0396
3DD59741
BDF68BA0
3D1B3098
BE0FDA0B
BEB76B82
3E82253B
3D9417C5
BD94AC6A
BE9275C6
BD72DDB3
3E4350ED
3A875925
BC9B46B8
BDAB6A93
3E3DF19D
3D8009CF
BD889A56
BDB6A15B
3C98787D
3E28DB4F
3E1690D7
3D31C712
BC203F15
BE012A9C
3B6AAF2D
BD34667C
3D838E60
BD4B2DF9
BD9613E5
3DE8A71E
BCC57BD5
BD897160
BDDF751E
BDFE018E
BDAEB1CF
3E0B48CD
3D968075
3E9A2698
3E3736FD
BE180ADA
BD87DB4E
BDB640EF
BD566AD1
3C366247
BD9CD881
3BA9D103
3DF41D3E
3D4BB268
3CACF2F2
3D5919C7
3E1440AF
3DDAD3DC
3D51C052
3C9416E9
BDC90359
3D09CE4A
3D632CA0
3D83C7BB
BCFBDFC5
3DED8AB2
BDFD354A
3DBECA67
BDEDE9F6
BE20317E
BE92A68C
3E43F460
3D83DE0F
3DB8F731
BD50ECBF
BD5EDEB5
3DC1266F
3DF1ACB6
BC74B47D
3D853F32
BD8674B5
BDAF5E1E
BDD1F67A
3C811722
BF04B393
BEB26AE9
3E46FF13
BDE62414
3E0A405A
3CA9B0D3
3E136F92
BE023F4D
3E279054
BDA4CDB1
3DA34C11
BC6526E1
BE0CECA0
3D291375
BE5215CE
3DB472CC
3D308CBB
BD83D19A
3DFA5C88
BE898DD8
3D46DEB1
BE467005
3EA5E2C0
BE73E30C
3CCA9D78
BE9B964E
BE31C348
BE0496A4
3E4C6717
BD0E4004
BDFB8950
BD435DE6
BE84B707
3D9A3B6F
3DE69545
3D063A9F
BD073308
3E38A867
3DA3D923
3C86E8FD
3E344C67
3D9D252D
BE98094E
BD3BF125
BD5999B7
3DC11657
BE307167
BCC64B49
3DCE29D2
BE0EAFF5
3E773AD7
BDE86C80
BD00DE31
BDA2E83B
BD92955C
BD253CD0
BDF2BCC3
3D6983BF
3D812819
BCF12F27
3DEF7E07
3D856D99
BD39A904
3E953EE9
BE52DC5A
3DB074C0
BE7473DB
3E68E5ED
3E29C927
3CD8CC04
BD02CB77
3E4E83AE
BE36E19C
BC33EF66
3C400FFB
3D104598
BD35F9BC
3D45C70C
BE0EC673
3E33CECF
3EC7A11B
3E209AED
BDE1A7D6
3DA2D56E
BC8C44DD
3DC830E2
3C0122A9
BDC2D4BB
3E5610C9
BDAF2AE9
3EA48129
BDF649FC
BE11A50E
3B86F882
BE8BEA0F
BDC6F485
3E2FF11C
3E83E8FF
BC12773D
3C4D1F0D
3CF8C2AF
3CAFCE44
BE0ADE65
BE404274
BEA6090A
3DBB38D2
3E34FE66
BE3E9B75
3E437868
BE176435
3E822E9E
BE5EA104
3D733E56
BE3D0DE4
3E36581D
BE1259FD
BD9ADB25
3D35F8E3
3D8CFB59
3E5834B8
3DF41EB6
BD1C77DB
BE96231C
BEA2B7FB
BE87DCF7
BD45DB21
BC8BF97E
BE3CAEF1
3C387862
3E1CF568
3E3D8B89
3DDA83B2
BE1D581A
3D88124A
3DB81BE6
3E82F955
3E4AC718
3E8E72AE
3E35183F
3EB563B1
BDA90D3D
3DAFD2C0
BE7308A7
3D60AE56
BE3DB00D
BD6E79B3
BE21BA86
BE46AEAC
3C1F3FBD
3DA20328
BD800D4A
3E155ABA
BD750F5C
3D96E4C4
3E369886
3C74018F
3E64276A
3D7EC65C
3DE793C3
BECB1AA6
BDE3071B
3E3598E8
BDCDA39A
BDD23359
BBC4B755
3BA93439
3E2A8834
BDA40AE6
3BDCAED5
BD82507E
3DCDB94E
BD5C8D5A
3DE17D51
BBB9AC09
BE584D55
3DFA0897
BCD03578
BE0D01F6
BDAA6212
3EE6F36F
3E53BA27
3D0504F2
3E46383D
3E019AC1
3E1F78A8
3DC04B09
BD9564B6
BE82A6A7
BCB763BF
3B83FB9E
BD98ED4E
BDC04880
BE980311
BE481747
BEBC8DC1
BE153445
BDC1F2C9
BCDE138C
3E8497D5
BC2FA29A
3E371129
3E50B165
3E2E9780
3D50BB5F
3D8D425F
BE02D1FF
3E123704
3DBCDC23
BD5CDBE9
BCE02DC3
3D144A85
3D61C80C
3E82AE62
3D04D7D1
BE9A5D98
3E9B103E
3DBE10FD
3E0E2585
BD452655
BD8BB7F7
3D601C02
BD3E8391
3C07ABF6
BE080AFC
BE5114AB
BD8E4637
BD9E8218
3D839875
BE45737F
3EA871D9
3DBCAC98
3DA39AC1
BE44C214
3DE8A4B4
BDF02C40
BEE62362
BD00E822
3E571ED8
3D09297C
3EEA7B41
BE0ECD30
3D8BA708
BCD902C6
BD7BE13A
BCD99238
BCD22262
BE9EB26F
BB868DA1
BE18AF09
BCBD9AA5
BD2EAA6D
3DFF9DF5
BEE4DDFC
3E24C6E0
3BF81968
BC3552E8
BCDA1A5D
BD7CF0F7
3DD6C4EE
3D65B21E
3C8643B1
3C003AD8
3D497544
3B34924C
BD9EAF08
BBDD20E7
3D43ADD7
BE18D8B7
BC366501
3DAA68BF
BE605590
BE1747BD
BE9AAF11
BE2ED487
BB9265C2
3E0AC22A
BD8249D2
BE67E444
BEA81CAA
BC623C8B
BDFB0037
BE061F1F
BC0BED5B
3D0DBD02
3DE65DCD
3D423FDE
BDF80F56
BE94CE2D
BE271682
BED2121C
BF1CC266
BF1B9345
BF0B9DF9
BEF463E0
BCCFD00C
BE250DD0
3E637A88
3E6A998F
BDD831D5
3E4C8DA0
3E3154F2
BE6DE574
BD1A402B
3DE3D0A5
BDAE4471
3D8A786F
3D587F4B
BDAFCD4A
BE12DC9D
BCB5C493
3CF36E92
3E2B600E
BD1310EC
BE52F2FA
BD132214
BE0981EE
BB740CDC
BE3D04CB
3DC96F87
BDB88DD9
BE3B26EF
BDBBDE5B
BE3E7693
BE06BA0D
BE3C9FD8
BBEF0564
3DDBFAFB
3D3C463F
BD296C53
3C266B64
3E8637C7
BE9CE2D2
BD360423
BE0F1DD9
3E98D4C5
3D2B966C
3D7363B5
3D96A077
BB9B87F9
3D78F369
3E6CC016
3DA09771
3EBBFB31
3DB231B1
BDAA3DDF
BD3AB24E
3DE60088
BDD474E7
3DC59A6E
3DA2E371
BD898C0C
BE61E6D4
3DB67CEC
BD803232
BE5D40A4
3E963D56
3DF99540
3E1799A2
BE3FC251
BC4D42F4
3E475163
BD949285
3E068D8A
BD8346F9
BE39DF3A
BED48352
3C08ECBE
3E018F09
BE818308
BDA1FBB2
3E0D5AF6
BDF11051
3DA5A0B0
3DE1673E
3DD05A3B
3E129F10
BE02C77C
3D9748F6
BE380409
3E6AE84E
3DF59C2F
BCBECCDA
BD8FEC78
3E46D055
3E17E586
3DE2BAD3
BB84ED3E
BDA9EF0E
3DDB7D27
BDB7FCE9
BEE87142
3E49B9BD
3D976D0C
3E95A0A7
BC63DB06
BE0E1CA9
BE4161A9
BE0151AB
3E3E6E36
3E5FD510
3E32205E
BD9F376C
3CFE12E0
3E045748
3DDA0B87
BE932181
3D4D4D89
BD180DA3
3E270711
BCCEC6FD
BEA83D79
BD669BCE
3D0EDF59
3DD81B4A
BD7752AD
BE26947C
BE7E8EA4
BC9B3083
3E439863
BE46AED5
3E995132
3DC17707
3EA87D12
BE049B34
3B930A4D
BE57ADFA
3D53A142
BE82D58D
BE3F6E6E
BE43590E
BEABBCC6
BEE913B9
BF0029CE
BECFC9F6
BE924013
BD9F3ABD
3D4E377B
3CC35A22
BE8B4D59
BDA4A382
3DD18D41
3D963D46
3E3717A3
BE38FB94
BE0D53D5
BE723C14
3C82F151
BDB5FB37
BCD22E10
BE798768
BEF6611B
BE301FAB
3E27DB4D
3D69D56C
BE902C91
BE9AD733
3E9F56EB
BD7A7349
BD9062EB
3E270260
BE4DF8B1
BDD06226
3E56D289
3CBD2C0B
3D4C5520
BDBA7023
BE2F68CC
3E0E2315
3C9530DA
3E1D036E
3D7E0EF7
BC70B2D0
3E7D5D95
BE7052F8
3E5D182B
3D6BAAB6
BD20407A
BD5B52F5
3E0CA036
3E006657
3D448B95
BEF36AFC
BDD5E149
3D9851B4
3EAF39B3
BE61528F
3D05035D
BDC90AC1
BDC7B74F
3E3D5384
3DA53ADC
BC138E93
BDCD4215
BCC4B338
3EA893C5
BE30B186
39060C4E
BC38EEF4
3E0D82F0
BE1630B7
3C3C25CB
3D8ED58A
BC4E4F64
BD0E2763
3D3B9D0F
BDB2C7D3
3E8B7D8B
3DA1DAE0
BF00B616
3E34B154
3E40D64D
BD84BB37
3D94BA1F
3D89FDBF
BD8C5C3E
BC3B2728
BDFDEF4F
3DA1E4A7
BDEDD350
3D3B14CC
3E472A25
BD71239F
BE48E172
BE2BC841
3C72353C
3E5F935E
3E18EDF9
BD8638F0
3E45195F
3D6F9529
3E3043A2
BE482583
3D8FFCFE
BED15D69
3C384846
BE6C5580
3D8028BF
BE71A976
BBFC9B94
3D854098
BE2FAC02
3B6E971E
3EC6C633
BE8085F1
BE706A32
BE606269
BE52A7E6
3DA6D95A
3C942CC8
3E5F7FF1
3DF97827
3CDC35E6
3D44FF66
BDF166ED
3D6AC83B
BDC548FA
3E99D950
3DBD908F
3CF9F6B1
3E2D3408
3D440482
BE15545B
BE6767CD
BEEAE3BB
3D8E8988
3E331811
BDA88EC3
BE05BBB1
3E238518
BDB7A80A
BD7DCB75
3E6DB45A
BD8252C9
BD77043E
BDE38632
BDBDA656
3D937ED3
BD6097AB
BCAB845D
3D2EA051
3B1F61F0
3E675D93
3E0D69FB
BD2DB934
BD6CE42C
BE2FEF46
BE47A143
BDF6813E
3D07A144
BDAD293B
BDF7976E
3D733AB8
BD32D017
3D99F40D
3D853307
3CC12148
3DE69E14
3BBCF000
BD1162A1
BE0D653D
BDF819C5
BADD301C
3CBAF5EA
3DCCF264
3D89DF9D
BE86EFC0
3DB75310
BEA572CD
3E324EFA
BC5FB303
3DF130C5
3CBB6BFC
3E50C862
BE20D79D
BD866C9D
BBDEBC5D
BE370938
3D0DFCE3
BEAF88EF
BE1B9D29
BC580215
3A66063D
BDA8B6F1
3E207B5D
3CC94F54
3E0F56C3
BE360CDA
BB972719
BE44761C
BE3E5B1A
3E0C41FF
3E19D61A
BDFC0B64
BD0A8735
BE4E3CAB
3D7C6955
3E777A5C
BD6F15D2
BE5058D7
BDA8990B
BD6FFE83
BD898ABD
3CB7D57F
BD02B26F
BD3276F3
3EBAF1A7
3E0135DB
3E0B94F4
3E7C2126
BCA4B963
BD971D10
3DA84189
BD8BC5B0
3DD6FBAA
BD424A40
BE2DB417
3E897D5B
3CA17B0F
BDFFF0E7
BD260BF9
BCD676F0
3DAAAFA7
BC826210
3E2A4B6A
3DB5D548
3DA9A4F3
3E8BC99B
BDC1A70E
3DEF8D13
BEA70429
3DF1AAED
BDD7DF42
3E12A98C
BD5019B1
BEB90FEF
3E01B4FE
BD2DF05B
BE0B3384
BD39AEB5
3C4A64B3
BE74D212
3E2BD196
3D84851B
3CB4FF00
BEAF1E81
3CF7CE38
BE372721
BE6B2697
3E2866EB
BE1DC8E7
BCF8EA22
3E105880
BE2F0550
3E4173AB
3DE4091C
BE588E58
BC3C22F1
BD893B3E
BE0F07FC
BD842E44
3E2B7CFE
BE2B98A0
BE06EC97
3CFC9928
BE201EC0
BDD61C29
BD89DE57
3DA9169D
3B9FCCD1
BC934445
3DFDD6FB
3E71713B
BE082378
3DCE4B1C
3E7AE91E
3D6E4885
3DD3C120
BD64E1CC
BC44F3E5
3E1BF58E
3E5B17D5
BC15B303
3E3B06D2
3E5FCE24
BDF84C4F
3D1529BB
3D401C0F
BD384226
3E6B231B
3D524D1A
BCC50208
3EBD0D54
3DD3FF91
3D925D7F
BDAEB4EE
3AEB95B2
3E2F7BB2
3EADCBB5
3EE05DC1
3EDC33B5
3EAF5F4E
3EA8D2DB
3E9A3F57
3E4DCD5C
3E917488
3BA805C7
BCCEFB6B
3C145EF4
3D535842
3E2A675B
3DC5EB51
3D0EEB50
BDE71B1F
BE32F4F1
BCDB3C41
3D7AAD60
3E6A4E1D
3E80A153
3D5AFBEA
BE084FED
BDB69BEB
3CD6659D
3E867092
3DB88310
BD0781BA
BD4A3E32
3DF9D8C7
BD3326FC
3DEDBB9D
3CE15A08
3E2FC181
BDA72606
3E53AA80
3DF1A112
BDE59F11
3C986C43
3DF89126
BD9D8B9F
BC0CDFAA
BD2683D8
BD8C9063
3D544143
BD0F7DDA
3C127382
3D2F2755
3DF5F098
BE24F597
BDA9134A
BC0C571B
3E0724E0
BD8CCFD1
BE1D98E8
BB64D83A
3E07A0E5
3D21C329
BDC81507
BE395A08
3D534582
BDBEEA62
3E1B24A7
BC68B764
3B9D57B7
3DAB94C2
3DCA558F
3D4D6A21
BD0AFB99
BE27A8BB
3D4B8AD0
3D895B43
3D48019F
BDBECBB3
3DE8D7EE
3D4B2F13
3D73DB77
3B3F9955
BDB79F99
3CC3C71F
3BC79544
BE85E8A0
BD8BB2D5
3E1F38FB
BDAB8E6A
BCF4F42E
3D60D64F
BDE36538
3D0A26B2
BDA068A3
3E097D5E
BE1C4F93
3D6D5548
BD7BC850
3DDAA8F9
3DEDF612
3D47F804
BDC7BC55
3E609B30
3E6EB350
BDD7669F
3E34BE5B
3D55D5B8
BD9CB8F6
BE4ACA65
3D7740E4
BD578220
BC9182FA
3D9CE2C9
3D00BA07
3D837951
3DE7E38F
3D00FD3B
3DF10724
BDF98D98
3D5BDE05
BE8C6492
3D9723A6
3E0B5CA5
BDB0F199
3D3DEE3D
3E215BBC
BDB3AB40
3DA8C151
BD9E98F8
BD33B4CB
3E241B11
3CD115B2
3E27F499
BE03A28F
BD7D108C
BD939A29
3DEC64FE
3CEB84DE
3DCE8CE9
396DE160
BDF1F9E3
3D7DF7C0
3D504636
BDC1F785
BD8835AF
3E0787BA
3E13021A
3CB796E5
BDB70C54
3E0132F2
BC19364C
3DC058D5
BE1958E7
3D2027C0
3D115EDB
3D29F94B
BD1A1DBE
3D04B0D7
3E023AC4
BE6B153D
BE2B8C33
BE31065B
3C9E7399
3DC44815
BCC4C8D7
3E02967E
3E5FA61C
3E9C9ED2
3E6037DD
3DBAD040
3E411292
BCA5FFAE
3D1B7023
3DFE1255
3DDC34CF
BC543DE5
3D5C8826
3E03D96D
3C566B9D
BDB3DBC8
BE38390B
BDC407F7
BE9B6061
BD79A941
3E4AD80D
BA936BAD
BDE6ED75
BD166710
3D1F7594
BDFF7652
BE0610FE
BD0068E4
3D8F7476
BDF2FA28
3E5ABA6E
BCF42C72
BE8F45AB
3DFC2997
BD3BFCF6
3D82D925
BB8E516D
3E0F47DF
3D9B41BA
3E1BDC6A
3DD63DB7
BC4965AF
BDAC2019
3D07C1A3
BE6CD163
3DA1008B
BD787133
BDC2BC7B
3E8164A2
3E02EF47
BEB4C3E6
BCC31E83
3DC8BF00
3E065838
BBEDB5A3
BD396EE2
3ADC5DB1
3D4891CD
3CF715F7
BDB86A9D
BDD85AAD
3D8370FF
BDA4C3E8
3DF33AE8
BD541FC0
BE167833
3D203E7C
BDC26017
BC862005
3CD7A781
3E3D58F8
3BEB0E25
BBE7AD99
3D472BD3
3E012656
3C8C229E
BD63DE9F
3DA74195
3C8695F1
BE048ECE
3D86F15A
BEB29718
3E226E76
3D9297E7
3D69E4C0
BD1C5ADF
BDC9EADD
BD2CC1F8
BD2873AA
3CF49FD5
3DC437DA
BD960295
BC4DA84A
3E2525B1
3E65E842
3E209BD8
3D4F01A3
BDC3D520
BAE1E504
3E339C1C
3DFCDA89
3D59913E
BD687196
BD4E8E28
3EBBE890
3DB96831
3B70A7BB
BCF6B284
3D5A2B22
BDC0481A
3DF9C13C
3E00D2A2
BC8EAF8B
3CA2A7E0
BE61D9CD
BD8ACB14
3E1BACE3
BCD7A70B
BD083CCD
BE0CFC46
3E1C0CCE
3DEFD5D9
BE029945
BE27A46F
3CB7CB73
3D9A6833
BCA6EF1D
BD93189E
3E283460
3E4FF943
3BF520D6
BE36AE4E
BDCA7AD0
3D43E522
BC7EA6CF
BDFE023C
3E032273
3DDB089A
BD333019
3CD96BF2
BD73B05C
BDED6536
3E7A01A5
BBC083ED
BE180270
BDD9EAD0
BE0D1457
3E8D78EC
BD38EFF9
3DF39ED6
3E5DA979
3DC78630
3DB4E490
3E0603C8
3DDEDE70
3E10540B
BDF3151B
3D0C007C
BCBAC0EC
3E3F6AD7
3E3CCCBF
3E999924
3EAA7E4B
3E0CC702
3DF7788D
3D421A51
3E244BEE
3CEDF302
BE32E66B
BEB70E9E
BF0AF6F7
BEBCE70A
BE6118B4
BD6AED21
BE04BD48
BD68CE7B
BC4192A7
3E13C6DE
BD1F3A93
3E821325
BD774843
3D1656D1
3C6D22CE
BC0FDF59
BDB70B1B
3CF3E692
BDFC7468
3E7C2CA8
3DEBA16E
3DD66319
3D1FBC50
BCC0A2CD
BD305DF4
BEA35EAA
3C3448FD
BE3074C9
BD7CD370
3C4F9A92
3C266D5D
BE1CE428
3D915CBE
3D97F99B
3DE4AA03
3D9712B6
BE3D79BD
3E2A8B31
3DDD00A7
3E24142C
3E8DF143
BDEBF3CC
3DF024C1
3E794D0E
BD9D99E5
BE967A88
3E7F6B1A
3E1B5E16
3DA577BA
BE056C1B
BE7778F2
BE9F30A8
3D9C1447
BE2704F9
BDD958DA
3CDF01F9
BE319272
BEAC1605
BCE62CDB
BE886273
3D65B7BD
3DD1E753
BE894C0F
BD69D16D
3E05FF89
3EBC5642
3E87F2AF
BEE784DC
3DD423F4
BE016399
BE2CF1EB
3CD01567
3E2075F0
3DF2414B
BDFD032B
3B1BBDBF
3D82E575
BE037811
3DB348C8
3E7D9F6F
3E15A951
3E63CC73
3D9B2CA1
3E5F8D5D
BDC7740B
BE8A009F
3DA83BC1
BBDF45D0
BDED3C43
BD6E14AB
3D753851
3DB45908
3D39DEB9
BD14CE3B
BDC9F4E2
3E1038CE
BE46CA8A
BBE0516D
3C5A3D4E
3D6CA5B0
BD7D0FC0
BDBD7305
3CFBCDA1
BD7F5CBF
BE764DF8
3E5EC3C7
BE360B12
BD87B4CA
3D47A291
3D9DE471
3E4119FD
3E3C4BE7
BE1F1484
3D3311A3
BE37BB95
3D680D2D
3CC99515
3DE0B55A
BBDD6C40
BD4A0C66
BD120F64
BE8136A4
BCB5C549
BE8C9E45
3E22E445
BD1F43AD
3DF2B3E7
3DF74E73
3D4C4553
3D26CC7D
3E8A398C
BE835BE2
3DEADD9C
BE5D0587
3C1F7D42
BD69DEB9
BE3ADD02
BDBC26E8
BD5A86C7
BCD45262
BE2549A2
BDB771E8
BE1A9564
BF014ACB
BEC0FF5E
BE3EE200
BDEAF83E
BD8A28D9
BE36B343
BE312D8B
BDCACB14
BCA57D07
3D49A355
3E4E762E
BD7A5E73
BDFB1A53
3D0E1C88
3E425E72
BD2C4F5C
BDBD97AF
BC22A37F
3C28766C
3DA26DCE
3ED71D17
3E8A47FE
3E1D4604
3C69FDCB
3D126685
3D90C925
3D4062B9
3D5C9CDC
3E3EE5C0
3E0E47BB
3E763319
BBD29035
3E49829C
3BF05387
3E192549
BD648A33
3D44B638
BDFF53FB
3DDF06CE
BDCF9BC2
3DA3B757
3C3EC538
3E25CD9F
BD083FF5
3ECB91D9
3E53E6B1
BCEA37D2
3E393895
BC22E6E6
3E10AA22
BD289842
BBE42457
BE1EB0ED
BE76AC2F
BD6B2532
BE0AC167
BDA692AA
BE258E86
3C43C7F6
3D89CE22
BD7184F8
3DBD5BAC
BDB6CF12
3CA13CE7
BD9FF1EA
3D4C1D3D
BBFD2C73
BD13352F
3D695D21
3D07E26A
BD9439D8
BDF48CD0
BE1C1553
BD140D9C
BDEA0B29
BC399B0C
3EA837BB
3DE185CF
BE362937
3D178791
BE636E50
BC30CEB5
3D95547C
3C2BAC21
3CE0C395
3E748726
3E1FFC8A
3D9BC71F
BE923F07
3D93610A
BDC3EAFB
BD3A1CD4
3E0C97E6
3CCA37A7
3DE02024
BDA127E3
3DEEF269
3DFCEBC9
3CC1137B
3DE592DA
3DA77141
BBBDD6D2
3E0D25B8
BD222829
BE1143D4
BE61031A
3CC9AE1F
3DD40266
3D069BBB
BE0178E9
3CEB676D
BE23E001
3E0A1533
BE84F57C
BAB1DB74
BE09EA14
3E3B9B24
BDD04EB2
3D393A16
3CB7F54A
3C817CDD
BDD19688
3DA9055A
BDE811A4
3DDE52B7
3D7D5515
BD9B787F
BDB315F6
BC4A4C7F
3D938715
BD6F3B8A
3D537BA0
3E9D3D78
BE4F0FBF
BE4F36CE
BE4ACCD5
3DA214C5
3E64BBC3
BE048A08
BD4BBF99
BDEE425B
BE922B28
3E12566C
3C420716
3D913501
BC3814DA
BE05DAF0
3BCF5E53
BE21592A
BEB72899
BDCE3B98
BD17E006
BD98CAD9
BE9673A3
BE445A8F
3C170771
BE0F7978
BD110162
3D0F5533
BE210745
BE346CB9
BE3C13C7
BDC3E495
BDD57611
BE1E4A67
BDB65FE2
3E11782D
3DDC7219
3C915466
BD516EC3
3D9C589E
3E9DDE9F
3E2F257A
3EC62A4E
3DD06431
3D553DB2
3DC6692C
3E83669F
3D44EBB2
3D9F416D
3DCFE726
3D8BDF4B
BDDDD73E
3DDDD84B
BDB7C5CB
3DB53024
BBD74E86
3DC3EDFC
3D26F1FF
3CF08071
BE22706D
BCAE1333
3DF9AF4E
3E53A556
BCD32013
BD3319AB
3C3156DA
3E0AB607
3B9A23FF
3CDB65CD
BDBAE866
BDD09E48
3D94162B
BE464954
3E447D95
3BBFC27F
3E9C29CD
BE17E10A
BDC61B25
3D86BD7C
BCF4C0E2
3DB48904
BDE689AF
3DB712CC
BDD343C4
3C69F857
BD3056F5
BE138801
BE30F36D
BEC3E176
BD4B6C9B
3D8392A4
BEA9C326
3D007241
BD4F8907
BC4C7CA6
3C336A70
BE110808
BE190031
BB61E620
BE83FB55
3E0D979F
3E242686
BD80661E
3C9ACB98
3CA39ABA
BE0A66C1
3DDCA5CB
BE29381C
3CF75064
BE26A0F7
BD258131
3DAC8F93
3E2F45E1
BDE21E02
3CB7B376
BCEEC255
BD9F7D0F
3DCDBC74
BE383F27
BD54B013
3DA9ACF8
3DC51B42
3E45B5F3
BF021409
3D39AFAF
3EB91B9A
3DCFF350
BBF99002
3D9D7FB0
BE331C07
3E3A49DE
3D75E085
BEB2BC7A
3DD75E99
3D9D8838
BE1AF809
3E038E37
3DBF3ED3
3D65A625
3B4BF76D
3E80B755
BCD22912
B9A0389A
3E7DA788
BDF6EB26
BEB52F00
BE619D38
3DD823C8
3CF886F5
3CF71992
BE2569D3
3E141058
BC36A50D
BDFE7F54
BC40C400
3C97E6F7
BDE9FFAE
BDA2AFE3
3E04EEB2
3CA13D78
3E203EC2
BE68BB4D
3ED0AC2D
3E311806
3E567594
3DE1990D
BE224D46
BBF71DBB
3E0C0C41
BD9BBFDC
3E7FDB90
BD9BB7F8
BDE3EEBD
3E07A800
BDB419C0
3D8D2EA5
3D8A0CF7
BE570A44
3D8CCB7B
BEB7C8E9
BE28002F
BE59C5E0
BE1DE20B
3D567A6E
3DD82B7D
3E19F8B5
BB7AAEEE
3E0A53EF
3DDC85D0
3CC31086
3C9EABA7
3E2554B2
3E5D2BE8
3E6CE24C
3E006AE7
3CCEB027
3DB4B998
BC308889
BE315B2F
BDB900D7
3D839BBC
3E641227
BE536A7C
BE79ACC3
BE50FE0B
BDB6BE6B
3E2509D4
BE92D77A
BE7037C2
BDC829BE
3D171E1C
BD596E49
3DE6DC0D
BE150EBB
3C4C06FF
3E8991DE
BE23CA4D
3D318A54
3DAEAA4D
3E8A08CD
3E716CA4
3DB44CBE
3E4971E9
3E414892
BE137103
3D869F56
BE3930F4
3E25A570
BE2A80DD
BD9B7FD7
BE2353D0
BDD473A5
3E396836
BE2F25B6
BE476F60
BD559A56
BE7DE02F
3E73D380
3DEBD846
BDC8A051
BE37476D
BDA8E16E
3D971BC2
3EC1CCF1
3D2BF06E
3E48F099
BE3B79F4
3E5CA164
3C77FC50
3C380CB7
3E1D7D4D
BE33D1B8
BCD6D067
3E2D4F23
BDA2BA9A
BE8763BC
3DD567F7
BDDA9139
BDF96C4D
BCFC0A82
BE0AB4DF
BE6AC97A
BDBE6111
BDA94D6C
BD925F76
BBE355A1
3E133AAC
3D88EA6F
3DD1E00A
BE570549
BDAC4CD9
BD52C158
BDD81A23
3D9F5C18
3CA53310
BD699AC1
3E1FE833
3E2A3642
BE32A1F9
BE60CE2D
BE024533
3DDA733B
3DC87290
3DD52DFA
3A8ABFE2
BCBD1EC4
BE514AC6
3D7926E0
BC572409
3DA2C5A2
3C122FDD
BE40316A
3E2F0A58
BE91BE72
3DB0AE6C
3E160F9B
BC5BB26E
BD20877F
BD9092F3
BCEC59E0
BE61643A
BE65DFB6
3E4BFD43
3E0385B2
BD0DFEF9
3CFE3199
3E472904
BDC661D5
3D1356CD
BE31A15C
3CA5FBCD
3D434814
BDB70245
BE322F5D
BC8A3350
BE17AB9E
3DB62798
BDD79083
3DB950A4
BE1D50EC
BE6C5B80
3C943445
BE27674D
BDEF7E30
3E135ADD
3C54C819
BE1E62E3
BE5AC9EC
BE9D9494
3E16B6A4
BE34EB86
3E9D3ED5
3E115CE3
3CCF7DC7
3E543BEA
3CE86C66
3E8C7B28
3ECCAD0B
3E222743
3ED7AD34
3EDCD802
3EE6C86A
3DD8A599
BD75AE38
3D545837
3E569073
3E559726
3CFFAF98
BE279AEB
BE4C4992
BCCB6376
3CEE2582
BD339DBA
BE3E39AE
BEBAA214
BF09D18B
BF1AF3AF
BF1B3277
BE811D7D
BC869B5A
3E50905D
3E726210
BDB92A71
3DE5734A
BCE2D3D0
3EB1A2D7
BE0FD813
BD8E8A0C
BD748D0D
3EBF93CD
BC9F6BDB
BDC931E5
3E025490
3D29A573
BE191D65
BDCF2BB7
BD827AAF
BD5B3667
BE07EB44
BE3D2B25
BD2EE858
3E9FE729
3E021003
BE29A75D
BBDADB02
BC47DC4D
3D89F407
BDC41115
3C8DD2F2
BD811321
BD4E687B
3EA2BD75
3E1EBF9C
BC859B96
BE227A7E
BD81EAA4
3D9BF19E
3E0493B4
BCDD319F
BEE4FBC0
BD127FFD
BE546AD6
BC7CBE62
3C6C679D
BDB3353B
BC2A6DE8
BE253B5F
BE1167C4
3E2A7455
BD94794F
BD8577EF
3D1B379C
BE4F5431
3D0E0CC1
3DD80A68
BD1755AA
3E4C63A7
3D9DFFEA
3D42CC4B
3E137E55
3CBE668D
3D6ABC8A
3DE6F919
3E557618
BE2C3F3E
3E26A077
3DB4F447
3D07C117
BD7E97A5
3D8D4D48
3D07E504
3D88760E
3C915E77
BE1A2043
3D913507
3E85EFC8
BC9132F3
BD325865
3B12B9C1
BE19EE67
BD61732A
3D227429
3DD2D758
BDA33F71
3DBB6517
BE75EEDD
BD9F16BB
3D7587CC
BDAAEB94
3E248726
BD17E43D
BD326D2D
3D09C16A
BD0DD335
3CB7A975
3CEF2E21
3E732E31
3EB40446
3E484974
3D301A47
3D00CEB7
BD0AFD21
BDEBA11E
BDD60AA6
BC3574EC
3E2AFAAF
BDF07A1B
3DC260F5
3E03A1B2
3E43BB04
BE8FD6DF
3DB2FF6C
BCDFCF53
3DCECE07
BDC8EF2A
BC11110B
3E10EA18
3D75F317
BD83D5F3
3D9A15C8
BDA47899
BCE8DA8F
3DE17C5F
3CB6D178
3D389763
3CEBE089
BD9F82A1
BD863DD6
BE31BAD7
3DDA7EA9
3E832A61
3DC73663
3C8F336F
BD9402A0
BD197A62
3D616C09
3CB4E2CB
BD68EBEF
BE7D7024
BE635979
BE1B2B99
BD089520
3DCC5D55
3E67DB82
BC93ECAC
BED8C3DC
BE8FD6F9
3DB0D53D
3D1F32F1
3E53A83F
3E3401B1
3E8CF3C1
3E91A335
3DB20081
3D77E9BE
3DEA385B
3D31A910
BE0CCCFC
3E8AEBA2
BD34207E
BD055B59
BE49BBF1
BCAF1389
3E81CF7C
3C6B9FC1
3DE52B4E
BCA589CD
3D1AB802
3E353B73
3DD26D12
390A385B
3E2598B2
BD9FCA24
3DE71194
3DB232DD
3E43BDBE
BDC9EE27
BD58A434
3E0B0398
BDE38477
3DA1E683
3E756BBD
3E83311A
BDFF29D4
3E06BB20
3D464B81
BE225BBE
3D42145F
BDEED2BE
BD217C92
3E7711F2
BE3E0C0A
BCB450F5
BD43C91D
3DD9C935
BE5A454E
3E988081
3DE97CDE
BE8532AB
3E34F030
BE2F9874
3D4E534A
BD0538F7
BDD9B167
BE6E2A58
BD23D763
BDA11761
BDD30BB9
3E49CAE2
3D0171F5
BAFE35AE
BEF0FF0E
3DA6C086
BC97E57A
BD469E0C
3E5EB4CF
3DE8F81F
BD47615E
3DCC2AD6
3D356EAF
3D363A9D
3E063949
BD559FAA
BD0208EF
BD895030
3D55F68F
3C0F97DC
BE81216F
BD2AFBB4
3E0B44F9
BE404641
BE469150
3E083DFF
3E5EE6E7
3D9C89F7
BE19872C
BE8C8F2F
38C8271C
BD8B26B7
3BC01BED
BE0D9E0B
3DA7B9BF
BD85AE42
BBD06159
3CF08838
BE973E79
BDAD22EE
3D9449A4
3D0A6EA6
3DCA88B1
3D517B30
3DA33812
BEEA3D85
3DCCE48D
3DADF9DE
3D9A69F8
BC425CD2
BD4660EA
BDA52BFD
BD1B7361
BD31FF3C
BE475DC2
3CB74EB1
BE6DF7C0
BE195260
BD92E0FB
3C8EDA59
BD2CC6DD
3D1911C2
BD968990
BC9C439D
BD88EFCF
BDF54EBF
3DD72573
BD06A7D2
BC3839E3
3CA1434C
3E4E1E0C
3D939112
3C383BD1
BD008D6C
3CFE711A
BC1D40D2
3E6B2CC7
BE10564C
3E784011
3E81A665
BDCEAE34
BE477CD3
BE0D0390
3DD4955B
3DE638C9
3D908F13
3E06E957
3DE80AFC
BDCBC321
BEA8E443
BE77C372
BE490EB7
BE0B7DBA
BE3CE4C3
BE58846F
BD9AF824
BC2E7B5E
3D906057
3EB46CFD
3EE166C5
3EBCD29F
3ECA9C34
3EDC44A8
BD373F8F
BE1F4B2C
3EAB134F
BD39A863
BCCAF801
BDC7450B
3BB61EA0
3D81A316
BD870A50
3B9461B3
3DE1AF48
3E21FB25
3E9C47E8
3DC95BD1
3D3DE44A
BE9B9431
3E087A1B
3DDF5E42
BCD47B9D
BE287414
BC384602
BCD2CD98
BDF19D67
BDB867D9
BD5BCC64
BDE5270E
3C1EA30D
BC94F74E
3C73B6BC
BD5141DA
BD9BA8AF
BE1700AC
BC0C58E0
BD91DE91
3E7040B2
BE25A7AA
BD8986A8
BDF87B57
3D834AED
BCEC1C33
BDEF033E
3C69453E
BC9AFC20
BC16695C
BE825EFF
BD88BBA9
3DEE3BC0
BD84CEAB
BD8972F0
BE03E179
BE0C0131
BDC28DE2
3E261141
3E4CE8E0
3DEA356B
3D287B84
BDEF0274
BE52CFAA
3DC8C56E
BDBF675B
BE74C702
3D68C927
3DA686F0
BDF88319
3DC8AD24
3EE45B73
3E1F9B7E
3D78FCAE
BE0E2B78
3E691531
BC09891A
BE751259
3E29E237
BE26A3CB
BE878ECE
3DAAEF13
BE930D5F
3DEA3832
3E2CD01A
3DD482A4
3E62AD67
BEC7A52B
3E415140
BE4529A7
3D9BAE52
BE4269ED
3DF772BB
BDE152CB
BBB3BFF6
3DE1CC1D
3DD8160C
3EAD4A14
3E049E60
3DF9DC58
3EAFBBE5
BE1A657F
BD83F070
3DB7470D
3D6C4797
3E067099
3D1FFC4C
BC1301D1
3E11C1D7
BB50B50F
3CBCEFF0
BDDF4194
3E5726C3
3E39463D
BC94A777
3E486E93
BE18564C
BDE1B5D5
3DD330F2
3DED69D3
3E186657
BD849C8F
3DAED5EC
3DA9FE82
BE14B6E2
3D813852
BDDC19F7
BE1CBBC3
3C9ADA06
BE78743C
BE052978
3DBCE1BC
BBF011B8
BE08A464
BE110188
3DB43045
3E11318E
3E810A71
3E3BF13A
3DE98196
3DC55587
BD062A39
BE824BDF
BCE90324
3DB88AC1
3E427E45
3E334B94
3E163B98
3DA2C607
3DC7AC62
3D39E0C7
3C8E825A
BD8CF018
BD84BBF6
BE1655FD
BDCAC763
BDCA88B8
BD6A32EF
BCC5EB16
3D53F451
3D1A6417
BD00D16C
BDC29B4C
3C95B38B
BE072515
3E35469E
BD07D2D8
BE2D9430
BC7326F4
BE33698B
BE0EABBD
3E6351EC
BDB32705
3E01510A
BE47C0B8
3DB557F4
3DE7B8FC
3B89B458
BE2AD76C
3E216DED
3C43213D
BE979223
BD8D7590
3DF4D402
3D80B6F6
3E659938
BD09A3D0
3BB52C83
3BD256FF
3E11193A
3C9619DD
3E50476F
3E8F3783
BE3A1E60
3BF79C30
BE740BF8
3D54E941
3D8DBE82
BE4D60E3
BDF82137
BD2806B2
3E3DF6DC
3E47F4F0
3E03F120
BE9CF7FA
3BED262B
3C1DCC6B
3BB981E8
BDA66109
3DAE8EDB
3E06F409
BE470982
BDBC7ED0
BD90154D
3DD87004
BD17C92D
3D807AD9
3CFB61B6
3E0A60AC
BD03B2AA
3DBB2EE3
BD466C58
BDF94BE7
BE731309
BDE77AE9
BE2E90D1
3E4C1180
BDB501B7
BD1FE068
BD0F9AD5
BDA2FF8D
3D521C42
BE344242
3DE34026
3E487F31
BE284D70
3E08ED1C
3E8166EA
BE7ECF7E
BE31465F
3DE22FAD
3E1049CB
3D0975A2
3DE67B29
3DBD9B92
3CA2710E
3C17E3E4
3CF37553
BD826128
3B9CDED1
BD533B81
3D7BB250
BC74E9B7
BD83906C
BE0A5B9D
BE478071
BE4975DF
BC829D44
BDAF14F9
BD9D7367
BE02C966
3E095868
BCB53CB3
3DA82950
BD8AA8D4
3DC6C212
BD9A1626
3E460CFC
BE35DEE6
3E5F1E6D
3D6B1A96
3D08C5A4
3E294C16
BBED588F
3DAA35D1
BE3FF434
BE96450B
BCC7328F
3CE6FB3C
BD604590
BE46D53C
3DA01F2F
BDDFC449
BD44A5F2
3DD76973
BD0DF10A
BE62902C
BE133E2F
BE48BC82
BD9CF8A9
BDB4CF73
3B987316
BD4454A9
BE4DBEDD
3DC4A1F3
3B9426E0
BDDDBB90
39CAFB1E
3D442D5C
3CFC0FA6
3E4EBB99
3E6851AF
3E96FAFF
3E796B47
3E78811B
3DBAB560
3E3BD633
3E336948
3E342317
BD587585
BE252FFF
BE65EB67
BDFA5658
BCE2D9CA
BD432922
BD2A29C5
3D6CF310
3C087244
3D988FF7
BD804727
BDCA766E
3D2CDF3C
3D68CF5F
3DFED909
3E1D1472
BEBBB75C
BE3E269F
3E68593C
3B8D1C8D
3C0D270D
BDB1FC6B
3D860728
BDA68A93
3D9312A6
BC3EAEFD
BD5335E0
3DEE16BC
BE3116A2
3DA6C715
BD8FB6B3
BE87ABDA
3D06B30D
3D6B0F70
3E01BE03
3DF1353A
3CB9A5DE
3E36A154
3D5684C4
3DD11BE7
BDFE3F0D
BE37D73D
3E39E365
BE2F2537
BDBB9403
BE5F8E63
BDC893E0
BD4BD759
BE400C8F
BCA3680A
BC3E876F
BE353ACC
3E09F3C0
BD18B477
BDC2D1EC
BD4DDFBA
BE260D60
BB9F4C41
BE32F519
BE71A614
BBE03247
BD94FE77
BE1977A0
3DDDEC7A
3D0EEEE6
3D2D6BD6
BC907543
3E9DA5CE
3BE657FB
BADCBCEB
BD91974C
BCC6C62D
BEC77CEE
BD8FC4B7
BDF530A7
3DD801CF
BB0A9F7C
3E12062E
BD40C66F
BDA291F2
3E3E3A41
3D0D093D
3DFA4A49
3D89DDF8
3DE1D126
BD337947
BEB3D3C0
BCBF23AC
3D8AA06C
BE58BBB2
BD4E4E2C
BE8284C5
BC70AB2E
3DB33B51
BD31AA3A
3DDF9874
3E192F68
BCB31709
3C55F1DA
3D7DFCD0
BC1C42C4
BE6EECC0
BE6CAF0C
BDBEB433
BD631246
BDC1351D
3E7F4DE6
3E143CC0
BD587542
3D0D9125
3B9FBE3F
BBFFB6AF
3E5D1BC2
BDF6BBE9
3E28566E
BD7A479A
BE21E83E
3DB4F936
BE0802D5
BCE249F2
3E0D29F1
3CDAB944
BCA8AABF
BDCCA120
BDEFA849
3DB2996E
3E6713CF
3DAFD6E4
3E33A17C
BE05C352
3D0912F4
3DAD47F5
3DC24A9C
BD78B5C7
BE259D99
3CA26E14
3D7A962E
BE1F0F39
39D647A2
BCB48680
3D5BC866
BDED1E89
BE84AAC9
3CD609E8
3EAEF8FE
3E89EAA8
3D352C8A
3C29E908
3D4662C8
3D46B35E
BDF37103
BD511912
3B8204E6
3E82B512
3F11E337
3EC3ACF4
3E4EB349
3E58F82C
3EA25926
BCB21B2B
BE46B0B8
BC8AA1BF
3DB46F87
3E65BA7C
BD22816F
BD08CB3E
BD074C7D
3E2521FF
BE2833B9
3DEA0AD9
3D063516
3C20B8BF
BE830F3F
BD90AB73
3B5F812B
BD07A518
3DE2175A
3E25E658
3D414C81
BD8998D2
BCB19E2D
3E816CAE
3EBCFBAC
BDC46EBA
3D2B4E50
BBBBFB27
BDBBB8D1
BE640CF0
3D3C1196
3DD428AC
BE8D3460
3CCD7F80
BCCA6869
3E83E327
3DBB0EB2
BD940C18
BCDC9979
3D6F515F
3BF3DB40
BD8E13C0
BCE0CF2D
BE3E4192
BD8A6AAC
3C786039
3C9C80CA
BE81616C
BD262566
3E250269
3E10E2F7
BE376A80
BD5101C3
3D760E75
BA452EED
3D5762FB
BE32E939
BE5D69F5
3E55D0A3
BC2D34C1
BB0CDA50
BD37F23A
3D2144B9
BEC2C67D
BF038D41
3CF25EA7
3E4647A0
BD7DEA3C
3D1E16F7
3DEDDB8B
BD96F828
3D801CEF
3E1E69E3
3DBC2F22
3D3BD360
3CF90D4D
3DBB9969
BD6A4188
BE20CA9C
BE02C797
BD6ED8F9
BD71B242
3E4CE3C4
3DA15156
BE02EB74
3E23238D
3E600750
3D8F71B7
BE6140B5
BE14E216
3E048DAD
BD15A053
BD9E39C0
BDA14447
BEED67FD
3D971DB9
BC349B9E
3CD62C32
BC1313AD
BD1AAE07
3BDEF0DC
3E066BE1
BE84E758
BCB845CC
3D8AE24B
BEA01454
3EBFF49C
3DBF0394
3E063503
3E92B325
BDC15300
BBC0CDFE
BDF79D5B
3A467DCB
3E946B6D
BE6FC02B
BE4A43A0
BD877C33
BCD14C2E
3E0ADA7E
3D878732
3E74AE50
BE4FE8DA
3D210F17
3D71500F
BE48E0CA
3A8F0DE9
BDA84397
3D1C9E3E
3E483E1A
3E87F371
3DBD9A17
3D0CED36
BD8B3469
BCF3883D
3D8CEFE5
3DFFE840
BDF28F41
3DA6B675
BD38C249
3D93EBD5
BDEAE020
BE266B18
BE1DC52E
BE5ED168
BE0C613E
BD7D05F0
3D88D837
BC8FD3E3
BD62C36F
BE0E38AF
BE05BA25
3DF32CE9
BC99D5F5
BE1D9C9A
BE29DDD6
BCF689C5
3D540E4A
3DF7A9F0
3E1C5041
3E449584
3DB829CF
3E7A1555
3E2D4710
3BAB875A
BE28DB6A
3D5C03EF
3E04F77A
BD8DA72D
3D456D6D
BDBC4E9B
3D06690B
3E34C972
3DB7E238
3D812A65
BE10F798
3DA60BC1
BD72AA77
BD8F9FDF
3CE83BA3
3DA7E6DF
3D19A015
3D782FF0
BDB9AF36
3DB980BE
BCD3FB8A
3EA70AF3
BC95638F
BEB44418
3E2373FA
3D5A53AE
3E8C5D1D
3D26E6AF
BCD649B9
3D6F29A9
BBB8BBDE
BE70FDCF
BD7461D4
BDB7C127
BDDF57F7
BE25BC02
3D9BC7D3
3E28F23F
BB535158
BE20481E
3E72D950
BC92D092
BDF954DE
3E2DA002
3CBFC28E
3DC7621C
3D6B1882
BE88C7A9
BE0102A2
3E297CA2
3E5F250F
3E065A07
3D640DBC
BE99AC22
BB371D8E
BE34CF3D
3D851AD8
3E908444
3CE8DC0D
BE013957
3E07BA6D
3D83140D
3D612986
3D79FA22
3DE61C95
BC323009
3D9347F5
3E3D3C6C
3E0EEBC1
3CD7A812
BDB9390B
BD8B48E4
BDE66EF2
3D1F3913
3E4AE29E
BDBC9952
3DC47BD6
3D788BAD
3C921145
BE0206C8
BE22B530
BE00CD7F
3D712D95
BDD7ABEE
3D055BDA
3CEC47CC
BE23173B
3E839842
3DA3BBAC
BE49CF64
BD35A90C
BDC3242B
3D2CF5F8
BE298FF4
BC708523
BD1F9E46
BE98052D
3EB866BF
BD983ADD
BCD63EA1
3E1CA1A0
3CC74F0F
3D827C66
BD1EC362
BE1578D8
3EB88238
BDCA55A5
3E8B981D
3DEB3149
BC6611C2
3C772459
BDB3F061
3CA26A48
3D2AB2CC
BD464996
BC0293B8
3DF0A592
BE30C6E3
3E3F06FD
3C8D693A
BD6F6706
3DCB7299
3D62FCA2
3D1BE27C
BCFF3CF2
BE1224F5
BC170CCF
BE0C417F
BC8EBE7A
BDEA7646
3E77B9E7
3CD447C6
3D28DD34
3E753870
3E184091
BDF93101
BD22973C
3E0222D5
3E878FE8
3D98B0C5
3BA02A46
BD0B642F
3DAD2190
3DC099E0
3D91ACA4
BD8477A6
3A9F5501
BE8F197C
BE031AB7
3D93A495
BD86C376
3D6BB7D7
BB1242DF
BDE7730C
BDFC21E2
3E508C6E
3DAD8320
3D965D0F
3E003786
3D08A870
BDC7CE01
BD04F736
BDF637CA
BE62D6A3
3E3B7BA1
BDAC73D7
3D43F62F
3E7F26F2
BE031F5B
3C170389
BB425E0D
BE0C497E
3D9A5432
BE346ADD
3DDD2326
3E131AB1
3D51315B
BE03A641
BD099BE3
3D239924
3DA30ABB
3E7C1CFB
3E012190
BDFF5D28
BDD0AF02
3C91D280
BE863741
BDB9E786
3DCB3A8A
3DAF6387
3B525544
BD22D290
BC25E913
3C7157E7
3D819B30
BCECEACA
3DD02661
BE696943
BE7D4D18
BE409F76
BCCEE2C2
3C591B3A
BA41BE35
3C95660E
3D053EFC
BD49B421
BE19016D
BDC7691D
BE40FDF7
3DDADB4E
3DB06012
3DB6A91F
3DEDE764
BE5DFCDC
BB591EE2
3D8B6894
3D1ADD19
3D3F52E4
BD7D767B
3E6E6575
BD4A201A
3D7F3285
3E179FD2
BE18CE7E
3DE6489F
3D99549C
3D74955B
3DBD1895
3D720668
BC90C92B
BE93EDFE
BC8D01CC
BE389408
BCEAAA5E
3E0D4BC2
3E16C61C
3E3462BD
3E352715
BD9A9547
3CB9B3E6
3DE5B368
3E43D252
BD5456CF
BE0433C3
BD455E39
3D1117DB
BC55D2D0
BCEE709C
BD05E303
BD7E3733
BC6CD99D
BC8F7980
BE7582C8
3D103F50
BE06D996
3BA38721
3D63055E
BC5C1367
3D6AFFB3
BDB48DAE
BDF10A3C
BC9A86E5
BD36B122
BE391AFC
3CBBC9EB
BDB50A2E
BDC81E2B
BE3375D0
BDEE6B18
BD80B21F
3D8DDC3D
3DEB938A
BE5F4C46
3E20A31B
BD019310
BCBED18C
3E83C4C8
3C221B86
3D4A084C
BE12E5F2
3BA0D1CE
BDEF18D7
BE2A84F4
3DEF0041
3E0B6AB2
3CDDA5F3
3DD4751D
BE2044A8
BE5C2C00
BDFC5B22
BE627E7A
BE836BBF
BE2AB537
BE7570EE
BE8B399C
BE0872E6
BD87D054
BE2A9EE8
BE4B1C9A
BEEE1A32
BE17E4B6
3D2A0ADE
BD771C8F
BD8DF3D0
BDF4DE7F
BE4B8603
BE63855B
BE71E017
BE2D0665
BDE4B521
3E1E852D
3DA99298
3E684F2B
3D319CA8
BE1FDEDD
3E245C57
3E281E26
BD827ED2
3D3D7BA9
3E0EB7FB
BC899B9A
3E42C449
3E8CDB74
BE94F2C2
3E153C9B
BE1E3886
3BDF1A77
BE11CB91
BE5C9801
BE1A112A
BE0C2932
BDDD9C78
3D871151
BED711C3
BE1B62F6
3DB21BA4
3DD3708B
BCEE4A8B
BDE1B2BD
3E0A4DD3
3C8E3A3B
BC9A17FF
3D3437C0
BDD15A4B
3D514F4E
BDBD3DF4
BBF00290
3E2C8DE9
3E2E74BD
3DA38AC2
BE0FF87A
BB5BC886
3D02D344
BDEF50AE
BCC36347
3DEE5952
3E0416AA
3E294D43
BD97E32B
3DFA43F1
BD3BD390
BDFFF79D
3E51DA8F
BB94C8DA
BE4C46DF
BD61B69C
3D6B343E
3E601161
3D6098DD
3E150B88
BDFE4C1B
BD94BA11
BD793D69
BDA3AA3B
3D1DAD9D
BCA3CCD4
3E0AFFFA
BE1617E3
BC97D346
3DC8C1DB
3DC4B8BB
BBC8C1B9
3DA0EEE0
3E4D7D03
BD98D9B5
BE66C977
3DA10320
3EA7B932
3D0C7D1C
BD874688
BE3A9132
BE53FCD7
3E91CB76
3CEB6396
3E14C3A0
BDA069FF
3E0472AD
3D587113
BDD2B402
3E9FC2A5
BD4F5291
3CBABE3D
3C63DDA0
BC99C33A
3E9AA228
BE34B25A
BD01A066
3D27C2A2
3BE62868
3DC01503
BDFCEF8F
BE8F34EB
3D4E8594
3D85A565
3BC292D7
3D7818C6
3D5CF7AD
BCBA7B77
BDC8B317
BB6E8B09
BE61B35E
BDE1B9C4
3DCA5D4E
3DB39C0F
BC102F3D
BBA17AF4
BE5BB873
3D812238
3E0CCD38
BE1583B9
3BE96CEC
3E447919
BE0728F0
BE853C97
BDCD0EDC
BD4EB436
39F14EF5
BD413B8F
BC8A6BC4
BE92DDBE
BE3CDDBC
3CA02B74
3DE1347E
3E6E87EE
BDE2E00C
BEBC1D55
BE15AA57
BE307761
BE8976B5
BE93759D
BE4A7A99
BEA87DC7
BECDEF9F
BE23417D
BD9FA969
BD2D0071
3D7854AB
3D8C8BE1
BD96EB7E
BD01941F
BD18B302
3D04DAE6
3DE2E2B9
3E56D6A0
BC0D60B7
3D2A9A8B
3E17768F
BDAB3A36
3D098691
3C757598
BCDAC9BB
3D47AFBF
3E57328F
3E9FD6EF
3E181D7E
3E508A0C
