3EE6C171
3E6E5B8C
BDE25A18
3C072991
3EA67A59
3EBC1D74
3D2DB082
3E08D8DF
3E66FE49
BDDFC05A
BE5DEB59
3CCD27CC
3D5C3EAD
3E90683A
3D2C36B0
BE1946EB
3ED29A58
3C1D95C4
3E98CC9E
3DB1FCAD
3F1662E6
BEC13C62
3E5DF4D7
3D665A9D
BCD502D1
3EBF7EDB
3E5602D0
3D6029F9
3EDB7575
BDEB69DB
3EAF4F14
3E16A825
3CA4C8B2
3E92120B
BD988522
3D826F20
3D2501CD
3EBF8E63
BDC81925
3E86FDD7
3DC4ED55
BE0AA3E9
3C913364
3D95D948
3BB098C0
BE5FFEBE
3E3FB72D
BDC537CB
3E800D3A
3DB1921A
3E461339
3DF2BAE0
3DB36984
3DF3C61B
3EBA74FD
BD44B8F7
BCB7477A
BC798E61
3EB94CA9
3CAC0EF2
3E95D1B0
BCBD22C0
BC09032F
BDBBFF72
3E4CD566
BDC582E7
3DEF8650
3DB6C497
3C03C31B
BD6110D7
BE168456
3CEAC35D
3DFC4688
3F258463
3E41BD0B
BD81D218
BDA03E89
3C557DEC
3E6F6421
BDA36107
BDE0FC72
3DEFD637
BDC1A048
3C975AC0
3F25BC8A
3D9F82E9
3CD013BF
3E09A50E
BDB2FA84
BC97F9E2
BDB4507A
3DA2417F
3E560356
3E47335F
BE2488F5
3EACAC66
3E820621
BE7BB56F
3E33026A
3D7F198E
BB1AE160
3D516388
3DB10031
3C798446
3E77AF0D
3CD911D5
3E2B15BC
3D80997A
3E3ACCBA
3D24278D
3DEC00A4
3E72309F
3DE507DC
3D215461
3E8FA927
3E030E07
3E602419
BE4133F7
3E2C36E1
BD7CF86C
3E6AA5E1
3E368A14
BC9F3E0E
3DA9DD96
BCAC43D6
3DDE21B1
3BEE2D61
3E9FC090

