3D96B4EF
3CD2D82F
BE371957
BE09EE89
3ED06C15
BDAC58DC
BD8B46FF
BD060CA2
BD755A58
BE8C3C01
BEFF777A
B9141082
3EB15659
3E5A777B
BEAE7060
BE97ED05
3DF4AB6E
BDEB1606
3C310343
BD823DEC
3E3B6C88
BED6CD7D
BE10FC2F
3CB45212
3C9DB2C9
BE1BB8B6
3DF5CA7A
3E3BE180
BD9AA3B2
BEA67345
3CCB61F3
BDFD4C92
3DC08E7E
3E70D2CA
3E4BAD77
3E44EDF6
3DE5FB3C
3D350EEE
BD9BC6A0
3DAA4747
3E72F456
3E9C5243
3EBC2239
3EDE2A69
3EDD5004
3E561C1C
BCE9FAE0
BC0E55D2
BE1E97DE
BD33585A
BDA5A12B
BE91E072
BDE242C3
BE274052
BDF073DE
BE39CCA4
BE854DE5
BD34CE71
BE13E28C
BE3AC3F9
BDA0F21B
3E83B2D3
3E3F5A96
3CC60B32
BE0E131E
3D90C772
3D8B3CBA
BBBABC36
3E36EF15
BD35FA96
BE0D5094
3DB13852
BD5F01D1
3E006177
BDB507A1
BD6CE5A4
BD35CD8D
3E28445E
3CAA5894
BDF778A8
3D082C77
3CF554FC
3D94A8C0
BDD41EB6
3CD27DF7
BDE391BB
3DC4DD38
3BBECB44
BD4D2FD7
3DDBBB55
BEC0E8D9
BDC63B01
3C9F3387
BD8A8247
3BFCE125
BDD7FDFB
3E16F1B4
BD88260B
3DBE0C89
BEA2F9D8
3BACCEFC
BE126F68
BDE6F42B
3CEDD9E8
3D2770B2
3C89A098
BE51CF78
BD8CD2B9
3C8AF4FC
3D0E837E
3D11AE1E
BD491459
BCBDE716
BE32B409
BD1EF830
3DDB3934
3D3FC1AC
3D92C5B2
BD7E6F62
3D337B14
BD64CB89
BDC67559
BE03D6A6
BD720C44
BDD498C4
BD2A1250
BCE9345C
3D25AEC9

