3E811D01
3DF69A26
BD3F5A4B
BEC32D80
BE91723D
BE47AC09
BE5E0EEC
BE724F0E
BE9C5825
BEBAC41A
BE11BA79
3DBCFC17
3EB72901
3E710434
3D24237E
BDEA85CB
BE5824CE
BDF75155
BE185547
BEB1BC0F
BE86952E
BE8892F5
BE16F8BB
BE9FD1B8
BD03822B
BDA1000B
BE063143
BE0F2629
BD6054FA
BDBD18F4
3E3B17F0
BC918AF2
3C237E4A
3DEE09F1
3E574A92
BEA5DE60
3DE60C61
BE073959
3D030655
3DEA18D8
BAA058D0
3D2C778A
3B92F37C
BE51AD21
3E3921F5
3DBCA99F
BD3C121D
3D9DB2C7
3E0F186C
3D0D01C6
BE065C84
3D57124E
BD655245
3E2C60BF
3CA87CC6
BE2D1556
3E470238
3E3F2B31
3E935E78
BDC7D7EB
BCA93D9C
3EB6FC84
3E10185A
3DBED702
3E6660EC
3E159B15
BCE890CE
3DC3D733
BDD71DCC
3D793DC7
3CF09DE8
3D86C1F3
BCC7A744
BD7569E2
BCD41D43
3D7A2726
3E391F4F
3E0C998D
3D3656D7
3E12CF88
3D258BE0
BE3F6783
BE9BA157
3E68BE1B
3D2230D7
3DD23B51
BE0FFB4F
BE002342
BD007A0B
BE1274C1
BDEB11AC
3D5F3D0F
BD50302F
3CAB0923
BDC3D6E6
3DAF2EC6
3E1F0E62
3D4FCF08
3E1E1614
BDAD5B2A
BE4EB05A
3D52C8A2
3E9FDCCF
3DEED95A
BE4D7A50
3CF5EA6D
3E35366B
BDED94F9
BDD3161A
3E3EA49B
3DA629BD
BC724D85
3DB3DA78
3C84AEE6
BCFB5744
BC17BE5F
BD9DBA49
BD79B3D6
3DF0D167
3E06AEC7
BD950663
3D23A81E
3E37B66B
BB36B52F
3D6BB06D
BE2666FA
BCB1EBD6
BE18956C
BE234147
3E14CF0E
BE58D427
BDBB9DDC
BD9A54EE
BC9EBDA6
BE7F73F0
3D248BD3
BD04DDC3
3E9108BD
3DA7BD50
3E05A72A
3D937250
BCD21445
3DA2C371
3CC221BE
3E2D395B
3E613286
3E427A27
3D07C05E
BC354F58
BD9B1440
3DC9582D
BC16E2EE
BE3D57F2
3DC070DE
BD1A3BE3
3C88F064
BD8B5E86
BE2B809C
BDD2F61F
3DA050EE
BD9A7AD2
BE3C3442
BCA7D475
BDCC8FC0
BDA05EC7
3E5D9557
3E6C5649
3E2C8C93
3DBD6724
BDA441D2
BE22E459
BE01BD47
3DAF431D
3E4A6DE9
3EA1FB94
3EA70B03
3DA50BF5
BC22FD18
BE91692F
BDAAF03C
BE627096
BEAC8F14
BE87A0A2
BDD3D6AC
3D338D0B
BE6A2F93
BCB98C48
BC7D06BC
3DD7FD32
3CCCB443
BE38B729
3DB4A705
3E456B0E
3DA2BEAF
3CCBC3DE
BDAD499A
BDC63DDA
BD95AB7A
3E05C494
BE1FE4F2
BD8E8F81
3DF28530
BCE67E49
3E11727D
3D3B6A19
3D8D5A98
BE1482CC
BE29AB4B
BCDA7435
BE10C15B
BC86632C
3C80D30F
3C8983B7
BBCDED6F
3DFE08BC
BC948D20
BE0CD1C8
BE15DBA6
BC6EDB95
3E2EFA97
BE2E09FF
3E2A09DA
BE6293F3
BE45483E
3C8AF176
3E68A329
BDC84391
3BAD1723
BD9EA062
BD2C7737
3D9051AF
3CBC17EE
BD7E5835
BDB8BC8B
BCF5C681
3E0C7B4D
3D4A5AB5
BE1CA00D
3DE42AFA
BE65DF79
BE0346F7
BD34BEC4
3E0D4039
BE552E80
BE27B8F5
BDA1998B
3E1E1240
3D11801D
BE2FA01C
3D2DBFC4
BE66322E
3DFB2314
BCBDDBAE
3E3D1790
3C4EE7BA
BE1E044E
3E1FA553
3DDF11D1
3BA7E562
3D2969C9
BE098945
BE431580
3E042A2A
3D4A164F
BD86D85B
BD5E878D
3E0841AB
3E3B7D8B
BD479D4E
BD701C7B
BC8DE1E0
BDDAC1E0
3E29CD59
BD935EA6
3E48E461
BD41D85A
BC1CC1D6
BD350EA0
3E4E3A63
3E0C502D
BE233D73
BE15C85A
3DA282AD
3DD80438
3D3235A8
3DE89431
BDB4BC03
BAC0F66F
BE32764D
3E17434F
3E92A597
3DDF7AC7
3E7F4264
BE2194F6
BDFBC954
BE907110
BDC40B0E
BE43F1C1
3DAF116B
3D8790E5
BE865ADE
BDF41F57
3D31E50D
3D9A6AA2
BD934EA0
BE5C24BD
BE0908FA
3DEB18C0
BDF8F38F
BD2339A1
BE130A33
3EB8463A
BDCABE1F
BDF64D7F
BE7F1228
BE02B24E
3E28AE90
3E8AA183
3E7BEDB7
3E135DB2
3AC4D77A
3D08DB8C
3D587FCE
3DD34839
3D2487AF
BBF2A46D
BD959224
BE1E7162
3B1CEB44
3CA4C53C
3DB2CB28
3D9246A4
3DAA5FF6
3E24B070
3DAF580E
3E4CCEA3
3DCC653B
3D20F985
3D31F6C8
BB33ABF2
BE53D450
BE26AB8E
3E71FE29
3DEE62DC
3DE11559
3E214574
3E626A0F
BDC67E26
3E7B02F0
3E665160
BD71E301
3D4490EC
BCDB2637
BDFFC2A9
BE3F2E13
BE933C49
BE76A33E
3DECBCC2
BE19789F
3E588532
BE27C17B
3D74E5C3
BE924E27
3E3B3659
BD7EC7D4
BB6F564B
3E243534
3DCB4D59
3D86D1D0
3D6D26BA
3E8E46D6
3E909A1A
BDA57FFC
BE0B449B
3B51DCF1
3E4E1B7B
3DE84A7A
BDECC3AD
BDF65C3B
3D430360
BCC20559
BD4697A9
3DE1C3C7
BCECC820
BCFF50C8
BC1EFDBE
BC77389C
3E0F92B6
BE3C4B32
3DC8FDC8
3C9420B4
BE8D3D17
BE0A0536
3E09BBDD
3DE0A75A
3E3BF254
3E93FA7F
BE4DB417
BE408609
BDD383F1
BDB044C1
3D2F02E5
3BD168CD
BD470723
BE0DE7EA
3DECFC40
3D36A520
3DAAE05A
BE26A543
3E48F8D4
3E362315
BDBFF67B
3CE7D267
3BBD364E
3E7C4256
3E61E6B2
BDBCA7CA
BE232E17
BD24939B
3C899E9F
3DD19122
3E5049E6
BD665FFC
3DFF604D
3D98AC9A
BD935113
3D2DC0F6
BDC1911E
BB9B52C8
BE03574C
BE0439AF
3EA9C663
3D2B5C6F
3E2BA69F
3E87EB51
3B1BAD52
BD2C8986
BE81342D
3E0DA639
3E21F468
BE667F11
3E2CCAAD
BE92522A
BD7ABE2F
BDED11A4
BDE5EEC2
3E33C346
BDACE5C2
BDFC3C0B
3E5EB222
3E1789FC
3E0AFDC0
BD554328
BE5A2D73
3D03295D
BAA1C59E
BD839813
BA371137
3EABC640
3D66CBF7
BD86CA43
BBF23583
3DB5483D
3DFE2783
BE07A765
BCAD485D
BE649E67
BD875025
BE396151
3DFFEA74
3D4FD098
BE179C92
BE3598FC
3DBB21BC
3DC086E6
3E310576
3DD89799
3D385DB5
BD354262
BE8C9ECF
BE14737D
BE0FFFC4
3DDFC654
3DEE614A
3D5321C8
BD0F2811
BD81B380
BD24E184
BE25571B
BE4324CF
BE67BF91
BE173BA1
BE12B679
BE3B5ACF
BE963769
BE3111F7
3D02818A
3DEFE890
3E8B37DA
3E0A5CA9
3B69AC4A
3D06C58A
BDBE53A3
BDAEA177
BDD4118D
3E8A1195
3C9A32C1
BE1424E6
BBE952EA
BE362CE9
3DF0CB6C
BE2A806B
3E831E1C
3E02A250
3E6CF85E
3DBEB636
BE98D6E8
3DCB26FD
BDFBAFCC
3E773F8F
3D87C3C9
3D86F0B9
BE8E822D
3E0BCF84
3E855F28
3E216807
BE009F98
3E43A0B3
3D7CEB23
BDCC01FD
BC0CE3CC
3DF86501
3D2CA595
3CE06BA0
BD3951E3
3EA6BCD1
3CA4A089
BE8D7819
3CA0246D
BE83D263
BCA4A87C
BE11C46F
3D3F495F
3E1FAF6B
BDE66524
BD366F2B
BE346AC9
3DD3B51E
BE64E1DA
3E537832
BE41C9EA
3E839FB4
3C875C30
BEA034B1
3C8D2319
3B9F4281
BE158F78
BE9A57F1
BCE3FEA2
BE0243BB
BE1E4522
3DF8B751
BDF01B1B
BC678D78
3DA37D31
3D171EB8
BE4F3CD5
BDA6266E
BDDFBB95
BE8EE654
BD0D41B5
3EB44FCF
BE5D4097
3E3E33A6
BDA1FD59
3DFE7EC1
3E36FD2F
BE0B3FC2
3E599935
BEAA5937
3D3ABABF
BE2F4BC0
3DC10424
BDDEB1DF
3DC12E91
BD5079DB
BD9D4220
3E40A2B0
BD917F9C
3C078B1D
3AAB573A
BE9F5BD8
BD966CD7
3BE6498B
BCB78949
3E58C55E
3E70C0FE
3E25EDA1
BD9C04A2
3DE4C221
BE9860E7
3CF22D64
BEA7352E
BD05637A
BC5D9B9C
BD4D3A6B
BDEC59D3
3E976391
3D15DEE7
BE21381C
3EA04A55
BE84AAAB
BD6EF37B
3D2A0F76
BE2D4138
3D83A4DE
BD659F87
BE51CA8B
BDE29132
3DC0B9F2
BDCBE556
3CD84E3B
BE0B4E69
3B324CE6
3D094A97
3A63347D
BDA16FD9
BE0189D2
BE916434
BDBCDEE9
3D763315
3C6DF71F
3D3C47F2
3E1748F2
3D3F01CE
BD15E7D4
3DE88AA6
3E145BAF
3D4BC617
3CB55486
BCB403A8
3CCEB54A
BD9F1591
BEADD21B
BF0E8401
BE842661
BE79D53D
BE9D4908
BE8C40E8
BED17F81
BE2148B4
3E5FAE6C
3E683F8B
BBCFF3CB
3E1C353A
BDBFA342
BE05E368
BDD9795B
BCEA6016
3DF3A8BF
BDBB5EEC
3D8D7894
3CF63729
BAF2FB68
3D5E4DE9
BE402DD3
3E8070CA
BDAAD094
3D100D44
BD18114C
3DEE6602
3DE00AE8
3D58D03B
BDFB4579
BD0E74B5
3DC2FE23
BD87E67C
3D947320
BE1BBACF
BE23E278
3E999008
3DF5B673
3D10DCA4
BD9DDC33
BCE6A95D
3B220079
3DD56572
3D14104B
3C5E2087
BDA41268
BE010654
3CB913A8
3D7EB5E6
BD4A9BB2
BD23324F
3CE220F7
BDDE0E4B
BD751EBB
BD899DA2
BDF1C491
BE32907D
BDD80878
3DCE7B4B
BDA52EF9
BE34548E
BDC804A9
BC58FF60
BA86C2D2
3DA8203D
BDE8BEA8
BE4084CD
3CE4C6E4
BE236FC1
BD17988B
BE3126F7
BD4D5CF5
BD124AE6
BD7E916B
BE272AEE
3DCB16AE
3E0C91FA
3DDE5DFC
3E23EA2D
3D812863
BDC62E9A
3ADED791
3D1643B4
3DF6377A
BDA7922D
3E410E31
BB8694BC
BDF6263A
3D2C2B8F
BD771426
BD9D24DD
3D607307
BCB49239
3DEF0F24
3D401285
BDB8CF44
3DE9C3C1
3D979F3F
3E1091C1
3CD6CFF6
BE3A0B58
BE39713B
3C1FFB73
3D223E26
BD2C97F1
3CFFA4DC
BE0A1357
BDD14BAA
BE0667F2
3E2A6FB1
BD4B7E33
BE054DDA
BB943B70
3D50C156
BCD27B5D
BD9291EC
3E856712
BD1ED0A8
BD86FAC7
BD801B4A
3D69C9D3
BE5B5873
3DF28CCA
BE181125
BDF15733
3D2249F7
BD747D48
3E82A9A7
BCB56C53
BDB394A0
3DC4F188
3C81F38B
BE1AF182
BD74FC99
BCA85376
BD8B8B3D
3D507271
3EB68EF7
BE133623
BEDAA52F
BEDB51D8
BE4E47BB
BE95F50D
BEB7D4D7
BE7F59A5
BD6588B0
3E8967B0
3E4BB900
3D20B39A
BE8A3A2A
BE2DFC56
3D21F60C
3E09D126
3E0DA40C
BE9E627E
BF31D4D1
BF452D95
BF41D8EC
BEF147EA
BE111FE3
3A8EA1AA
BD5014C6
3E96E678
BD6BDB96
3D1F7386
BE253536
3EA395A6
3DDFF7C5
BD69CEC6
3D7B29ED
3E1A0AB7
3CAC1140
3D936DAF
3C29EDA5
BD6FC78E
3B8A7A0A
3E153112
BE04DA9D
BE2E1EF7
BE52F7E0
3DB8861C
BDE4161D
BD9E0C9E
3E652CAB
BD9205FE
3E2FF463
BE64592B
3E2880D1
BE536185
3E025339
BE0DFC06
3E162CA6
3E791C6D
3E0226F3
3C8B01EC
3D1EF0D9
BD94BDF2
BC1A4CDC
3E25E156
3CE9EADB
BDC3BFCC
3E7C4242
3C0BD774
3D83DEF1
3CD17192
BD4E75DC
3C78563D
BC24AA84
BD66F888
3CE19BEC
BE0235C9
BD3F0B18
BC8ED3E8
3D5C6B0B
BB084511
BD7E6FE0
BDA6A860
3D9E8E7E
3D0CD84B
3D9593D9
3DBF6CDA
BD1F7914
3E025B46
BE164A24
BE284FE0
BC671954
3D952E29
3C859BCB
BE099C32
3E0D01D5
BE0F870C
3D9FF4B8
3E26B7E0
3E07AA69
B8FEB90A
3D33ED65
BE4BB3CF
BD8EF660
3EB67DB1
3CF332A2
BD8F3BCC
BE9BAFA4
B9134E6E
BD65AE70
BD06BE43
3C80DF18
3DFDB072
BD52C0A5
3E0E3B33
3D9A462E
3E1A70A3
3CF7C1BE
3D0C8A42
BE9384C7
3D1DE5A1
3E937B51
BDB137B4
3DDBA4E4
3D119F5A
3E0BE40B
3DF15D55
BD0D6A4C
BE33C87E
BDB2B15E
3DB1BB96
3D4B332A
BE5A005C
BDA4FF4A
BE9C27C1
3DD1D9F5
BD61DA63
3D8552BC
BD38E110
3C8F42C9
3CBBC731
3D237FA4
BD74C450
BE9B6376
3D4684A7
3D9D689A
BD9A361B
3DA5D3A6
3D6A5881
3E1B518E
3DFA1852
BE2B3736
BE21F1DD
BC29D089
BE47599E
3CA84142
BE08C855
3AF361EB
3E1705B4
3D800988
BE0ED586
BE3397B5
BDE0A6E2
BDA8FD8A
BD4F18B7
3D1E8881
3E79593E
3E8B99BD
3C27CC02
BCEADACF
3DEF64F8
3E1C91C4
3DF31AED
3C6174FA
BE42A052
BE57F895
BE51D290
BC667EC5
3DDD7A64
3E578034
3D1A7CEC
BD8D4098
BD7CDC7F
BEB22C67
BED8D127
BE00E2C8
3D9AFE2A
BD5A56A9
BD34A680
BE217262
3DC11FAB
3D899989
BDB9E456
3D83B337
BCBF144D
BD45EDE8
BD0B04E6
3D353E1B
BD2D5B68
BDBBE0D1
BDD05BB3
BCA399F9
BE3B0454
3CB4A4DD
BDAE2D97
3D537007
BD4AAAC9
BD8D4D02
3E0B0596
BD29BA20
BC3B0FD6
3D4AD2B2
3D8FEB51
BE9319F1
3DFF7645
3C59E1E9
BED76754
BDA5C66B
3D5FA196
3DE0907E
3D91EACC
3E348F1E
3D960DB1
BE2082C2
BDEE44A9
BC910D19
BDFB399F
BE3F9519
3DB2CF2E
BE045E92
BDE7B2DA
BE789155
BD4F498C
BD38BF37
BDBEEE7B
3C3D81EC
3D0F2097
BD9B0E00
3CDD6DFA
3D2A46CE
3E439AF5
BDB3D968
BD8C3EA6
3DE42FE8
BD8BBA9C
3D9C3815
3E91A1F0
BCBBD8C4
3E5BD01F
BD6F71C0
3E451DA5
BCF988A2
BDD58BB8
3E1AC809
BE014E35
3CDB8EFD
BE35CAB6
BE24C6AA
BC3888B3
BDBC2082
BE568633
3DEF4B04
BD80FBA9
3D0AA18C
3DA8E4DB
BDBC2CB0
3DC429B3
3DBD8D0C
3DBD87A3
BD2B1BDA
BD431A2E
3CC38FCD
BE2752C0
BE4ABE49
3E091482
3E42EA89
3E3C3F7A
3D522B9F
BDB1DD4E
3DFD10DA
BD93ECA3
BDEB0707
BE1DEBFB
BE9447F9
3D0B1CA4
3DA826E7
BEA43025
3E6E3D0F
BE114743
BD5476C8
BDA9E489
3D390230
BAB5B471
BEA72E7F
BC96EC86
3DCDD731
3D3610FC
3D7C9AB8
3E081817
BDE76959
3DA5FA7B
3DA5CC44
BE3299F3
3B27D6E7
BCE23275
3E0B944C
3B138536
3DDB092E
3B83558D
3CD5F5A0
BE106FC7
BC20DD50
BE3810C7
3C8F183C
BBA26C60
3E3E9C4C
BD35061F
BE977EAF
BEC0FFFC
BE02A8DE
3C9AD2EF
3D49B1A5
3DA55204
3D18D3F4
3E2CDE7F
3D8BDD95
3B8EB97D
BC4F40A5
3E07AD44
3E2D8D01
BB9A6F85
BD86A07B
BE0DD6DA
BF012EDB
BE7A7ECB
BE3AE9FC
BDB6CECC
BDA4DDDF
3D99C74C
BE38B3BA
BE29F341
BDBE56F8
3E587945
BDCD8DF3
3DA1026B
BC670BBD
3EFA10DD
BE190C62
3CCA8A3D
3C3D32E6
3D7AC55E
BD1784FC
BCE670E8
BC8C04F6
3E452B62
BC43DAF6
BC473452
BE0B25E9
3E144AB9
3DC15A5A
3DFF19C9
3E55DD61
3E91CC24
3CA13920
BC971535
BCFCDFFA
3E1BE0D8
3D2910B5
BD6AA7CC
3CD94729
3D67D0CF
3E0130A3
BE1129BE
BDB9204A
BDBB2480
BE0EC043
3CA58A99
BD020617
BC84BB96
3E4E3CCC
3DB6ECC6
3CF0D81A
BE16F926
3E9A4E31
3D2E1178
BCC8A49F
3D058B8D
BD6D96EF
3E90CD53
3E1E3A12
3C85DFE9
BDCB4DD3
BD9B4CA6
BD69FC25
3DB0710D
BE42FEF4
3D65D4B1
BE1908FA
BD9ADC4E
BD994A34
3E78E637
BE31E3DE
BE15BD07
BD74198D
BCC6725B
BE21B684
3DA160E3
3CA33320
BE4CC6B1
BC7DFF6A
3CD8A64A
BD51B3A4
B9B44DD0
3D8AD51B
BD4231D1
3E1A7A27
3CF04126
BD0B299A
BC347ECD
3D29C1C5
BD19FE1B
BE107D18
BDA36B32
3D8D3753
3B98E088
BDE5C902
BE42106E
BDE481B2
BD81DAB3
BD828114
3E1E0752
BDFF57CF
BC13A1CC
BE2BD175
3DCC75CB
BE6FAE9B
BE2B9403
3E6EC8C2
3C94A6A0
3E4DB185
3E3FE91D
BDE7F7D9
BDD858E5
BE96BC9F
3DD78649
BE33FF18
3D77DFB0
BC0407B6
3DA414B0
3E64A8F0
3E80A075
BE3494DC
BDB1475A
BD753BFF
3D8E9502
3D706C34
BD7FC86D
3D9CF3F7
BE3CA298
BD444381
3E3004D3
BD6C8EEC
3DADC25F
BDB79C31
3D2DF98B
3E4FB310
3DCAE03D
3DA28631
BDAD176D
BD8FA5E9
BDF17B0F
3E2B2B0C
3D2AD5C2
BEA98A87
BDDB9F48
3E83B374
3E816235
3E4638AF
3DE85B18
3DA2993D
BE472962
BE4C3AF1
BDFD7160
3D536E3C
3D766DC3
3CCD00EA
3DBF601A
3DC3012C
BC9532C2
BD3683C5
BD68B284
BD44E910
BD5BEA92
BDF24166
BCEC6665
3CB71A08
BD395107
3D68B627
3E6AA30C
3D709AE8
3D0B6A29
BDDA615B
3E062790
BE53514B
BCA28500
3D72029F
3C628C92
BD7645B2
3E0838AD
BDE7DCA3
3E2B66CA
BE1B79B1
3DD031A6
BDDE42B9
3D7DBE34
3E90C4A2
3E8068FA
3D833138
3D5F7B12
3D9FE5F5
3D2BF2DD
3E73BBF6
3DAE76A0
BD216982
BD416568
3E55F02C
3E39F589
BE264006
BE81A5A9
3DC96580
BA99230D
BD998151
BE2C2BFA
3D706B80
BE23D0E1
3E4BC4A3
BCB61876
3D3AC3B6
BD310256
BE0C72F0
3E0EA8E1
BD783454
BD60A6EF
BE19E02B
BC755EDD
BDF19165
BDD7B1A5
BE079625
BE989DC5
BBD5EFF0
BD5E0968
3CFAC9D5
BD8BA757
3DF3F332
BDA29998
BE488758
3E2113E1
BD898876
3D430A03
BD86D409
3D902209
BDE355DB
3D9F8987
3DC5DA99
BE101DFD
3CC35A73
3DCD2517
BDD4A6B6
BB34289E
BE190C8A
3D2DE45C
BDF40513
BC89ECA3
BD9D9476
3D9F7311
3DC3C33A
BB8DC114
BDBCD0A7
3E0AE9DA
BD97C1C8
3D20B5F8
BE862C8F
3DB03BEA
BDCCA46D
BD004E5F
BE60A343
BD652305
BDEA0A2A
BC2A7B54
3CAD9D6D
3CC69530
3DA317D6
3D7B6950
BC69EA3F
BB87DE9C
BD523509
BE108122
3D6E6259
3E484ABD
BD85F872
BD953538
BDD204B0
BE9BF891
3DCC7A5C
BE1506F8
3DDCC3C8
BCD2FBDB
3E41E761
BE811838
3C4D355D
BD4D2BDD
BDBBAD02
3E323F4D
BE1658E6
BD8EC5EC
BE432E5A
BDB8868A
BCE62BCE
BE0D7053
BE02F89C
BE00DE10
3E6615D8
BC13D20D
BD6319BB
3D6133F5
3E26D118
BD4F5D4B
BDF76C63
BE554C77
BEAD29AD
BEAEDA66
3DD66E29
3DCD03BF
3E30BD81
3E0FD0A1
3E45694D
3E60CDD6
BC378E41
BE5D0DA8
BDAAB1E1
3D0BBEF3
BCB94912
BE6F29CD
BEB84A98
BE8C2914
BE472A0A
BDBA9D07
BCBA834E
BD58A04A
3DDA62B8
3E1474B2
3A7A67CE
BE4781BA
BE29CAFD
BDA6853E
BDF1B6B9
3DBA6795
BD936683
BDC02E72
3DB64C4E
BD1717BC
BBB3D400
3D24A8EC
3E0F1CCD
3E5F329C
3B75228A
BD1779F5
BD5E8FCB
BD7EAE64
BE032F01
3E04E754
3E8FCB2E
3DCFF88E
3E52F464
BBDB9991
3E8B4C7C
BD95F88E
BE58130F
3CDC43D3
BE1BE0EC
3D853A44
BCC9E4E1
3DEB450D
3EDA3A95
3DA7A00D
3E7C7FF7
BE2A1032
3DE020C5
BD77524C
3D1E05ED
3DE524F6
3DE26D12
3D889600
BDC2794F
BE4806DE
3D982397
BD8C4973
3DB5B15E
BDAB104E
BE47EE18
3DE095CA
3C4466C2
BE716CA4
BE252F50
BD89C69A
39EE288D
3DCE36B7
3DC52C96
3CE9DB61
BD52A539
BDBD0E0E
BCBDAE3C
BD891336
BE13B30C
BE5DB489
3E33BA2E
BD41DC59
BD0C0DC5
BE84C935
3CBA6DCA
BDC69564
BB53A32F
3E2645F2
3EA9B7C6
3E0DBFE3
BD0C9824
3DB6DBAA
BEF0C426
3E0AE452
BD9E7E6B
BC7DDE7D
BDDB1C94
3E7B034E
3E6BDDC0
BCFFB750
3D7A2F08
3D26FB82
3E52F618
3E311A39
BD192C87
3E37E4AF
BE4FBF5B
3E3E50DA
BD37A06B
3E816BE5
3DAE91C9
BCCC251D
BDA14370
3E0F6D04
BDB8E5C0
BE20E28B
BE80898C
BDE5E941
3D097A0A
BC158DA4
3E01D606
3E60DD1E
3B231B85
BE5E6B5B
3DD1DB52
BDD71A8C
BE3D67AD
BD9C5186
3DA7E071
BCC26B95
BDB02FB4
3DAA90AE
BE186ACC
3DE119CE
BD2FD51A
BE1B9F77
BBB6F79F
3E2E4727
3E9844B9
BDE3ED88
BDD5C8E7
BE15BD3D
3DCC4DC7
BD91057E
BD88A48C
BDE50954
3EA50DF8
BE603FA6
3E1D32EE
BEAB4E7D
BE92F185
BD92CC92
3D2CB7D4
3E02F5CE
BC7B1C2B
BDC13A2F
BE41A657
BCCE7A97
3E0FC116
3D84BDBB
BD10E4ED
BC0E9CF2
3DD599C5
BC36B015
3D457AC1
3D0F74DD
BD12AB4E
3D8FE9BE
3BD4470C
3DCA7387
3E4A04B6
3D11B1C6
3E0ED345
3DCA8235
BDFAD19B
3E4D936D
BDDB5B05
BD962EF6
BD854834
BE72717A
BE2A4DC6
3DCB258E
3E072F55
BD1639FB
BCD15781
3E29B29C
BC82C6A9
3DB68EE0
BDA691D6
3D8F921B
BD19258B
BD571F3E
3CB32D8F
3DABBDF7
3E4881DE
3E08170B
BC51D82F
BD2F4E85
3E4F36F6
3CAD6D10
3DF78AF4
3E3BEAFD
3DF44C45
BCD0AD82
BDC8CEDA
BDA85311
3DCB50AE
BDD3132A
3CA7D9CE
BDBB2581
3CD2B2AA
3C2E3801
BD8CEFA0
BC8BC373
BE075628
BDBFCCDA
BCD362A9
BE2FDBD3
3D4E5BC0
BC4F141A
BDCA6263
BE0C6061
BD3DF33D
BE119356
BDE564DF
BD9C55C3
3C33F215
3D2347D6
BD236F6E
3E613C33
3DC6E37F
BD109A4C
3E28469F
BDFB4868
3B87E1A3
BE118237
3D8DD9E8
3DBFFC38
BBE3A009
BDA08709
3E1E1134
BE13FCA2
BCB6C18D
BD8D6700
BC23021D
3E4A97E8
BC6F2405
BC1F60DB
3E84D796
BD419744
BDE04DC0
BC7CBCBF
3C88F4EC
BCEF0571
BDFE38A8
3C8EE4C5
BE0F2552
3C6ED886
BBE43BBA
3D5FF48A
3DF40358
BD9750F7
3ACEB41C
BE08D34A
3B5CD63C
BE6B618C
BE160FF2
BE91D82C
3D941F10
BBFFEF95
3C8E8F24
BD540F51
3E246485
BCF45943
BD020E40
3E0EE972
3D6B112B
BE550911
BE6BC21F
BE1973F5
3CD3D5AB
3E46A2EE
3DE49808
3D9920F5
BE6CF13D
BDF046FD
BCC51635
BDF5A94A
BB61E6AD
3DD1FD08
3D8B34DD
3DBCF913
BD837694
3E4A8397
3E2BEA41
3DF75841
BE79EC2D
BDA28CEB
3CB1C3A2
3DD7DC6D
3C19AFF6
3DD4C023
BCCE5050
BE99014F
BDC3BA71
BE26FBD2
BE092E62
BDC4A4CD
BE725ED0
BDA7FB2C
3CDC97FC
3C7D2900
3D8E9F46
3DF4C081
BDB20CC3
BD9CEAA4
BE0CC829
3D8F4148
3C717FD5
3E04761C
BDD33292
3C9E478E
BE3E5EB8
BE806E3B
BE1E512B
BEC25D69
BEFAB145
BEC3258E
BEF866C9
BE958076
BE9B8133
3E4C37EE
BEBEC34A
3B0705EE
3D7738BF
BD241642
BE0F9322
BDC3E723
3D1A17C6
3BF17D7C
3DB5C0C4
BC4043C8
3DBB1FCA
3D8BDCD9
BE4DFE2C
BE5C2F2C
BE03E4F6
BE4BCA61
BE1B5C4E
3EDA3BB2
3E2D573D
3D86624B
BD827E18
BE4FEFBF
3E4C88DA
3D118706
BE091D29
BA5F6E81
3E74AE78
3E744BE1
3E8E1222
3CA68AE9
3ECCAA28
3CC94370
BDB92C14
BD78F2B8
3E23E7D8
BE05C330
BD5461C2
BCFD6216
BDACAF6F
BE1E6B7C
BD83154B
BDCC9F02
BE11014B
BDBB16D7
BE60B63E
BD8E8241
3E85F86E
BEA565F5
3D8E583D
3D9D61F4
BE14E612
BDB7D7B5
3E1D6AD2
3DBE7EA9
3DD1D29E
3E0E56CD
BE17DCE6
BE42759E
BE4F754D
BE081755
3E23FD86
3DD6A678
BCF01D9F
3DC03699
3DE7B16F
BDE71F87
3E4C939A
3DA5E332
3E279AB5
3E1EF6A8
3E4F6387
3E249074
BD8E933F
3DBA3552
BDB2F5B7
BDAF34A5
BE87AF9D
BDC38F3A
3E332F2A
3C0918A8
3E622333
3D915C16
3E1C270C
BD3B902F
BE2FB7DC
BBD0FA3F
BE06D535
BE1B6EF1
3C6FCA73
BDBD0DA1
BCA2656B
BE20BE2F
BC1153CE
3D301F8D
BD040B45
3D7E73AE
BE480C3E
BDAD14CC
BCDC68C1
3E13D6E2
3E101C27
BEB883D5
BE5440F9
BDA0D416
3DBF37AE
3E32D6F4
3A9E202B
3E27B3ED
BDE022C3
BE99ED22
BE7B4A66
3D18870D
3DB6D13F
3E2F4AAD
3E655C7B
BDE91E64
3CCA3EB3
3DF5E8C8
BBA7EF5F
BE8ACE40
BD9F1A91
BD3D4EF6
3E5DC3B0
BD4C1758
BE6F6F60
BEA63008
3DFFA616
3D2C41E5
3EBE2EC3
3E6A63FA
BC4BCEB6
3E33BF43
3E6F045E
3E6838C1
3E8CAD9B
3E20ED8E
3E2519DF
3E202745
3E34855E
3DC02706
BE1CD233
BE62FF23
BE563865
BDAD9593
3D3ECA50
3C20CD01
BE65E50F
BE5A3BEB
BDB64A2D
3E0A584F
3E24911C
3D2D6AB2
3BA1F77B
B9E03D38
BEBE1998
3DEAFA2F
BE5B0CB8
3C0B511E
3D98DED8
3E6AE84E
3E416943
BE4C3A7F
BE04C906
3E17CDB9
3DD2E5C3
BDC9850C
3ADA1524
3D8F5407
BE16B710
BDEABACC
BE8F73CE
3E58B55A
3E403871
BE37BE63
3D9370EB
BD0780BD
3E6D38C7
3D09D98B
BDA66CC4
3EB2C054
3E081026
BE0BABFF
BD177C7B
3E2308A1
3E0D9437
3E5FA0CA
BD8AAE13
BD160233
BE4911C8
3DAA0157
3C166FAC
BDC2DCF0
3D79779B
3DCB18DC
BE5B5FEC
BD9CE444
3E5D29C2
BE8B8FC0
3D793261
BE1EC1C2
BC9E116E
3E400FC8
3F08FEDF
3CF491A2
3C9B9FC9
BE294163
BDB496D4
3D521782
BD477D45
3E7AE3D3
3DCCCA1F
BE68545C
BE5528A1
3DB4F10D
BE2B8074
BE38E9E3
3C718F04
BD0DC6D5
BE831529
3D0E0AFB
3D3661FC
BB7D9B59
BD9A4E1F
BEA15087
3E0F4FFF
3EA7EA99
3DEF13EA
BE7597E9
3DD05C6F
3E98B806
3E29F8C9
BEC0CC2F
BDDC486B
BE4C4312
BDB28E52
3DA9EE0F
3D28125E
3DA688F3
BE284BD0
BE9D6C3C
3D0C059D
BE0CFC90
BE283FE9
3E9407E4
BE5ABD7F
BD3C8138
3DABCC12
3E285F07
3D86DA1F
3D8D6BDE
BDAC23EF
BD6D53F6
BDF0862A
3D4D142D
3E6F5E92
BD9911F9
3D160937
BE20DB78
3D12AF24
BEABFD28
3D3C2BF5
BE67F393
BD8FB836
3D8979A5
3DAD54D4
BDD01C85
3E66CFEA
3D632A3C
3E8F888E
3CC6F004
3CAAC896
BE964997
3D8B3DD2
BC973DDF
BD0BB779
3E1FEFE1
3B813964
BCD96973
BD146072
BD487F0A
3D916C93
3E20B729
BE21CE80
3E7A63D1
BCD06CAA
BD98A6BC
3ECB989C
3EA6E44B
3EA024E9
3E8A0A96
3EA54E1E
3EAEDF1E
3EA0F9B1
3E1EC926
3E2B4F90
3E8D9363
3E6C0322
3E07C3A1
BDF528AE
BE8587DE
BDE57C84
3DB4DD30
3B1306EA
BD29D767
BD927EAD
BE65FA9B
BE5916D8
BE607FF4
BE818AA5
3E413562
3D44F55D
3DBC75F9
3D031983
BD09196C
BE58CAA3
3EB768A3
3E8E29E6
BD832FA9
3E3DE3AB
3E1F5E13
BD2A6F0A
3D9741AA
3CA864AE
3DA39F2C
BE9E159F
3E015641
BE74DA9D
BD303377
3E007B64
3D11F070
3CFB9D3A
3E4B7260
3E114CBD
BDF6CE5E
BCA734C8
3E79521D
3E851138
BCEA1624
3CCC78FA
BC1661DF
BE2C232B
BE16EFD1
BD08D6C6
3C4A1974
BE54B2B7
BDC749CD
3E9FCBED
BDF7F8A2
BE117805
BE1D16DB
BE06E29B
BE9EBB99
3E2210CC
BE1C5EC0
BE87922D
BEBD98F2
BE24C0E6
BE104791
3E22211A
BE531DC2
BE78DD25
BE8ABF84
3D57CCD3
BC98A761
3DD821D8
3D2F7D06
3E6F48AF
BD68D628
BDCC637C
3E023FB2
BE65E658
BE2CA065
3E1F12F8
3E49013E
BE79E61F
BD0E800E
3D8D06D5
BE2503E7
BD6426A6
3E4BC892
3E46F0E4
3E110661
3D9F1BD8
3E080636
3D98DF6E
3D0D590F
3DDAAB7D
BCAC3D2B
3D06A8EC
BD3B03B7
BE1777D8
BD9AE0A7
BE51A445
3E6B6318
BC454FAB
BE2BF6A8
BE51EB2E
BE5C146F
BE978EC4
BDAF3A8B
3DD8D9F9
BD8E27EA
BCEF8905
BE4BDE03
BDB312CE
3EAF4A20
3D89343C
3DEC9BAD
BE628834
3EC379A7
3D8222CE
3DAB18DD
3D7B82C0
BD9E18AD
BEA71DD2
BE3A1280
3D74204E
3D931C7D
BDE5C58C
3DAEEF90
BE1F4C7C
BD5C9CAE
3CF15E21
3CD44A1A
3E7B89F2
3D8D2685
3E5718A8
BD47D019
BDDADD74
3CBB72C2
3E175240
3CC53B73
3B2D4D6F
BE2313E0
3E49342D
BED6818F
BE2D30A7
3DEA8E7F
3E54AC30
BCD0F7C5
BDE83142
BE7E6E44
BE108FD7
3D9B00DA
3E6A765A
3E6F116C
3E6F4F43
3E5C2A09
3DFE5D33
BE0C22B9
BDD64A8F
BA5EB183
BCF94465
BC3901DF
3CB51942
3DDC2B6D
BDAB80C6
BC621AD2
3CBD7E8B
BC9B5211
3D80B9CD
BE1DEF99
BEBEFAA8
BEB31770
BE86CAF9
BE3A09E0
BE1AE9DA
3D67B437
BDAF4482
3D8C4F5D
BD239995
BD0D5F8A
3E001ADF
3E3C2D0D
3ADEF4FF
BDBE108E
BE2A1A86
BD8CE774
BDE477E4
3E462BC9
3DA5B74B
3E1EF065
BDE2556D
3E049BE9
3DB20B45
BB2E688D
3DA69FDD
BCFD6DA4
3DF38E52
BE05AFD8
3E5F18CA
3D588090
3E8D348E
BD6AAE95
3E12C083
3E3032DB
BE05ECC4
3E1CCD9D
BE1A3E98
3C35D32B
BDF5B97D
3D7E971F
3DBF11B2
BDF71BF6
3E0BBCD3
BE1CF06D
3E7ADF07
BDAEEEB2
BC832EF9
3DA979D9
BBE04F85
3C9E2B9F
3D669E90
BDECFF14
3D364E8E
3E834FEB
BDAD791E
BE20DEAA
3D8C3ABA
BED0BA0F
3CC6F2FE
BE0B3666
3DEE08A2
3D6CF099
BD1CF970
BC8BBD48
3BA52C99
BEABF225
BE5D4838
3E16AD56
BD6C4A41
BD403B6A
3D68E48B
BE1074B5
3E0ED4E5
BE1EAFE8
3D368B8A
3E5171BA
BECD00C8
BC8B4253
3D4CFA72
3E40B2A0
3EB27371
BDB80038
3D86B4B2
BD41812F
BE544623
3D147BE6
BD158868
BAD68D62
BE6781B3
BE09E59F
BCDA32C1
BC578BC3
BDBB1B34
BE4D87B5
BD89E45C
BE2A215D
BD852027
BDABE614
3D441DDF
3D7218DC
BE3990C4
3E81BB10
3DDA8361
BE3D9026
3EC6329A
3E1675EB
3D3E370B
BE5B72B1
3D93275E
3CFD1CB1
3DAB3566
3C5CB31F
BDAC3AA1
3C89BE2A
BCF43C98
3C73FDFF
3E10DE24
BD49BE6D
BE833295
3E6E7587
3D515B6A
BC8EE246
BE34AFBA
3DA581CD
3E14EA1C
3DB97BD3
BD6DBCF5
3CC5864C
3E383375
3CCEC7B9
3DF87E89
3CB37263
BDC7002C
BE074879
3D9C6500
3E0F8D06
3E665182
3DB14613
3DBE26AA
3EA59AEC
3E6FB572
3D594BF1
3C216872
3E59D2CD
3C7D0960
3D851544
3DB07182
3DD1AECF
3D3BA225
3E277857
3D588641
3E08E094
BD826CD6
BDEE76FE
BE50640F
BE87F679
BE544D4B
BE51BC5C
BD61D1FF
3DD9999A
BE870864
BC8BA580
BE283C81
3E487FCC
BC59A583
3DF142A6
BE3CD694
BD99F10D
3E900E10
BD345B34
3E1EDF9E
BDE11D87
BCD027C0
3D977A9A
BE4C8593
3C1D63ED
BDCF69D8
3E1CBB2F
3D46845E
3DB1ED0A
BCA79352
BDBE4BCE
BD9A01E0
BD9FBF33
3E35C3C4
BC4C0FAE
BD606263
3C2E5DCC
3E6DE291
3E41F3D4
3DD6D96E
BC69577D
3DC578CA
BDCC1C46
BE007E89
BC5F6810
3E6B3370
BDCFFF0E
3DF9A870
BDC6747E
BCE133A2
BE4B2188
3C444AD3
3DBE533D
BE501BDE
BE3A635F
3A0C6B9C
BE4F0564
BD0BABFE
BE36A7AD
3E14DB38
BD626F33
BCFF580F
3E38812F
BDA85069
3E65075D
3DB786BA
BDA60C15
3DFA13D0
BDB87DE7
BD3F6729
3DFAA50A
3D84E3AB
3E7D4D91
3D06D326
BA14F586
3DCC6F38
BDB97E5D
3D9A1E63
3E24CBDB
3E68E9FD
3E1C8E2C
BE13A1F5
3E94B447
BDB03A98
BDDAD935
3D1DEFC5
BE2B9DD7
BE26177F
BD30FCEB
BD31DB5A
BC9F79DE
BDA4A7AA
3E0346C8
BD17C993
BDB949D2
3D61EA79
BDF64402
BE651D84
BD7D8FAB
BE322FE3
BDBB9527
3E05823B
BD8ACB7E
BCAD3F6E
3E93B72A
BD21D423
BE0F73F6
BE933B72
BC50AE23
BD392634
3E91AD00
BDA4AA68
BDAC0209
BD372DC4
BE51759C
3E7B93B2
BC7F6A64
3E02F640
BD016637
BDB898DD
BD8AE928
3DD9A8E9
BD67655A
3E8165D0
3EAEDE15
3BC988E9
BE5C154D
3D645C4E
3E88A397
3D396485
3E141483
BD697300
BDB314D3
3E9EB8CE
BDB3E214
BE5F76BE
BE959C61
3E58A56A
3DB4CBF3
3DEB8009
BE71AB6D
BE57F79D
BE50EC60
3D37A337
3E252B8A
3E84530C
3DC4A7CD
3E19F5D9
BD004E2C
BE0ACE75
BE880387
BE998578
BE89FB39
BE50E714
BD69C4C8
BDB451CD
BC7A5DF5
3E89E1CF
3E5A0CA1
3E451E03
3DE5DD82
3E51C942
BDED1534
BF118371
BE972587
3D74B597
BD2D8186
BE1FF936
BD03C07F
3DA6F76A
3E3889E3
BE02DA9F
BDA13511
3E014C2A
BDBEEA5C
BE6C8E1F
3DEC679D
BD16ADEA
3EA295CC
BE5FD99F
BD976026
BC74D87A
3DF4369E
3E2BC8CE
BDF817EF
3CE670AD
3DF29A7A
BD9B1FCE
3D19D523
3CF9B3F6
3D7E031B
3D449253
BE17D3FC
BE12D32D
BE123D5D
BE55C3A9
3E636687
3E1B9F70
3E724CFC
BD992AF0
BC93AE28
3D87A7CE
BE397721
3D3364B7
BD1C6D34
3DDC4794
BCC6FADB
BD19D003
BD3B4200
3B85B7A5
BE558D66
3B89D398
3E23B9DD
3DBBA981
3D57E5F0
3D099DF9
BE5E27F5
BCB6DB44
3DAE2BC8
BE61D643
3D934802
3E23C057
3DF7A23B
3D943B1C
3DD734C2
BDD57B6A
3DCDAEC5
BDC1B81A
3D982350
BDCEABCA
BDA96F2F
3E1F5BCB
BE0AEDCF
BDE2AA34
3D211338
BC5186D1
3DC8C547
BDE1AC8E
3D831AA0
3DDA1C84
3DC8F458
3DB5BD54
BD3D2191
3D3A8D07
BDCF6018
BDFAF790
BDDD6112
BDB411FA
3D8485EF
BE056B1C
BE689705
BDDCA75E
3D00D9DD
BD42DD5D
3CE2A6CE
BE6EB639
BE0112D5
BB86F81F
3DF4317B
3E5920C7
BCB05FDA
3CD71D68
BEA1A0DD
BDFFA087
BD06B97D
BC901359
BDF8B985
3DD3EE44
BDF9DB8E
3CE165BB
BE8D22D3
BCCC8AF8
3E030E94
3DC9047F
BC1B8158
BDDF1F58
BDEC7531
3E057AD6
BDC7CB5D
3E01A679
3D99C277
3DB6D6A5
3DAC127F
BE3A254C
BCD3E2F1
BDB186E9
3D06C1D3
BDFCBF7C
BE800849
BDCB3C2A
3D3B9F4B
3D1957D8
BC66AC7D
3E420BE5
BE5599ED
BE04DE56
BE152DD9
3DC9237D
3E1F98E6
3DBEFC2C
3D281AE1
3DF42C3D
3DBA8F12
3E541695
3D770837
3E376548
3E69AB6D
3E964F2D
3C7CD3D1
3E0D1E90
3C545EB2
3D887DEE
BE5E806E
BE4D8080
BE73BAA6
BDF0A534
BD0E9A2A
3D098B4C
3D46BCE6
3D546E74
BD4AA5FC
BDCC9D03
3E592ECD
3D975F12
3D482F94
3D39F948
3E7D0119
3DD53A9D
BD44193F
BDE3AAF3
BD4D45B9
BCDB66A9
BBCA6886
BD128EA6
3D5E8206
BE1E06BE
BEB4EDA9
BD80E266
3E1615CA
3DCEB944
BCE0F427
3E08E842
3E326953
3C8DD27C
BE28C5A8
BD8D5216
3D44FAD4
BDE1BF45
BD130213
BE3D90C7
3DF3BD09
3E0A2C45
BD2663B7
3E023CA7
3E1F8FC7
BC3CBEC2
BC4B823F
3E137098
3D6BE117
3E0D8CFA
BDCAFABB
3D3DA456
BDFE54C2
3E77B917
BEC20F62
BDC36A57
BDBC5787
BE3F28D5
3DE7E613
3E4DEAE7
BD450BD3
BD19F211
BC9D6E5B
3D08EBC2
BE4CC10E
BD51DD80
BDDA006A
3E1FB78B
BCDA5A6F
BE31B0EE
3C8730BC
BE59ADB5
3DD23656
3DF43881
3D6893F8
BE39BECC
BDB45A95
3E27FBFD
BE1A35AE
3E520BD1
BE25CF39
BCAC00A4
3D4DF3D1
3B11639E
3D0324E0
3DA24417
BD11B3D2
3E2C4172
BD226413
BE115585
3D1F4616
BE16A8B2
3DA5F5AC
3DFC6A14
3DC2A10A
3DAD000E
BE397C6C
BE2803E1
BE0EEF9B
BDEB1F9E
3E225185
BDAC2A7F
3D827B93
3C29E968
BE10041E
BD2718BB
3D643ABD
BE80004D
BCCA623F
BE9B7BE1
3E3C58B9
3E1C7567
3D976065
3DA92F52
BEB1B775
BE889B66
BD9D1D8A
3E0ADED1
BE0E1544
3E9EF208
3D913594
3CB3F3B3
BE1A2A04
BD0D8427
3E0EAF25
3DABFC4E
3E365BDD
3E75651B
3D81BA6A
3D80A93F
3DBEB15C
3E422D5F
3D0E487D
3DDD9A88
BB982507
3DD63180
BDB4923F
BD82C992
BDBE2761
3E387790
3E0685B3
3DAD7CDC
BD93A308
3D7375C1
3E0DDFA2
3B748511
3B66D7F7
3E0C6533
3D813AFD
3E1064DF
BB287C87
3CFB6A5A
BE3DFE68
BDF801DC
3E338053
BD3CA6F5
BE08E3CE
BECD8A29
BEA0570F
BE964C0B
BBB36C04
3CBD28DB
BDEF08E7
BDCF4E01
BD33CCA9
3C58C57E
3E5F2445
3CBEE441
3C0E3497
3D8F29D7
3E80F313
3E08243A
3D91DF7A
BCF67C53
3E8A3A37
3E1299BE
3E6139F2
3E29FC74
3D299895
BBC9353E
BDA3A611
BE9235FB
3C6EA98C
BE6CEA07
BE545E26
BD906553
3E01923C
3D5D8386
BE02CB7F
3CDDEC1F
BE5A28B4
3DA39B56
3D1025D8
BDA5C2CA
BD69E155
BDC3B190
3E963634
3E0A8750
BE30B447
3E35A2D0
BE3B00B6
3E074E81
3E320E26
3D897934
3E289A09
3D500FB5
BD9A76C3
3E2C3D11
BE5F9C2D
BDB9E72A
BC1BDEB5
3D6EFA7A
3C4FA377
BE19CE65
BD868B1C
3E63E737
BD078222
BC0C27FA
3D7DDB73
BA45340A
BE250F3A
BD35A91A
BE315F4D
3E733780
3DFD27DE
3D17D031
3BCE1D49
BCE4C110
BE31C1C3
BB2ABD6A
3E8E7614
3D466B2C
BDABA674
3DD2FB93
BDF082A7
3E0AF584
3DE5E3F5
3E120309
3E7AC1E0
BE1996F4
BD3871D1
3DE05FA1
3E153A74
3D90CBFC
BC339C04
BE1F4D8F
BDC16D29
3C7561AC
BE43BAFE
3D499959
BD8612AA
3E91A3E0
BCC4B30D
BE120726
3EA2DA34
BDA97681
3C70EB9B
BE50AB27
3D823C3B
3E0916BD
BE5DD2DE
3D907D55
3E0B0992
3DA77C14
3DA8DBBB
BDD82FF2
BE88F83D
3D341ECE
3E3CA531
BD57E928
BE284ACA
BDB13117
BDED840A
3D942DDB
3E0E42E1
BC08CFF8
BDE71F0E
3D70C0F8
BD9DA145
3E355645
3D928CB8
BE1D2744
3DD5376A
3D37A5C6
3DCDB694
BE25B42B
3E46541A
3CA5D181
3E02D886
3C368A0B
BD3B58FF
3AF84D9E
BD3F9DED
3DB4894A
3DB62DC2
3DB013DC
3DB4C425
3C0CCAFA
3DD42B8E
BD754231
BEBD78EC
BE88A5B0
BE7106AB
BE370EAC
3C7AF448
3E29277D
BCD2003D
BE076B50
BE349CCD
BDC52EE9
3DE9A184
BCB4B4B3
3D838558
BE32167C
3D090CB7
3E0D7EB1
3DA9F4EA
3D6C6320
BECA258C
BEC6CDD4
BE893522
BE4023EA
BE7249FF
BDDBF2DA
3CD87592
BD4F561F
3E378A6E
BCA0F62A
3E600537
BD0A225B
3D4C4139
3E1AF6FC
3CB4722D
3E34CD10
BDF7E331
BE44D16A
BD4057C7
BE2FC9F2
3CE3409C
BDF5D6DA
3E193484
3DA3DFEC
BD1E52EF
3D73ED5D
3D82E81D
3DBD4353
BE3D2151
3E00EBC6
BD26BC6D
3CC9D988
BE285FA8
BDF9D3BE
3E03D0CD
3E118EB9
3D44571A
3CA7D735
BD55301B
3DC04898
3C5C20BD
3D9ED520
BD7DF216
3E12BB66
BBFD01ED
3D96D463
BCA77BD5
3E4702ED
BD588F40
3DCBB31A
BE5E610D
3C224773
BE3795CE
BBE9F529
3D89B387
BC519B73
BC9166B0
BD1F4ADC
BE9B8738
BEA8D287
BC8030E8
BE0AC1AA
BAEDB78F
3D6A5378
3E4EBDCC
BE28A592
3D11AEC9
BE44ED69
3E8209FF
BD7F0EDC
BE4E64CD
3CA6A52B
BD2C823A
3E90C6D6
3D7D9C50
3DC79FE9
BA5C030F
BE3D6211
BD49684E
3E1D8574
3BA9F8BA
3E0C1E1B
BCCE5CBA
BE9F2010
BDE5C1EE
BE00F331
3D390A5D
BD61A128
BC9A9A0A
3D7C6871
BF01C4FA
BE11F341
3D9F47B4
BE19C836
3E009C44
BDC24FEA
3DC62652
3D1032FB
BEC944E0
3D666745
3DC530DF
3D1A2A91
3B63D9DA
BE9299D9
BD9595A2
3E7DD950
BDDAE6AE
3CB31B10
BC98B107
3D8DD5D3
BD847ACE
3E78EFF7
3E23808F
BE153E2D
3E0FDB0A
BE507505
3DD694A4
BE21218A
3D056CDF
BD4C3A93
3DAF0DB1
3EF5A5E8
BE911047
3E31AC65
3DF9A10B
3DE9F26A
3E44620E
BE27189B
BD9F86AD
3E176F24
BE306ED6
BCFF942F
BE646ED2
3E3A3BF2
BD9747B4
3DB0D053
3E3E5691
BCB0088C
BE96C6EF
BE67A582
BE2C3F9C
3E153474
3E58A379
3EA461E2
3E05F692
3E4E3158
3D2E8BC4
3E12567A
3DFC792D
BE015E25
BE44E34B
BE23E73E
BE4AD708
BE8C3D1E
BD6F873A
3C2BE8DC
BE5C2261
BE77DA62
BE57804F
3DCCAFC2
3D52BB39
BB34F1AD
BCDAA802
BE66059E
3E0ACE4D
BDBE121E
3EA897B4
3DC86DDF
BD8A265C
3D356D5A
BDB0AA4F
3DB48D3E
3D9E892D
BD689D15
3E317142
BE134B9B
BCBA0A88
BCECB982
3EC93353
3DAB4090
BE343FB7
3C1FFE4B
3D784F7F
3CF14FB9
BE44C158
3E3579DE
BDDA2842
3C638A33
3CBEA258
3CC30D0B
3E170FB1
3DC3EFBB
3D939DAB
3E064A7B
3E1EC502
3D24A5D7
BDAD9761
3DB31F42
3D184043
3D900BED
BE3933EA
3D362767
BD95AEEA
3C3E34AF
BD204EDD
BDC18B23
BD82CD00
BD545F76
BE2D041D
3D8951CF
3E37990E
3D3F6FEA
BDACAB75
BBD5EE81
BD87B813
BD947DD9
3D8D3B88
3DB454C6
BC32E667
BBF76271
3E816D6A
BE8D48FE
BDE6F51C
BDF20DF7
3D2E1C63
BD303ECF
BD764C55
3D850283
BE2E533D
3E30E186
BDC1C5B9
3AD1060F
3D78DFA8
BE4DA30D
3D3AEE18
BD408762
BE26301C
3E0147DD
BEB8B10A
BD88B606
3E016702
BDCEEE2A
3E270132
BE2E5A07
3E0E1904
BDA6B68B
BE273605
BDA43D2B
BD296386
BE229288
BE065937
BE3E67C3
3E6BBF8D
3E41449D
BDE7546D
BCC04DCE
3E1A30F6
BAE14AE7
BE6ACD26
BE8CCA3B
BE1DFA5F
3E5BA209
BD8D13DA
3E0BC70D
BE08869C
BC71F840
BE05C685
3DB21DC1
3D9A7EFD
BD97E326
3CDE60D9
3E096279
3D98A6BF
3DCCEB28
3E1FA8B5
BD2DFF67
3E3AFA80
3E5808F0
BEB2083D
3E15A7D2
3E4CF81B
3E82E236
3E36408C
BCCD169F
BE124D5A
3DB4CF1F
BE49DE3B
BD50A7E6
BE4C971D
3CD91D73
BD105410
3DAA3EC4
3E6CA878
3D81E004
BE3A2B61
BD8E1715
3E0D42EC
3E91BBF4
3E3ACC20
3DC3BED7
3DAD027F
3E815B57
3E73078E
3E1F47C4
3E6DD1D8
3EA0E824
3E874E04
3E27EF4D
3DB38AC2
BDB451C5
BD384D6C
BD06A264
3D5B7CE6
3E528A89
3E1BA033
BDC64D12
BE42C995
BE120F2C
BD688311
BE1D01A6
BA9CCB63
BDAA0622
BCA726F1
BC728C19
BDAAF776
3E006529
BD8D582B
3E6698AE
3E2BD9B7
BE075C29
BDBF90DA
3C31EE7A
3C3D393C
3D7D45D1
3DCC0426
3D502087
3E514BBE
3D3442CD
BE8EA169
BE0B80ED
BD1B37CC
3DE7A1C2
BDA9521E
BCD2954E
BD46E0C2
BBB4A878
3E83C3AE
BE17F0D2
BDAA8183
BD720A4C
3C31EAFF
BD578C29
BD755EA1
3DE8CE2D
3E1AC71E
3E0EA748
BB991ECD
3DE0614F
BDAB92F3
3CABD5D7
3E3E8FA9
BE0E8930
3D3D7680
3D001303
BC27B800
BD62DE6F
3D10ACC1
3E136608
3DB517A0
BD977165
3BAF938C
BDE1A501
BC31288C
3D127FF2
BCC17348
BD2CC6FB
3D3E9CFC
BA2F6319
3CC30A00
BE858981
3E01A7AD
BD9E9286
BE29B754
3D89AFC8
BE1E2754
3D7A0517
3D144C88
3D268CAA
3D825F27
BD7FA04F
3E818EB2
BE1440A2
3D93A3F7
3E70A13F
BE29D3E0
BDF30744
BB0A0079
3E263037
3D2EA3A7
BE082C97
3D117DC4
3D68E019
BE7BEB33
BD2FC43B
3D702150
BEA80C31
3982DA69
3E247DAF
3E3A83B9
3E65A195
BE3BD351
BE7EBA72
3D3F08FD
BE47A88C
BDC589C8
BE0F0BBC
BD181BEB
3DE78649
BC1A6CA2
3D7A6F88
3DED2E36
3CA2CE3C
3E66B3FF
3CB9CF4F
3E93565E
BDDF7DC4
BD278F7E
BD30A2A5
3D16DB99
BE69508A
3E1B71DA
BC65065F
3EFB3D48
BE40B5F4
BE3B11C0
BC358F6E
3E171C32
3E8AD440
3D9F7F23
BDC5679D
BCEE83F2
3E5D3DCF
BE3226F3
3D9B2713
BE8EBF4E
3E618322
3D7ACFFD
3CE1AEF2
BE662167
BE855AA2
BE67DCA3
BD0F2DEE
3B94A113
3B9B7611
3D12DE5C
BBB044CE
3E6E7176
3DEA757D
3E84EF13
3E753F18
3E5AB148
3DA9766D
BE1DEB67
BE4CB098
BEDF0846
BF02FD6D
BEBA0D9D
BEC2F142
BE5FD560
BD7F0CD3
3DC99D0B
3DFE7B66
3E090C9E
BE8639A4
3D8DE952
3DE695BE
3E99F8C5
BD4162A1
3E846523
BEAE2F71
BD173315
BDAEB89A
BDDEA9DA
BDD2ACEE
3C9AB61A
BDD2D97F
BC893736
BD1CF60A
BDA7A9B9
3CD24A5A
3E29BD3A
3D529797
BC642376
3E85DC7C
3C915715
3DBB0B4D
BD075803
3DBEBEE0
3D4339B6
BD556A58
BEA1B007
3DCFD8F1
3E09D635
3E3526B0
3D944C8B
BD517A03
BDCABB2F
3DA29A96
3E2CDE99
3DB18A68
3DAE55FD
3E9F2D1E
BD096115
BCAC4D05
BDFDC147
3DCE8717
BE627943
BD573025
BE2CF95D
BD639D97
3E08A89C
3E435AA7
BA4FD2C1
3DB13AFB
BAE819B8
3D91CC69
3C57E19E
BD90D184
3D873883
3CF466B5
BDAC73D9
BD2DF4D0
3E35FD84
BCDCC888
BCC4D2BD
BE824A82
3D88DA2C
BDD59070
3E056F2C
3DC56460
BEAA3CC9
3DDD9FB9
3CD90E44
3D755A90
BC482DF7
3D255326
BE1AC2FA
3DEFFE88
3D8ECC00
3C9260CB
BDB3E310
3D8A7908
3D66F09D
BCE11C55
3CCE25A2
3BB5BAA6
3E0CCCB2
BDFAFF02
3E14CA99
BCC6F547
3DA9A8C0
BE42AA20
3C94F79E
BD28A822
3D9DE71A
3CF3A224
BD25A343
BD5780FE
BBA5DF69
3E2FB536
BE6343D2
BD61EF9F
3DAE2370
BD9F28D0
3C352013
BC8FBEFA
3DAD76EE
BDBFC2DA
BE9CDF34
3DF4ABB1
BDFCA23A
3E55A6AB
3D77A7E5
BC8E8C6B
3C2CF658
BD5227E8
3E35C473
BDA42F6E
3EB0A0FC
3E1B424D
BCB03252
3DA76A5C
3DAB65F5
3DC21C8D
3DFD6170
3C8FB8F0
BE0CB549
3E753027
BCA71B0C
3E149E1D
BD93F312
3E202DD9
BD03DDF1
3DDFDE2F
3DF18AE5
BE8AB57D
BDFA9443
BC04F4FE
3E259514
3E1A144F
3E13B095
3C179C61
3E832703
3DEB7F90
3E1A2318
3E291919
3D48CB15
3DB98F56
3E08A676
3DDF81B3
BBC90159
BE3D42D8
BE792938
BE2697A1
BD972885
3C6F3151
BE8CD643
BE6AD023
3E4F4B7D
3C9BDD2B
3D20D69D
BCDC9AF6
3DC250CC
3D37482E
3E22BF5C
3E2DF988
BCF30D33
BE1F097B
3D8A966C
3DCDAAFE
BDA98C7D
3D0FB6C2
BE091490
3B8055F1
BDECC327
BE29AA82
3DAD20A4
BDBC2166
BE34635E
3E5F1F79
3E4834A3
3CBE6C4C
BD69F282
BCB6D7F9
BD91A29B
BCC90B5C
3DD6B442
BCC6AEC0
3D6716EB
3E17A080
3CE71665
3D4BD2C2
BE330A76
BE1F07DB
3E1F1986
3D3AEB9C
3EA22B0D
3DFEF92D
3D58F748
BE89F81E
BDF938D1
BD77C3D4
BE49DABE
3A3D09AF
BE0902D7
BE0EF185
BCB2D26B
3E6B99C7
BC95626D
3D897690
3E0C6A5D
BDEF30A5
BE53A36D
3D8F242F
3DEE40F1
BD57B92F
3D70B059
3DA8E47B
3DA7A4F2
BC952510
3E54B09F
BE423620
3D83A6B9
3CF06279
3E544A62
BDEA890B
BD28F4DC
3DDD0925
BD4A1644
BCF4B986
BE1AA3C8
BC9C2143
BD4A67A8
BCD92E95
3E9618D2
3D9456A1
BE0A297E
BE3F9691
BCBF8DAF
BD09C396
3DD5BA1E
3D9AE148
BDA80C0B
3E276223
BD3B1B14
3D40D641
3D2F7F6F
BD146F0B
3D22ABC9
BD50207C
BBBA59B0
3D41C9DA
BE14F2A7
BBAEF44A
3D8D402A
BB6AE498
3E57BD99
BE08F055
3DCD2524
3E268E67
BDA9F9A9
BE13F69A
3DDE6787
3D719CB0
3E667B66
3D79C4FB
3E3F751E
BD5CEB5B
3DA73225
3D86EE03
3DD64501
BE046B34
3E74DE35
3C8C01AB
3D3B7FEB
3E56FDF9
BD588748
3D72E6CA
3E194969
BD4338A4
3D1955EA
3B7DE9A5
3DA17A49
3DBBAD25
3D9FD51E
3D5DAB7C
BE43F3BF
BE595CF1
BD269B65
BD225E51
3D739DA7
3E0EB7E7
3DA47722
3B814171
BD88BF60
BD0283E1
BD27EBDF
BD280C4B
BBF1ED0F
3DDC42CF
3DAEC9E6
BD3E2D6D
3DBBBC80
3E3F0BBC
3E78DF37
3DF122FB
BE1ADFF8
BEDFA16E
BE49BBCF
BB162FDC
3E047D08
3E8E2698
3EF38078
3CF50EDB
3C1ABFC9
3E3D7046
3C4629E6
BE8D11E3
3E66759B
BDC57EBD
3E825022
3E197325
3E787838
BD4B37AF
BC426580
3E4EF4AA
3C883B12
BD0CAC51
BDACA39F
BE875F3D
BDEB92C0
BE0FF8DF
3DF53CDE
BC604AF9
3DFAC208
3E760A92
BCB430F5
3D8A14A5
3CF5AEE4
BD8BB322
3DADE155
BDF93B48
BE2AD5EE
3DF18365
3E8E3C9A
BAA79A38
BDE9CF3C
BDF0E4DA
BDB1C4CA
3D8DB9E9
3E511FA7
3E097628
3D28C622
BBAD8172
BD9CCE85
3E166F35
BE5C0A0E
3D3716C0
BE1A405A
BD7DCE44
BE230AD4
BE76684A
3BAA57E0
3E687406
BE946DB5
BCDFC21D
3C94F499
BCBEC233
BCA13A07
3E3F098F
BCB32DDA
3DF5B948
3DCC37FB
BDAC9370
BE342EF0
BE3B8123
BD638EF6
BCA1687B
BCCDB961
3E0DCB79
BD79360A
3D9C61E7
BD5271ED
3E0A2926
3C47DD6F
3EA154B9
3EACA8D5
3D8A0D07
3DD488FC
BD8C9D2A
3E5EB010
3D2F9EA1
BB28BA00
BC81695C
3DE21BF7
3E076725
BE021D9E
BC3ADC95
3D9816B4
3DF37139
3BFA0039
3D5194C3
3E1B4140
BDBD022C
3E21F8C2
BDC83C10
BDB036CE
3E1215A6
3B8E1A2C
3D87E9CF
3EAA4778
3D169317
3D45CD85
BD93CFF6
BD7A7BBA
3DB750A4
3CE467E4
3E0D7CA5
BECE372D
BC6EA748
BDB2FAA6
3D88543A
3D0F058F
3D6B233F
BD5FCFFF
3D1B9EBA
BE3D1CE3
BDD209D3
3E0545B3
BDEFC9F2
3E3EC44D
3D6BE125
3DEA89E2
BD0149CA
3ED247B1
3E1FF5DB
3CE5C023
BE50BF14
BDBDF7FC
3E337FB2
BD4CB6D8
3D5766EA
BE2D53D5
3E823659
BDBB04BE
3CD32267
BE3C5FEE
3CB49DE2
BC37B4A2
3E618A0E
3DE27ADC
3D425F43
3CA6888B
3D806A7D
3E612267
3D98FADC
BC9E5C21
3CB57AFC
3DD205A1
3E48E33A
3E7C80AC
3E6BE250
3E36DA9C
BE2667F2
BEBFDED0
BEADF5DD
BDBD427A
BDB4FCE6
3E800F38
3E0B8610
3D431749
3DAD4F62
3D343BF7
BD7C7CD6
3DDB9D4A
BE5E393C
3E470F0A
3D7B8699
3D284D0E
BE1195DA
BD8C3676
3DA6B99B
3DA1EDB2
BE18F4E5
3E5D9133
BE685518
3DF0BB7C
BEA2D70B
3DBAADF2
3EC4BBAB
BC20ED56
3D12C92E
BD175E7E
3E3C3456
3DF020AA
BD60A59A
BCB47E01
3DE9D9EE
BD30A727
3DAB6921
3E05BB9D
BE194A5B
BDA441A7
3EC09F0E
3E66DF17
3DA1323E
BD8ED98B
3EBA6E22
BE0A25B7
BD6639A3
BDEE2138
3D969857
BD87AE68
BD95CFFA
BDEB12AB
BDC983C5
BEA6F124
3D9765A1
BDD3930A
3EB4A5CE
BDF4F342
BDEF0FC5
BE990A82
BE0608DE
3E7AFF1D
3E28F0C1
3DC47666
3CB1BB54
BE052AB3
3DE0E52B
BDDAAB3A
BE5CEFF4
3DB10F5E
3D9C711E
3C2DEA5F
BDD14877
BCED707C
3E8239A7
BE405FBC
3E3B72E0
3DDA17F4
3DA13321
3F019BC0
3DAB8D4E
3E6DD7B0
BCB4BEF9
3ED6FA43
3E0C23E0
BE918F46
BE00C876
BCC62C5A
BD2605BB
3A5B49B6
BCB997D7
3D2CBF49
3DEA4A56
BDF2AB5B
BE8E1010
BD67DA54
BE79D891
BD4E40E6
BE6AD4B9
BE2F11C3
BE36EE3E
BDDA0804
3DB333C1
3EA7470B
3D91606E
BDB5D567
3DFC9F4B
BE58D3A1
3D9AFD76
BC387ECD
3DC483CE
BE82864A
BC771560
BE6A569B
3DC086B9
BD49D91A
BCD440B4
3E3DA306
BDCD982C
BE14B40E
3DC453F6
BE021F8E
3E274129
3E4E149C
BC048B6F
BDDB8DC5
BD5FC9CA
3E4E5534
3E4C259B
3E5D752D
BE8B6A36
BE696B41
3E7C8A1C
BE47B4E5
BE047D7A
BA5CECAC
3E18629E
BE2D18B8
3D2DDCFD
BD0236A7
BE8290C7
BE00976A
BE883778
BED689DB
BF036D40
BEAC5E08
BEF61201
BEF8073C
BF51A544
BF384661
BF11FA01
BEBA4738
BE0226A2
BE3F9C3A
BE29246C
BE5AD377
BEB9F178
BEC78331
BEB9BFBE
BEE9B333
BE7D07F1
BD5EF757
BEA53E92
BE3C1278
BE639819
BD50551A
BC3989E4
3D3D748A
3D95ACAE
3E904384
3E3C35E9
3E1996AA
BD061BDE
BD87C839
3D7E0F80
3BED58E1
3C0357C2
BCE10F1F
3BB3859C
BDFD6C65
3C233B96
3E192D7E
3D71480C
3CEE36B5
3E7B0CBE
3DAC06AF
3E181345
BDA29AD4
BDF8C0CF
3D98324D
BD5CCECE
BE170004
BDDFB6DD
BD9E0EA5
3DA51FBB
3E28B8DD
BD9AC02C
BDAEDCC3
3DB29B43
3DBC7C45
BD025B01
3DA69FD3
3E1DC1F5
3E002016
3D5EF96D
BE1AE0F0
3DED721C
3D6CF4A8
3D913FCB
BD7E15D8
BD8B9AD1
3E056F0A
3E08CBF3
BDEA0F0A
3C970E4F
3C817F4C
3E42493D
3D93291A
BCEDFBEC
3BEC7FB0
3CF07D20
3EA24C8A
BCC20219
3C9D158A
3D982BD1
3CEA86B2
BD3EDD33
3DBCB7DB
BDBAD9F3
BE2B5101
BCE5099F
3CBBEF65
3CD111F1
BE0D1F9C
3DC5E7ED
3DAAE8D7
3DA6409F
BE262443
BCCB3E5D
3ED84AE5
BC96429D
3B6CD6A5
BCE3A0BF
3C494767
3D66428A
3CC2ABB7
3E9870AF
3D982350
3DD5228C
3E027ABB
3D841678
3E06F53E
3D937336
3E5256EC
3D317D08
3D3EF1BD
3E43CA89
3D0BAD98
3DB89113
3E120C2F
BC9BCDD1
3DBBBB4F
BE14E960
3DE1C4FC
3CDB4B96
3E002DA4
3E8186FD
BDC130C1
BD2D0B61
BD2F6E65
BB5EF697
3E01154C
BC55EF35
3DAEE1F7
BE5397C9
BCD7E758
BDA3D5A4
BDDAC9D8
BCE34A98
BB5C116C
BDADD458
3E1C599D
3D9AD632
3D939932
BBC752F0
BD2742AF
3D4519E3
3DB18B29
3C5A5EF1
BD64FD93
3DC0D90B
3CCA70FD
BD8D64B9
3CC853F2
BD0C93BF
BCF1D27B
3E681238
3E0BF983
3DD37F97
3DEBB590
3E41B908
3E00C777
BC3D51FB
BEA84D81
BEAD0D9D
BE79BC8B
3D0771F2
3E0965B9
3D16FBD2
BD2820AE
3E12446A
3E06DAFA
3C979065
3D44A945
BDC6A95F
BE40F61A
BE28B242
BE3563C5
3CC9FB1B
3C8F091D
BE082609
BDF1BA14
3C956E3C
3D3F4763
BD8473B2
3E4793F2
3E317AB8
BC6E3A25
BD412B79
BE090306
3E12A447
BD69A723
BD5CB377
3CB083F7
BDDC31AA
3D422A95
BE013016
3D55FF71
3DC695D4
3D731A06
3E4B809C
BDF68802
3E32CC42
3AC3653C
3DACA2BD
3E2B7055
BDB11CEF
BDC72719
3DB513BC
3E0E7ECE
3E22E8EF
3D9AD190
BD827E97
BCA0B3D5
3DAFB442
BC90877D
3D968D2A
3DEA41CB
3DDE910D
BC04809E
BD86F800
BD6A8610
BC1A76F3
3D708C4D
BDD850D2
BD2280E6
BE5169AE
3E321E7B
3DDBFA17
BD82AE85
BD11CF08
3D499C74
BDD3C2E8
BDC4C92F
3E5C6EC5
BCD67D55
BE0D7944
3CA6EFE9
BE7A1D54
3D104327
3E0D67E2
3D02CA85
3D3A689C
BD0DDFBF
BE0D367F
3E6E4218
3CB3CBE5
BDD4EA15
3E2C49B4
BDDCA199
BC158D95
3E828DE8
BE5DB263
BDFDD8B6
BCA64534
3D0DAFE7
3D3FE3AB
BDB666AB
BE3FF881
BD624689
3D91ED06
3D0DE6B3
3DC3E3B8
3C05AC42
3C5473C0
3CD9A751
3CBE86B4
3C2CE2B7
BB5F0E61
BDDF6BAE
BDAA9271
3DBA52DB
3D070146
BE660158
3B89D04A
BD026062
BD9C54E1
3E6EC80C
BD2416BE
BEB489FB
3D05546E
BE2A4BCE
BBF4E916
BE0FC0EE
3DAF4412
BE10EF27
3B76D7FD
3D96A42F
3C933F07
BC602B03
BBB6AF38
BD94AF03
BD220281
3E8F48CA
BE003976
3E7C2939
3CF45FDE
BE6DEB3F
3D233976
3E4CFB91
BD55FC64
BDD6F636
BD01F8B6
3CA69C51
3C319CBB
BC13E41E
3D7CFC27
3AC7CBCB
3D0073A3
BEBDEF3B
BE45E1E3
BEAF0DF0
BDC55C7F
3DDEF9F6
3DD780A0
3E5190D8
3E3B0377
3E2D8263
3EA884EC
3DE1E1ED
BC1EE1E7
BC308FE0
BC5E799D
BD36BD59
BD4A8B49
3DA0C773
3D8FD8D9
3D35E225
3DB42202
3E80D93A
3E3F11F9
3DEF8EDC
3E677B33
3E16BCD4
BE0050F3
3D4F4791
BC56835A
BAA5162D
BEBE73CC
BD9F4A00
BE037E2C
3DF64D06
BCB1AE73
BE2EF7DD
3D55AD97
BD951088
3E1722B3
3D6872B8
3CFCFE63
3DC1417A
BE5FA645
3E81D346
BE44802D
BC555319
3E067B30
BD2D8646
BE197991
3CBF7D59
BDC9A193
BD5F9FD3
3E3E6C2B
BD8074C1
3DBE5446
BE48012E
3D476097
3E2750D6
BE6D3FB3
BCD93C72
3E8BA117
3E1B0058
BE5312B2
BE12DC5A
3ED8AA8A
BE08CC9A
3E080C08
BE846174
3D958B02
BE933754
BE64EE9E
3E38C84E
BE742A24
BE489544
BDE96B18
3DAB87A8
BE057A2F
3D11F93F
BDC5333A
BDFF66B3
BEA5D9DD
BDB188FC
3E33F4ED
3E844440
BC702C58
BDA05FB1
BD8DC49C
3E53B385
BDA689BE
3DE19320
3D3BEFC5
3E22935F
BECE8F34
BD812E43
3E812FB2
BE754CF6
3E992620
BC82671E
BCF6F46E
3CEDB80A
BE03AF5A
3D4F0196
BCBB6043
BD273C27
3D0749F6
BE0554E1
BD5CB570
BBDFE249
BE9EA4BA
3DB94B6E
BE061F26
3E034FEE
3CD12049
BE297D3C
BE79E4C8
BDB8AA96
BECB7B8D
BE60622C
BDB4BE28
3BC2D45B
3DC60C1F
BD4399F1
BC13129A
3E591651
3E054386
3D9048CD
3B85C7E9
BE287DD4
3E09FF28
3C56F9AC
BDCA582C
BD19BB52
3E16742A
BD59AB9D
3DF43244
3D2A19AF
3CDBC0F6
B9D69A3B
BE4A092B
3C60FDDC
3E0114AB
BD107927
BD65FBE0
3CD04F5E
BE1AAFE4
BE9C4C85
BE1505F3
3E6919E2
BDA9240F
BD742AAF
BE65E82D
BDB94D8D
3E3CCE74
BDB437A4
3D7AD6EC
BE142876
3CB756C9
BD74C389
BE0B6FE3
BE86DE33
BE43FEF0
BE139530
3C1B7D14
3D54B3B9
3E9B2424
3E51D481
3E3AC6D4
3DC910FE
BE126564
BEDD173C
BEBFB921
BDFD7691
3D22FF5C
BE76A8C0
BE610639
BE87D39E
BEA87BF1
BE9B4BE8
BE962369
3CEC998C
3E4033FC
3DDDE6B6
3E2EC42B
3D9B23D5
BEC28050
3DB6EB3E
BD823B70
3B918B4B
3E47D5A3
BD672348
BE6104E9
BBE793D6
3D59A29E
3BB43524
3E8445FE
3D46B6E6
BD256705
3D71602F
BD3912D6
BDF5F01F
BE6176CA
3DEEC0A8
BE47C994
3E9DCEA5
3DA48909
BE44F29A
3E039EA0
BC23B6F1
3E3A0621
3D4E8871
3DB2610D
BDDB47AC
3E6F2D5E
BD27EDF3
3CC22254
BE77B12C
3E675390
BE3B24BB
BE8638AF
BDFD779D
3DECD269
BE3F6E97
3E876245
3D31BAC8
3C432361
BE0F515C
BD85BA58
3B940677
BDE58A18
BD8FBEDD
BE8931CE
BDCEF417
3D961788
3B62B9AF
BC81DA00
BD99A52C
BCD5A10C
3E881582
3E474173
BD8842D5
BCC74C8B
BE4A2F85
BE3ACC42
3E0C8133
BCD6C381
BD4D6757
3D9D86F5
BE1761D9
3D89BBEB
BDE4A3FC
3E2A4C2C
3D81886D
BD389479
3D1F9940
BB7B45DC
BCDFD385
BDAA7FB2
3EADF3DB
BE84B76F
BE1CEF60
BDBB079B
3E4156E9
BE17A8C2
BD7460F0
3E1A493D
3D0E639E
BDDCBCDD
3E08852B
BDB7F4DB
3E99590F
BD5FD1A2
BE399E1C
BDAA0223
BCBC8953
BDF7EF68
BCFB9E7C
3E44A47B
BE044849
BD7D3FA1
BDC8F20C
BE10E461
BD07BFA5
3DC95E01
BE0B2DEE
3DDAFEDA
3DC57CC3
BD519F4D
BC18E435
BD28CD41
BE9D6D1A
3E4F6CE3
BDE4812C
BDB40E98
3A85BFAE
BE09F0C3
BE5CB400
3D125212
BD0F9231
3DDC8FB8
3D87D9DE
BD2F1882
BE130F1A
BE5EEDCC
3C27F1AC
3D4D359B
BD04FE24
BDF91E14
BC8FD00C
3E3069CD
BCF45923
BE4908D8
BDB05A79
3DA32B98
3E105617
3D9963AF
BDBCCD76
BC5AA842
3E583F63
3EF57105
3EE157EB
3EAC6C94
3EB67E2D
3E2FEC00
3DEA45E2
3DCD1740
BE20DE09
BE6B3A04
BDFB5C2C
3DFA7356
3DF529F1
BD15259F
3CA85955
3D860E3E
BC3AC706
3DF0DD83
3DC0D2A7
BDFC2CBC
BE5DD3AE
BD5FFEE3
BE5A008B
3CCEFFB2
BE954FC8
BCCE553D
3E5DA6B2
3DC30231
3DED6E7E
3CE36A28
BDEC8F9E
BE260F43
BD8E7AA9
3E34EAA2
3AC9F1D1
BDD28D79
3D8455D5
BE543AAE
BE2043EC
BDCD6EF6
3C3D8673
3E559494
3DD3751A
BC7E24E9
BE766FC9
3D22F8A6
3C4AA49F
3D0ABB4D
BE1A1F52
3E294B82
BEFF40AD
3D728353
3E0AEC36
3D914CB4
3E8E88CB
BDF5C033
BE193115
3E332DCD
3E4B17AD
3E12D0B6
3D9235E4
BA9CDF0D
BDD263E6
3E602972
BDDBA0B3
3D488EE8
BD569D9C
BDB1829C
BE28A585
BD694350
3D9A31D2
3E453F8A
3D6B5E1A
BE05D15F
BDF5327C
3CD2DF05
BD4107D2
BE21A297
BE92E9E4
BD0C1CE1
3E989D68
BE1C0DE1
BE5632C2
3DFEE038
BE1640DC
BE87DF21
BE008B62
BE0E71E8
BDB96494
3E126832
3DD789DA
3D1CEE02
3D3A36F0
3D4C79C9
3E386006
3E2AF859
BEA69DD1
BE31979C
3E8DD7A6
3D0283C9
BB31371A
BE2F15A5
3D172192
BD8197C4
BD385861
3E57A58F
BC0EBC5A
3E5A21D6
3D08348F
BCC2F31A
BE0A478F
BDB88EBF
3E0CDB2A
BE285C54
BD836DFA
3D1CA8AD
3CEB2DB1
3E53E51E
3E4B5844
BAC79736
3DFE86AC
BE7DAF81
3DBE94F4
3DB1C8A0
BD417EF3
3DB3156E
BE1CF1BC
3E5192F8
BE9FD9B3
3D87DED5
BD9941EB
BBD86111
3AB42344
BED76BF4
3D8A0C34
3E56C3B9
BE048AA9
BD1DEF0E
3E0A39FB
3CE78EC0
BD86AD28
3E06E08F
3DC65240
3CC50832
3E5AA65A
BDA7365F
BE069A12
3E8FD8C2
BE43C651
BD0DCAE7
BD2B6C7D
3D9B4E04
3E0C2F55
3E163E3D
BE583728
BD8B0E56
BB751EE6
3E67C306
3E3813D1
3D360E14
3E3F8D9A
3E2C78B4
3EAEAF5B
3EC5AA06
3E4A3A81
3CBE0204
BDF13C33
3AFD0FBE
B9DF9439
3CA4AB4B
B9FD6013
BE76871E
BE965C45
BE9F3BCC
BEDFB7B0
BE30179F
BE96A359
BE03B305
BD925D4A
3CF037F6
3D03D728
BE32425E
BD3610F4
3D9CBE23
3E92B607
3DA47850
3EA079DF
3D610D9F
3E113A2E
BE238D7B
BB749162
3D022163
3D396CAB
BDB54164
3D8E29A4
BDB410B4
3D1D4604
BE22951A
3D905E6F
3E93615A
3EC54FDC
3B3B303A
BE7A5D01
BC8D903C
3E66E1FA
3DAA0761
3C68CB5B
3DE47362
B8C59DCD
3E57A13C
BE0CA71B
3D654AB8
BDD79ED3
BE255107
3E3FE0F6
3DD64064
3CD2F9A7
3BFC506D
BD2AD77A
BE436588
BDA794F3
BE4490FB
3C942F47
BE18CE98
BE0B6354
BDC680D6
BCACD67D
3EDF5F66
BE4C2CA1
BE79AB16
BDD14D8D
BE9816E3
3DF3D288
3EC742D6
3EBAF85D
BD160B4A
BE2A6A6D
BDA0BD94
BE215754
BE1B86BF
3BD8A327
3E5328D8
BCDA9DFB
BD2594BA
BD94F9CD
3E151592
BDB3F192
BD56BB33
BD00DA23
3DB8FE50
3EAB21D5
3D7F42F9
3DA8411C
3D6BAED0
3E5708AB
BD44C0B7
BD91FB36
BE463EBD
BD97C69D
3D521D03
BE8AA206
3E324C33
3AC85E39
3E38105C
3DB34675
BB9534FD
BE220712
3DE80E3C
3E09A713
BEA150AF
BEB3B8B6
BE006FCE
3DB1199E
BE11793A
3D2BA491
3E930FE7
3E6FC1D2
3D740045
3CE02D11
BD8A8C4A
3C5C203C
BBF61DF0
BD982788
BE3B1B15
BDE3132A
3C367D55
3E3E21CC
BCE45159
3C6642D5
3CCC543C
BD1535C7
BE3238D4
BC553CD3
BD2F0897
BE026197
3DB87F49
BDD7D6C4
3DE45AE6
3E1BA803
BE7741B6
BE12A88D
3DE154E4
BE0C98BD
BDFF8FE8
3CAF3E82
3CFE00A1
3DA5E146
BE115366
3E85EBAD
BE36A466
BE039658
3D9EE827
3E29BA2F
3D85D453
BDC94CA6
BE59ECF6
BE1DCEDB
BD680337
BCA09C52
BD74BCD3
3E28F45F
3E07B26E
3E021C7D
BD386613
BEAD13D4
BEC819FE
BE51964C
BBD67786
BDC75C7B
BEA529F7
BDD9B6B3
3C976FB3
3DE32676
3D9B31AD
3D680702
3E1DCC1A
3E6E5888
BE353515
3DB7591C
3E13AEAB
3C187E9B
BD8AAA39
BD19E86C
3E6C5891
3B89DFA1
3DAABBAC
3D70E8B3
BD476DD8
3B1C6DCA
BE33CADA
BD8D6617
BE516187
BA9EBB1F
3DAF763C
3E21BB6B
3E8ABFA6
3E2884B3
3E494A90
BE00B11B
BC56946C
3E56A4D1
3D1BF839
BD729FE0
BD674970
3E645B87
3E1B3D29
BD55A546
BDB080BA
BE54AC95
3E220203
BD02530C
3CBAB3B5
BCBF6CD8
3E11E1AA
BE49E2F9
3DB86163
BE1F7227
3EC22CC1
BE948305
BD73C707
BDDAC937
BDE028D8
BE2DD540
3CD50E24
BD74FE6F
BDAAFABD
3B14A9B9
3E55D943
BD5B7BDA
BED0EB6B
BE1D4145
3C41DCFA
BCE816C5
BDB00145
3E7186DB
BE297CB6
BE0C5565
3C2D0B51
3E0F93D7
3C74BF45
BE5AEA8F
3CC627FD
BDDBE180
BD48B7FD
3E80EA5B
3EBB78D7
3CF9A6E0
3D400C93
BE4EC410
3C8276F3
3C7B5A49
3E208E37
3D9A4C7B
BDA3820E
3C886BE5
3C5E0320
3CD0C2B0
BDDEF391
3E45CA0F
BE5111CF
BE3A1236
BE1ABD00
3DF6FE9A
BE15C202
3E4B7F89
BE3C7142
3E1AB4C5
3DF09E63
BE17C7B8
3B71EF6D
3E393F1C
BC3261A7
BD9C643C
BE8304FF
3DF49716
3C2E0FD3
BB402853
3D9A8EB8
BDEE8DCD
BE7764A7
BE6C577E
3DBC2F65
3DBD10B3
3E2123B0
3E2805F3
3E7558B5
BE0AC7AB
BE002C7C
3E111CC4
BE22E488
3DD48B58
3D5D3705
BDCCBA9D
BD3EC858
3D8F9A01
BD0F0A9D
3D35120E
BE25AC55
BDB7461E
3E4ABCDE
BDAFB2C8
BE14120C
BE4C3790
3E10F2F4
3D82199C
BE994C69
BEC4DB09
BD0A022F
BD68402B
BE2397A1
BDDAFAD0
3E25B1C8
3DF145CB
3D75C7A5
3B82A910
BE252B54
BEC75D68
BEFF1ACF
BEC56BCA
BEA50BA3
BE44F4DB
BE3646F8
BE696356
BE2FAC74
BE824611
3E196D96
3DAD866F
3D4627DD
BDA68B8E
3D1EF5DF
3E457D83
BEBBA78D
BBBCEAB3
BD988309
BE061C6C
3DCD0D21
3E04026D
BCC46671
BE0A916E
BE68A90F
BDCE61D0
BDF1FE9B
BDB22C9F
BDC16797
3E0B038B
BE367C72
3C94BC90
3D7FFB8B
3E014926
3D2CE978
BDCEE038
3DB49229
3D1A2F59
3D4F8127
BDB9A469
39B02FC3
BB5296E6
3CA04290
BE09CA5C
BDEC9222
3E90770A
BD53E253
BDC723C9
3DC5E50A
3E3F7C53
BCAD59D0
3B6CD545
3E368449
BE1A3AD8
3DC830F8
3D1AFA82
3DBDDC19
BD505883
3E70F7F0
BE4D0A6E
BCE63EE9
3D96D9AC
3D9A97E8
3E8AA98C
3EAE9853
3DAC14DD
BDBFA087
3B691FC7
3BFE4A4F
BE7B78E7
BD8070B3
3E0B8434
BD3D917E
BE0ED8B2
3D3BA5DE
3E061FAC
BBDFB21C
3E2B2AEB
3D60B598
3D69F2E8
BD86092A
3E29A2AC
BD993F96
BE0FA33A
3DBE93C4
BD813FDE
BE3A24FB
3E21C971
BDD4AC0F
BEB03A1E
3E9D86C4
3DAAFF60
3D925241
BD11F5E9
3CE8C7A5
3CDFC76B
3D0810B0
BD3EAAC6
BABEDDD4
3CF94871
BCFB5226
BDCCCD96
BE082A20
BD36A21B
BD357C69
3CD120F5
BDAB01E4
3DCD60B4
BAE741CC
BCFE709E
3D5E5568
BCF02FF9
3CAE9A2C
BD0F07FE
3E2A29BA
BE1603E3
3DD7EBE5
BD693ACC
3D2CE894
BE0DF3A2
3D8288E7
BE346137
BDDF6A1B
BE5FC9D7
3C905C89
3B3FB9A5
3E019822
BDA3B452
BE023AA3
3DCDD83D
3BB561C1
3E1D41D9
3E399C25
3E0EE21B
BE5C9393
3D80E4C5
BB2D2D1F
3BBAC92E
BCE9BBB0
3E2D6565
BCF375A3
3D503DD3
3E7EB2B6
3E08D654
BE091C3E
3E52AE0F
3E3C2AD9
3E6EA0CE
3F0265C7
3F35F5D6
3EF74752
3F32FDE5
3F105CA4
3ECDAF7A
3ECEEC4E
3D825A38
BD771FAA
BE1FAED0
BEC395E6
BEE4061C
BF00F1CC
BF0C4B34
BEADF139
BEACE6EC
BE6FF76E
BD328DB7
3D797064
3E6FAA3A
3E99ECA6
3D11F7D7
3D63CD82
3DB94CCD
BE199E01
3BB7BC1C
3D1E284A
3D02EB2F
3C40D6EB
3B52A84C
BD5C7F90
3DB3C84D
BDF3A810
3CC77708
3D2C20C0
BDE8AC69
BCD3EF20
3DF42BC4
3D627518
BE0EC2DC
BDA2F817
3E2244CE
3E4547E7
BE3F9669
3D9E2883
BD711FBD
3E0EE2BC
BDA9F0AA
3DCC639F
3DA1BB05
BDAF3DD7
BD85488E
BDB4A13B
3E005B26
3D87BCDD
BE9A0C6F
BE5D7ABC
BDA62AF3
3E0C6EB1
3C6A8E34
3D7B2D63
3C45FD85
3C9BFF0F
3D6BB0C0
3D0AF69E
3DF10ACF
3DB3682A
BD7BB4D2
3E299A92
3D6E35A0
3D90276F
BCE23D57
3D959D34
BC930972
BE135123
BE12E092
3C92557D
BD2C63F9
BDCBC8A9
3DC98240
BC20CF86
BE5F97E0
3CF9F681
BD7B2ABE
BD88D464
3D7B3D28
BDA3E674
3D6F379B
3D8E2E7B
3D8DCB94
BD85995D
BDAA939E
BCEF30C0
BD58CBF7
3AC2AD31
3E20134B
BE165B3C
BE4D2D08
3DC742FF
BE20220D
BD5183FE
BDA01897
BDE2E8F6
BE0F0733
3D5CEC17
BCAFE3FE
3EACFC83
3D103C4B
BE9502F2
BD411912
3DE9E287
3DF0A4D6
3C9111FC
3E722C7B
BC62030A
BA217B9B
3E8482F1
BC799309
3D7979E1
3E190ACF
BC83E822
BE866FCC
BE0AB37C
BE973BFB
3D589A40
BDAB01C8
3DA6FC43
BD8B15DC
BD7A6DBF
BE8EDFD7
3C9E26A7
BDCAE7F8
BE584EC6
3D4BB30C
3E4E657C
3CE26AF9
3D31E0BB
BD96BED4
3C2A6C50
3CFA92AE
BA9DD320
3C056026
BD623DA0
BC41F58E
3E1B9347
3DB1FAE4
BCC33452
BDA46638
BD24C4C6
BDF94269
BDAE36A2
BDCC2694
3BA34A52
3D20927F
3E91A1DC
3D9A7AEE
3D9B7FF9
BD9A44F1
BC025168
3DE36736
3E8FFBCE
3C8FC6C2
BC8E4518
BC631579
3DBD953E
3E0A18FA
3E1240BE
3E7209FB
3E73FA2B
3BAAA2D0
BDA3CD63
3D531287
3DF3F291
3E35712A
3E2776B0
BD2DC0C0
BCEE3176
BDAA9F7F
3E072FC7
BE4D702B
BE1143A5
3CBCD406
BE735B5C
3DF50F4E
BE89D8B6
3D63A77F
3E6B9BE6
BC764480
BDCE8534
BC8032F1
3D2B1E19
BDBAFDB4
3DB0465B
3E0A33A3
BE87E2C5
BC9C8597
BE406C73
3D1A723A
3C9D11F9
BCB7A914
3E6F24AA
3DE24F80
BCC7B114
BE088C46
3E1F5B02
BDC6FB0E
BD18082A
BD39EAD8
3CF48E78
3EEB5FAC
3D1618F6
BE0EA712
3EA75A38
BE002470
3D6C1047
3D9164ED
3EE1E6D1
3E1BAE9E
3E14BFAB
BE55F0FC
3D38958B
BE2496C6
3CB82ECB
BC210D9D
BDFA302D
BE437DAD
BD9FCDA8
BBEA0881
3DD9FB97
BCA83B18
BD274D97
BD51AB94
BEC139D3
BE847AE5
3E62E777
BC90CAD9
3E11DCAF
BE9371E4
BE50134B
BE25E4F4
BE0FA2F7
3E4857D8
BE22CAF9
3E84B2CC
BE4B1DC8
3E861B99
3E824F4E
BEFCFF25
3EDE54B8
3DECC873
3E3686EF
3CCE0A5A
BE5B44E5
3E0FBFA5
3DF43295
3E41AB81
3ECAD42C
BE0D56E6
3DC703F0
BD27EF9B
BDFEF516
3E5BD4A1
3D1B550B
3E49750F
BDFC0676
BE3FA695
BE7C4B90
BD95544D
BED9ADE0
3D9A2673
BD51D169
BE91E1FA
3D2B2EB2
BDA2A0CA
3E29BE61
3D93E400
BCE2DAE1
3B1ED5B2
3D527DEC
BAEA0FBA
3E5AD227
3E1A2AFC
BE1DBAD4
BE4B448E
BE26AF4D
3D72AA21
3E353268
BC63F263
BE9E700F
3D95ABC4
3D7B32E4
BCA4E67F
BDCD6FF5
3E013DE7
BD920729
3E6312E1
3E020F5B
BD948D28
3D55E773
3E587797
BD3D9217
BE0DFFC5
BD486498
BDA8AE6C
3ECA4049
BE335611
BDF7150A
BE1D594F
3B616C79
3E20ADF5
BDA981FC
3D7FAD82
BD8B70FB
BC429A19
3D844F28
3DC97DCD
3E5E39A0
3E90F9BB
3ED0D196
3E84E40A
3E697284
BDF08E08
BE2DDFA2
BE878071
BE36106B
BD34C96E
BDA5E8D8
3D0197C0
BE1B3871
BCE1D2BE
3CA42DD7
BDDA9BDD
BDFA1EC5
BDFF827C
BD8CA6E2
BCE73D3B
BEA3212A
3DE74221
BE29A0C8
3E98DA25
BD271E90
3EDD6C57
BD90E47B
3C744BF7
3D40F0A3
3DD1D2B9
3D2F57BC
BD4C0148
BDBD0EEC
3E396E81
BE2D0D64
3D3D7140
BE598809
3E58A26D
3EBAF7CC
BE071597
3D6C86F2
3D05D1A3
3E327016
BC952E80
3E5AA0A9
BDA5FD75
3E252FF8
BCC8A27B
BD733FD0
3E29AF5C
3B3B4101
3D86811F
BA01E733
BD232053
BCE43A1C
BC8405DF
3DF42F8A
BD7E09AE
3E757F9C
BE61D7AD
3DACC5B9
BDC5002D
3D702F9B
BDE77A63
BDC08C18
BDBCD5EF
BDB02A03
BDB96A0B
3EA5F106
3DF3A77D
BDABCE52
BD008CF0
BDD12209
BD391B4D
BD33FF6C
BD776234
BC0FD83A
39D3EF62
BD669DBE
3DB16C06
BE603C8E
BC9F98C2
BE354406
3D3FAF80
BDB13ED4
3CC80BC3
3E0C1978
BE65EF8B
3E286C51
BC6EB00C
3E26AFB9
3E733E22
BC8128BA
3C125C28
3E8BA37A
BB758B50
3E5FC7D3
BE9717B0
BDEEA5A8
BD71427D
BE3D7463
3CAE2E31
3DC75F64
3DE3D26D
BCD7032C
BEA13452
BD1EBFE7
BD376341
BE7B1C28
3D1F74A5
BE516F29
BDA46D09
3C12014C
3D0B77F6
3E41E3F2
3E8AB49C
BCDDB9BF
BD76985B
3DA530A8
3D6E4F1B
3E69930C
3E627B19
BCC2F40B
BE1EAC86
BDAD55E4
BDCEBE3F
3DF5619F
BD03B0B2
3CCB7DE8
3D3F40C5
BD546F6E
BD25A861
3EBF8CFF
BD3D76D4
BD8F8A78
3E8B0666
3D948E28
BE1DB8B4
BD5F05F0
3DD98CEA
BD3584FD
3DCD71D9
3E1B178B
BD975A6F
3E305682
3DBAA192
3DE8B355
BE77E29D
BD99E175
BDF55F5D
3DA3E059
BE653792
BD7D663A
3E82A609
3D951ECF
BE6286F9
BDB66887
3D62B88C
BD286567
BECD461B
BEF27246
BF2F8E63
BED22BB8
BE7E0ED8
BE82B82D
BE1DEA32
BD983A12
BE3211B7
BE2EA6C2
3C914DD6
BE8F2F7E
BEA6BD2F
BEA1EB09
BE82BB4C
BE86169E
BE7DEB67
BE461192
BDD1CE01
BDEF5ACC
3CCE981E
3E6588CF
3E63F099
BDB6EDA7
BDE310CF
BDBF9355
3C970B8A
3E424922
3DB362A9
3E057577
BC64D435
BE07B3FA
BD98818B
BDC98B7E
3E81463A
BE0A817E
3E745763
3DD0ED8E
BDD4FF94
3E0EBC84
BE706424
3E2DE84F
3BECAFF3
3E27623E
BE2E4DA7
3CC175E7
3D812411
3D34B41F
3DD43F52
3DC8180A
3D8BF613
BDA7A991
3C93DED5
3C92A2FB
BD82E164
3CF81B80
3D97925B
3E2CEAF9
BE1BAB14
3C392D53
3DC8BA94
3CADAB1E
BD4D5563
3D2FE2B9
3E50BD08
3E2F81CE
3DBD570F
3DD71822
BDA65230
BCBEEF8F
BE1C8FE7
BD982A0E
BDAE4AFB
3E4C4567
3DFCE952
BE8B2ADD
BCF7F936
BD72F08D
BD5BF9F6
3BDE9BCC
3D8E6D8E
3C1F5264
3DB417B5
3DDA8361
BCB79518
3DA20DE4
BDAEADE8
3D8FBCFF
3E17E1A5
BDDAE7D5
BE02A844
B8E8853E
3E0C0C34
BD4D2720
3D8B0B34
BD0BD4E0
BE42A4A5
BCCAB570
3D1695DC
B97A2CB3
3D39E33E
BDC0CA32
BD3867BE
3DBA78EE
BC72A03B
BC24B643
BD9FBC72
BCE46BAA
BCCEBC1B
BDD7C6EE
BCB6F9C2
BDB9709C
3BD1F2DA
3E046F5F
BCECB6AD
3CCCA159
3D890571
BE8910D4
3DC3D65C
BDD6DED4
BD807543
BD39E56F
BDB5550C
3CC95A5C
3C5A35B6
3E158EE4
3CF24A6B
3D9A6B24
BC9E2C1B
3DEE8EBE
BD947D80
3C9423A9
BC19D216
3D521447
BE813B4F
3BD9F905
BADDFA24
BE5789FC
3D3877C6
BE1BB829
3D83C977
BD9C2EDE
BDBE6901
3D98EB07
BA87BFEC
BD069141
BE241E36
BE0C9C97
3D8F65B2
3DA4CCEC
3E9D0A38
3EC170B5
3E889EF0
3EA996BE
3E235BBA
3DCAC246
BE478A09
BEA002C4
BE110FA9
BE32DEDE
BCDB3D5E
3AEEA4D3
BD6242B3
3DCAC5AA
3E1F8EF7
3E7880A9
3ECF2BE0
3EBA34E2
3E1CE4A8
3DE4D877
BDD5E2CE
BE33B4BA
BE673E1E
BEB12F6B
BE4B4642
BD6477FF
3D971302
BE02E8E2
BE5F68A3
BDD03B8F
3CBE083E
3E1ED290
BDEAC9BD
BDA3324A
BDFE90BC
BE3E5266
BA1D6E64
BDD26344
3DFCF107
BBB130B1
BD920D93
3E44FC89
BD302762
3DF97B3E
BE7F10AA
BE046618
BD2DB552
BE077392
BEA7063E
BD7DD14A
BC996023
BCDA8A04
3D2F5DDC
BDD1D96F
BCD03C13
3DBF0654
3C66E5E8
3C0E8795
3DB7DA28
3E3CA786
BDD2224F
BDCF321D
BD307B32
3E7F1FEB
BD455A70
BD82A128
3D844D21
3D93829C
BDE65EF5
3E8BF495
3E008F14
BDB80F3B
3D868E15
3D2B4D1E
BE822AB9
BD16F593
3C9A5A6A
3D547D35
BDBDC66D
3E15D62B
3E7ADAC1
BDA0B33D
BE787916
3C955278
BD99606A
BED1E697
3E4AD75F
3B2D3126
3DDFC0AA
3D7BDBC9
BE2A3C35
3E1CFBDB
BC9017F6
3D9F5D70
3D817A1A
3D26A03B
3BE8B30E
BC1393E1
3D22CBAF
BD003946
BD9E2C99
3CAC464F
3E277285
BD8BC925
BD055C76
3DB45EAB
3D026DBE
BD63F1FD
BDC48B2B
BD6A8585
3DC12ECC
BD668ED5
BDABAF40
BE201C93
BE2BC390
BC8A7BDA
BD7C7A8A
3E90457B
3E0E0462
BD9E51DA
BE1B802A
3DC49317
BE1A752C
3E77B73B
3D82A47A
3E2E92CF
BD668CCD
3E2A808D
BDD0BE29
3E17A3E9
3E172D80
BE1B3355
BDB98744
3D0D6579
3D8C592A
3DD99DD9
BE2E74DF
BE89EE4C
3DFE2C13
3DBC6452
3DD98BF8
BD74AA03
BD61C664
BC71BDC8
3DE74935
3D198768
BD36E9FC
3E16F13B
BC9734B0
BB426BED
BD9B636D
3EA3D56A
3DC9513A
3E3C2C80
3D00FF9D
3DB9CCC7
3DE3B356
3DEDAE16
BD546052
BBEF6A9E
BD908823
BE1D0AAA
BE672911
BEB2765D
BECAAE0B
BEBF6450
BE9B723F
BE3D4CF6
BDCE1A17
3C88E567
BE6BC113
BEA9D2CD
BDDF6117
BD199B27
3B84063D
BE4EC2F7
BD866ACA
3CF37EC3
3B8C5235
BD3E2D2F
3BA39C9D
BD3364F2
3EA5C271
3DB9C589
3E540783
BE8B63E8
BB8F8F61
BD41FAC4
BCE3EF28
BEA90D21
3DD1C05F
3E314B74
3D044183
BE019D16
3C8CAADE
3E320968
3E3E4382
BDAF80C1
BE52703E
3D10A0C7
3E17D9A6
BD999C71
BE8CB186
3DF5A1CB
BE514BD2
3D4157EC
BE762F8F
3D89F86F
3E22A4C7
3DB076D6
3E616AA6
3D47A289
BC33FE4A
BD7BEBD4
3D4C0ECC
3E1C2F7D
3E39641F
3E3C0138
BCC74B94
3DB14FA5
BE5CBE40
BE22D08E
BDE8D40C
3DD3D161
3D086E41
3DA59D98
BE07AC3F
3E028057
BC577364
3D7AB2D1
3DCDAC69
BE24FE4B
BE36BAF1
BD0898A8
BBE2CA7B
3E4CBDE2
BDB34342
3E8AC113
BC135012
3DBEB758
3E033242
BDD6AD13
BBD1ACB3
BE18EA04
3AF8F039
3D03B17B
BE211403
3D5CC44C
3DF3EBB2
3E5EDE70
3DA34E00
3D5C95C0
BE368379
3E1DC41B
3E97912A
3E8AB300
BE05DCE8
3BB50B22
BD9DE4CE
BC644376
3DD8AC0C
3E4568C7
3D898B20
3DB1736F
3E19F00E
3D62AB86
BC963F1C
BE4FFF29
3DF7EC5E
BE1B68DC
3BEE3625
3E1C53B1
BE2B8B12
3E60CDD6
3CC9B607
BE3850ED
BDC54248
BD2E3748
3CB92F77
3E2C4051
3E0D25A4
3E2D3CEB
BE5BD091
BD6DFA64
BBFF96F3
3DCAFFEF
BE12DA05
3D812C31
BD9703ED
BE56756C
BDA545BF
BC8E8D57
BD0DA4E7
398EAF6F
3E67EC06
3DBDF114
3E9ADA95
3E9A4378
3E2C0670
3E11815A
BDA669DE
3D87088B
BE1FB331
3E367297
BE52ECFF
3CA04088
BE36B9FF
3D8C08A2
BE0DF9A3
3B38AFE8
3E1A5FE9
3D2B016B
3E9AD5D6
3E0213EB
3E152C17
3CB3E7B4
BD6105EC
BDD15EC0
BDD4EB21
BD156184
3DE4180D
3E2EF61B
3E393C04
3E2BA8DA
3DA5E815
BAF66BD8
BE89DB5C
BE281692
BDCA2F53
BE87284B
BD11AF04
BD1AA47C
BE1F7CBF
BE9E6503
BDCD1435
BC12E7D0
3D85AF02
BD3CF513
BD583254
BDA6E466
3E505AE3
3C04EC1F
3D6597CF
BDFFE395
BD66B965
3E8336D5
3E249448
3E2D6BF9
3D2086BB
BCC7A0E4
3BEE22B7
BDF1A6BC
3D2F2DB8
3E007E9E
3D2B9DD3
3DE7BDA7
BCEAF943
BDB97B7B
BD9F49DA
3E7BFE92
3DA9D5D9
3E2A081F
BD3AA6ED
BC795EA6
3E532FE6
BCBC1255
BE4C474A
3E9BBBF6
BDAAD66C
BCD36BA2
3D43FBA3
3E8864BB
3D61CBCA
BDBE774E
3E31A99E
BD02B40A
BE7634CD
BD43E1EA
3D11BEC4
BD77E458
BD3810A0
BE0EDFC6
BD96544B
3CD0E7FF
BE05D4E9
3E8B7ACB
BDD63638
BE007B28
3DEDAF73
3D8106A8
BD36D9CE
3E782BCE
3D2CFFF3
BE1D2C5A
BE1F3A01
BD61F271
BD69D0F7
BDE5F733
3E2B6D3D
BB1E8886
BCCDB6AD
3D9DFF22
BE5E2698
3E35CA52
3DFFD1B5
3E64682A
3E21DBD1
BD4FE830
3E17A0C3
BDEA2EEB
3E3FAF86
3E6D6E26
BE33511C
3BC176AD
3C2D8F65
3E4BF1E9
3E22AD3F
BBDA8A70
3CFE03BC
3C9D1849
BE9439B3
BD182D20
BC15CE52
BE8777FD
BDEE6736
BC8DDFC2
3DC10CFA
3DD1BAB5
BE11C454
BE458510
3DDB253A
BE59EDC6
BD7511E3
BE034422
BD05B0F2
3E371349
3DB5F428
BD5F6607
BE7830C9
BD8A907B
BDBB5EE9
3E4378B8
BDD20EF6
BD8EE804
3D6B1309
3BB7BE73
BD72011A
BD321C98
3E34B1CD
3CBB3FB2
3E19F447
3D9D3403
BEB452B5
3D8818AB
3EDB98DF
3CA45718
BDCCF653
BDCF4228
BD9010BE
3E8897D2
BE1A1343
BDC6A8F5
BE53A4DE
BD8867CC
BE3607B0
3D35DC45
3E4F96EF
BDD08EEC
3DCE5EE0
3E206EFE
3E50F3CB
3E835F66
3E5ECBE7
BD45E09F
BDBDFA6E
BD25B660
3D17FBAD
3D8958A5
3E4D495F
3E55416E
3E2F1FFF
3EA3FBBA
3ED1C8CD
3F15D2D8
3F1AD85B
3EDBA832
3E37EDE3
3E2E1C44
BD7C5DCA
3B89CB2C
BE9F1EA9
BED6B598
3D2B7745
BDEE949E
BD6B365D
BE2199A7
BD108574
3D15EBEA
BD1BB18F
3C5C27BE
3D324DDB
BD8460D0
3C844D5C
BDBE4466
3D429BFC
3DF0B051
3D171002
3E2C139F
BB984BC9
3E09193A
3E44B359
3DF6F397
3E07AC6E
BD36665E
BE410FF3
3D132DF2
BE0601F9
BC1BE42A
3E1796B9
3E8C4B1B
3E34DC37
3D9A9859
BE513327
BD94A06D
BDC9B8C8
BE1F1463
BCCAD80B
3E8DF0CD
3D591F79
3DBED3D8
BDFA90A5
BC199BFE
3D431FD5
BC1C1AF6
3E235B2D
BBA4D79F
3D8E8E1D
3CC98D68
BD516545
3DC9EC26
3D852252
BC9B4BB1
BD76365B
BD2F1923
3CD2CDBD
3E777609
3E6A2BA4
3D6C50FF
BD030899
BDFCBAEC
BDA3DCCC
3D166991
3DC21EB6
BD94B07C
3ED38A1A
BD247E8D
BD90E69E
3DDBE950
BE7A4661
3E6FF844
3E01C906
3D13076F
3E8C6562
BC581B60
3E22D8A8
3D824423
BE618641
3D79CBBB
BC94A498
3DFCBA9B
BDAACBC7
BDB7149B
3D290E39
BC024DED
BD23BBFD
3BBDE458
BDB4DA6A
BCCFAED4
BD81353E
BE7097AD
BDC166D7
BDD84D77
BE77E9FB
BE0368B4
BDB370ED
BD4675B0
3CFB218F
3DBE4E94
3D0D0B1E
BC9DDA00
BCFA72E3
BDE0B11B
3E0CB414
BD4EBC1B
3CC7A921
BDB5A5A7
3D975097
3E13D945
3E8C3C41
BD347987
3C6BA931
BE171327
BD6141EA
BE461F7D
BE083FE9
3D0CFF27
3E238723
3E31AC65
BE5D96C8
3DC0E1F2
3E824DF1
3DEADCB8
BE728EFE
BCCD65EF
BD838866
3E8F61F1
BDFC8E9F
BDEF4FE4
BEAABCD1
BC8B0F12
3D7B7983
BDE0A0CD
BDA76F80
BDB255C8
BB68361F
3DF45E4E
3E924C69
3EBF62EC
3E4917A1
3DCF294E
BCF22E10
BC8D99EC
BD92A8E2
3BEEAED0
BDB36144
BDD208C6
BE976CA6
BE506A10
BDB1EE0C
BD481A7B
3D19B632
BD9184EF
3E049C97
3E031A1D
BEA1F10A
BDA6AE27
BE290B85
BE6BA190
3E931F97
3E0A000C
3D9234E5
3E405B3A
BE2A8CF3
BE4A7675
BDFCA0D0
BE1F3838
BC8E59B0
3E600E7F
BCCEEEAB
3D7C68D4
3DAC832D
BE04CF07
3DC5AD58
BDDEA183
3E874993
BE1ED034
3E08B8AE
BC12D8F6
BDEE5230
3EC22FBE
BE54CA49
3DEAEB81
3E9BF7E6
3E0680B1
3D0E1EB1
3DAFF786
3C4AD9D8
3E8BADE9
BDC60081
3D258C26
3DCDD8F9
3C8967E3
3CA0E05A
3C1D48D3
BE2C8D8B
3E95C3EC
3E5833E1
3DF24979
BE02FFE6
3DBFD522
BDAEF603
3D9DB276
3CE4BFB3
BE931E19
BD7915A6
3E5132BC
BD2AC33A
BDBBB33B
BC1C2F66
3D0C22C9
BD8CF9C9
3C055A3E
BD7DBDF9
3D8751F1
3C75B853
BEB33490
3DA55C25
BD88569F
BE13E25D
3D311013
BDC084FC
BE1554BF
3D2899BA
3E200F2E
BDFF3C49
3D272A21
BDB4483B
3DA89D7A
3D150261
BE37D0BC
3D83996C
BDD157EF
BE15C875
3DBC6D0F
3D440B4D
3E0D239F
3D2A872A
BE1B91E3
3D1809FD
3C6A27BC
3E4E4D49
BE95172F
3E4A6784
3D0C2D6D
BE5DC784
BDDC7376
3D652EDE
3D968606
3C0C8DA7
3E408A8B
BD2AA79C
BDE6E4F7
3DAEDFCD
BDE41447
3DB8A911
3D07553F
BE9E7133
3D4B7F8B
3E00792A
BD57880F
3D662C67
BDCE41F0
BEE78AD2
BBD772F2
BEBE817B
3D7B0821
BE4C7806
3E5E9318
BDE3A71F
BD90ABD9
3CCC8DB8
BE547E57
BCA5A1F0
BDC98138
3E672658
BE82E536
BE332DD3
BD0003D4
3DE61B60
BD092835
3D980868
3DA6751B
BD7CB4A4
BC8F28CD
3E5492DE
BDB4B557
3DB965C3
3DBC603E
3DA5BC10
3E0B8D03
3EA462BD
3E40F7BA
3E150078
3E8E35C2
3D72982E
BBB6C48F
BD8FC3DD
BDE79739
BDA1E593
BE32107B
BE099D45
BDAC5BE6
BD173CC5
3C6B82C5
3D215C6C
3D2C8A47
3D2DDF59
3E1064F4
B8FF80CF
3DFCFE4B
3D78738C
3B0B1EFE
3E29BB71
BAA43D50
BDE60766
BDB888A4
3E335EE6
BD93A174
3E959ADF
3E8714BA
3E30ED58
BD5B8BF5
3E0F5B1D
3E0667F2
BD4035F8
3E44D16A
BD825906
BCF9DEF9
BE37136A
BE5F496B
3CCDB5EB
3D41D4F7
3DC639A8
3D8AC690
3A4180F5
BE001938
BD3E74E3
BC714CF4
3E1CB1D3
3E8BC18F
BD0C4784
3D8661EB
3DA74D47
BD25D3EF
BDEE924F
BBAE011C
BC84673D
BDE62FED
3AF367F5
3E1C2AED
3C9FB0F5
BD82CC28
BE617B2A
BD7D666D
BDC56446
3DBDF027
BD1CDC85
3C53F83A
BDBE186E
BD83F856
3E0A3DAD
3E95F238
BD70E83D
3B4F408E
BDEA3063
BE1471C9
3D17611D
BDD7012B
3CEF77ED
3D37C0FF
BD247B65
3D8493BA
BE09AD2F
BDDE0B5B
3D8CB6E5
3DDACA79
BDE60B12
BDB57FF2
3D791967
3C048E05
BD569739
3DF6A03B
3D38D28A
3E5DADEE
3DB555ED
BB17E29B
BD7AEA7F
BDF8F53C
3E02F06F
3D9645A6
BE0B30F2
BDD4A2BA
BD539513
BD66FA2D
3D04E677
3D252CC3
3C8B6B99
3DFE400C
BE1536F1
BDF6A31D
BCF0D84A
BDD98F38
3DEB99FD
BC42971F
3D22161A
3DF46075
BE3670F7
BDC5739A
3E316D9D
BDC3A8E0
3B5E64D8
BE956074
3E40F8CD
3E084A58
3DB87D7A
BE19BE7C
BDF0FD13
BC7050EB
BDFA6373
BE05DF29
3D2BEF34
BE07976E
3C73BCD1
BCDC08DA
3DE5CCF1
BD780847
BE13900D
3E17BFE1
3CDD10FD
3DCBFF85
BE2EF3E8
3DDDA017
3EB8D8BE
BD0088C4
3D4127D0
3E01D940
BDA763C8
3E2B4932
BCE7524A
BD581C11
BE1AFB27
BD5FBC28
BD90C884
BCD5E895
3D50FDDC
3E4AEA24
BDBBE318
3DBB68A5
3E9ECEC2
3EBF4FC9
3EB22C99
3EA3271D
3D56C808
3DB3E05B
3E861B52
3EC2DB2F
3DF8CC80
BC70500A
3D019E2D
3D2F8948
BAC1DD27
BE4F70A2
BD2B0E97
BE218669
BE90D3AE
BEC5BF9C
BED23092
BE876FF4
BE16B137
3DF198CA
3D9AAF03
BE111AB9
3D52B473
BE0E0200
3D93AD73
3E1437B1
3E26951D
BD221A9A
3C7C5F6C
BCEE9306
3BBB501A
BDDF98B7
3DF10053
BE32DD6D
BDE49526
3D2480E9
BC00C2D8
3DC45A2B
3DFD5FEA
3D9532E2
3E8262AD
3D5F882B
3DA23E49
BDFFB961
BC0C1297
BB8389C0
3D1A37AA
3E0D968C
3E3C189A
BC9E0B33
3DF9742A
3D98FA43
3C6E78C4
BB8C5DD6
BE2C7835
BC6EC733
3E887FE6
3EB8E582
BE0FABB2
BDBAD53B
BE5371F5
3D74BE81
BE38F33E
BE50C88A
BE18781D
3D584E88
BBEDAC9F
3E252BEF
BD80FA62
3C218360
BDA12836
BBD2859A
BE1DBA6F
3DD59337
3D17C28F
3DC5F0DC
3D45EAAE
BD159848
3D8F5079
BE530E5E
BD4E50D9
BCA0E599
BCB802A6
BD72BC7E
BE7DF9A3
3DC04C85
BE5AD1DE
3D087214
3D9B23E4
3D5A4DB7
BDAC44AF
3E824C1B
3DC6081B
3D061690
BD01E072
3E06C97E
BD8F7532
BDFF1E59
BB6119FF
BD05B2C5
3E2F1BBA
3C045894
3DE232FB
3E12FE17
BE61A600
BE00A577
3CEDA4A4
BE64290A
3CB1439F
BE5B34AB
BE69DEF0
BD8ED1CE
BD1A05EB
BE04694A
BD824CF5
BC0180FE
3C54D691
BDF4DA25
3E86C4A7
BDC2B25E
3E0D880D
BD85218E
3D47E4E1
BD1DAFCE
3D694772
3E584018
BD05B203
3DBD92D0
3D44CF4A
BDC18E40
BD8CEEAA
BE82503C
38172F03
3D15C8D7
3DC4583E
3D716B3A
3D4D85AD
3D8CE54B
BD899FD8
3E599B5B
3D8DC9A2
3DDBF1B3
BE51DD7F
3D5763A7
BE2D1167
BBEAC6A6
BDD2B819
3AE3D0E4
3C89F1E1
BE3EA03B
BE81956F
BCF67735
3E2D1B57
3DB27964
3D142BE4
3CDA510A
3DF8A86D
BDAC708F
BE51792C
BE86DF6F
BDD330BC
3D83481A
3DD07182
3E7544AE
3DBCFFC8
3DFF6E3F
BE59F439
BF07B1F6
BF1A3FBE
BF082400
BE9FDA18
BE44E4BC
BEBB391D
BEA2B929
BDE70FBF
BE51CCC5
3DB9B936
3D622C4A
3D9EA839
3D245371
BD02C2A0
BE411714
BD5C186A
BE54C858
BDE42BA9
3E032BA0
BCA366DD
3D02BC4B
BD171C6C
BD13089B
BCE70233
3DEFBF4E
3E3B4FE1
3DA07D16
3D868E42
3C78988D
BD099228
BE0E7D35
BDE75C80
3E0E4771
BDD84274
3DA0D83A
BC71C8E5
BCFD980C
3E32385B
3E09A2E8
3E0D7CC0
3DB2C823
BE83FA75
3D0BA35A
BD628591
3DFF847A
3E0A853E
BD5EA2F1
BE0A70A3
3DA30699
BD1B652B
BDAB6A3C
BDE639FE
3C9DEEE9
BA95743D
3DB16817
BD970AD9
3D1E3715
BBC31EF5
3D69C8AE
BDB0E6D1
BD8BEB08
BDC56861
3D06E933
BD3C2278
3E8C93D6
BDD273F1
BD97F12E
BD86147A
BDE84FC5
BCDE0BC4
BDDC85DD
BCE2C7E6
BCFCC22E
BD77865C
BC3364DC
BE0CEDF6
3E21AA17
3ABA9D8F
3D1AF82C
BCC78205
3CCF62EA
3DE27E1C
BE209020
3D06FF53
3E9457D5
BE5219F2
BCD5A223
BD678B6A
3DA74D05
3E31AD86
BE14C6D9
3D9CFD6B
3DCB182F
BDF1BD2C
3DC01AD5
BD318E68
BE1F95CE
BCA37398
BE499B11
BDE77029
3BA3714B
BDCB8AA9
BC92F941
BD3C7C95
BE8D2139
BDA1FAE4
BD0A5A29
BD41EA63
BD4B5B48
3E05147F
3DBA9193
BE54536D
3D5C7F2F
BBB8B6C7
3E89EB74
3D9B6771
BD2A6C58
3D78CBF9
BE4CC144
3BC5B4D3
BDBF30E1
3D47FA35
3D7DDD59
3E617389
3DB7D704
BCBADBF9
3D9C36DF
3E4BFD72
3E42419C
3D8761B5
BE1E3E9B
BC0C8F2B
3E223883
BDF1A254
BE2012A3
BDAA587C
3CE1D0CB
BE12492F
3E5EEC8A
3D4A61A3
3D1F38CD
3BAE3826
3E352B6F
3E2F2EEA
3DF036BC
3E5835BD
BE10BB97
BE9C8168
BEA5D50B
BE30CA24
3D498F9E
3D108F87
3DAFFF1F
3E2CAFD5
3D8496C8
3CAAF989
BDF8C93F
BD0092F8
BD48B739
BDFBF437
3B4E8FA7
3DB2DA61
BB710718
BE8B0FF8
3CF5E8E5
3E3354D5
3BF9015A
3E4BDF8F
BE531FC0
3D8676EA
3D38CDE2
BE77BDC2
BDB0CD99
BDE94C7A
BB709122
3D1F1CDE
BDA80AA7
3E208D16
BE167FCD
3D338591
3C2C81D4
3E54F40B
3EAA16BF
BD3E9379
3E82C93E
3E161AAB
3E2FA509
BA196473
BD9B4E8D
BE7B816C
3BE64B95
BE8DDD50
BE0EE46A
3E668BB4
3E4F99BD
3DD60624
BE256437
BD579563
3E58150D
3D02A1EE
3E039DFF
3DB6B15C
3D7BB672
3DED070C
3D967184
3E0E98BB
3E6C83CB
3D32B097
BB8AE530
BE2DD7ED
BE1F2926
3D847FA9
3D56BB83
3D73BFF3
BE157E09
3C772B90
3E28F975
BE5C10D8
BD261D91
BDFA0613
BD12B133
3E194D3D
3C35DF80
3E2EEF9B
3E38C68C
3E18D9A2
BE848BD1
BC954633
BD2E0E20
3D5FFF09
BD82299B
BE364EFE
3E4B4224
BD583419
BDDEF5FA
BD1906ED
BD8D90DD
BE6D27EC
3DC76AB6
3E1E6EDE
3CEBEC58
BE340BF1
BB21CC54
3D3CBB90
3D847070
3DC7A6DE
3CB5E423
BC88F17B
BDB7035F
3D1D4406
BD9D734E
BBEE07BD
BD998EFE
BD2C9B64
BAFDBFF0
3E40FB8E
3E6F08BF
3E247794
3E254AB5
BD0CEC6D
BD830C8D
BD0D93A2
BE8EE61E
BD313478
BD50BA4D
BD878E41
3E7AE25B
BEBCDB82
BCA3749A
BE28B264
3E136977
BD32A5E5
3DBC8139
BD8F9E22
3E0C1CFB
BD242B89
3DB026CB
3DA2827A
BE468AFF
3EA1B263
3C8C6DD2
3D72C405
3E74B549
BE36EAF7
3CE7D180
BBB59B7F
3C9AF9E7
BCDE2052
3E2BE942
BE111D5F
3D9456E9
BD8F73D0
3D893464
3E30E13C
BEAECE75
BE10B136
3EC1DAC2
3ED69277
3EC2450E
3F01E8DA
3E93FCF2
3E8A6224
3E971137
3DEE4BE6
3BE60C66
3D82C1C3
3C1A9900
BE0D2E36
BDF06E4F
BDB73872
BE6B59C3
BF2F3169
BF16224C
BED683E8
BDFB054C
BD8DE694
3D2387F5
BD0597B4
3D7D56BB
BD703BBA
BE71CBDA
3CB99AC1
3C831B13
3E676959
3D9D879F
BE171774
BC4BFA14
3DCF18BD
3DA57DB5
BCD5D56F
3D1672DE
BDB7F5BC
3D7ADD81
3C6C466F
BDF0BA98
3DE80362
3CA98B49
3E0F230A
BE331968
3E419985
3DCAF6A2
3D8FB244
3D1043A7
3D62E6EB
3C254905
3D8E97DE
3E079881
BE0062FC
3E16BA78
3DC34600
3D048BE3
3D3ADD41
3B2AACEC
BDE9FCCC
BE03CF05
BD98F1BC
BC6D9C50
BD2D4AEA
3DDB64B8
BE23BCB2
3E0684AD
BE1D7D68
3D987882
BD83BFD6
3D85487F
BB9BC669
BE0D0884
3DC89245
BDD26E47
BDB33592
BCBEC517
3D5F4FEA
BDF299BE
BD90FFBB
3DA4ED52
3D8E764B
3DDF21C1
BD22B173
BDDC89A4
3E291772
BD908739
BE13367A
BDD09E56
BDA4C7E7
BD971CA6
BE659E69
BDA6210D
3DC4831C
3C814677
3E4D7DEE
3C3E73AE
3D5A2380
BC5DD0D6
3E31F227
BEA99685
3E33CDAE
BCBF3448
BE2904FE
3C41A5D2
3DCD060D
3D04CA98
3DC3E82C
BCABDF5C
3C2919BF
3DDC14C6
3DDAAD02
3DBDEC2F
3E92C827
BD985514
3E14E0B9
BE9C3E1D
3C984B3B
BD73D082
3E5B1C79
3C017FF0
3AB3F8E3
BD4F48DE
3E842CA8
3D5CA090
BDDA06B4
BE46B343
3D94B1DE
BC5DE1BD
BCF38513
3DE9C645
BE30B9AD
3E23B568
BDEA0B95
BE278804
3DBB04A2
BE862849
BE129DFD
3CD01369
3D226F4B
BE458DF3
3D8F5DDF
BE164968
BDD165C6
3D18FB06
3D8E6982
3D922A65
BD7FE0CE
BE20E4DA
3B2EA004
3D7F0FD6
3C9DB903
BDFE6C5A
BE0FAC2B
BD148BD6
3D9C81AA
BC7B01D4
BE750D57
BE9E9A4B
BE507FE6
BE8FC68A
BE8919EC
BEA21830
BDEB2C84
BD3630FA
BD4266C5
3C73E1DA
3D7F7086
3DFA0E84
3E26E2CA
3D83F534
BDD7963A
BE7D44CF
BEA504A6
BE81F1DA
BE5839EF
BBF5B31A
3E4B43C4
3EB57D3C
3ECC1F2F
BCB31399
3DB4113C
BC55F7AE
3D66117F
BE3717D2
BDC14F7A
3D5439F9
3E68BBA5
3D4EEA89
3D118417
BD9F9553
3D9AA5D7
3D701CD1
3D800CF5
3E5D139B
3DB703F4
BE025E14
BDD75112
BE9A8295
3E4D52C1
3BE0A520
3E3353C9
3E48475B
3DFC184A
3D642BBC
BD6D0391
BCAB71D9
3E04B4CA
3DAFE402
BE3E9F85
3DB4D489
3E044919
3CCF25A8
3DD3C6A1
3DCD2BCD
BD9A2E44
BE444BAB
BD48A104
3DCBD74B
BDDC8F40
3B7790F9
BD89E999
3C6D7127
BEA3F9CA
3BE46EEF
3D3C2FF4
BD398397
BD3698C3
BC29468B
BDDF40D8
3D111CF3
BE01AEC8
3C0EA854
BDF37451
BD5302BF
3C89ACB7
3E11EECC
BEA5A866
3E3528EB
BD8FCE96
BE5011D3
3D920C3C
BCF1B0D7
3E1B9BE0
3E170F17
3D82044B
BDB559C3
BC6F78A9
38920BA7
BD9FA2F7
BD47FB3F
BB71AA1A
3E7C6808
3E38010C
3D4253E5
3C9B83C4
BD2FC3B5
3E5812B1
3E2E79B2
BD7926DD
BE067565
BD86F5E6
3DC5EC0C
3E1E1B38
3D29D1DE
3D90A36A
3D45A043
BD1CEBD1
BDE4B96D
3CE85407
BE4C287D
3E227A71
BE16247F
BCB9AECD
3E3C743F
3D6475C9
BD2A1B04
3A026D61
3DDAFA22
BD9C6FB1
BE67148B
BE03FB08
3DDDDB98
3DF667A9
3DBE894B
BE14F73E
3A0F1597
BD26D460
3D44FC94
BE580CE6
3C7F7947
3DB23009
3D522DC2
BE1B4FEE
3D069D83
3DA76160
3D8422A0
3E2AFDDB
3D403CEF
3D0B89A6
BD225D1A
BADCC068
BE7AF91C
BD95050E
3E1466DA
BC18A445
3E0360EB
BE7E6D16
BC67EC38
BE86B96F
3A6746EE
3BC44711
BE16A12C
3C7D57F0
BDBC8C10
BBA04728
3D9DFA76
BE15DAF7
BE333219
BE30A442
3D1437F3
3C02D4B8
3D1CECBB
3E0E6A19
3E2EE6F5
3D30142A
BDC369A0
BED66FAE
BEF0DEAE
BE4F4921
3CB92A73
3E67CF9C
3E75A44F
3EA7CCCA
3E80A8EA
3EBA2C1D
3EA7BC2C
3D8148B5
3E47B374
3E659811
BDCC5FA5
BDC05969
BDAFF974
3E16FB2B
3E65C924
3E3148E9
BD9F882F
3CD34329
BDBF8C6D
3CE3C42A
BCF9EA07
3DA8D5A4
BE5FA66D
BDE19D16
BC75C839
3DBBC6FA
3D8C0740
3E4829F8
3E24F935
3ED2D487
BD313379
BDC4FB0B
BDD97778
3E565A57
BD71612E
3CD90EC5
3D605835
3D6BC71E
3D90881E
BC0F28BE
3DA2F732
BC412666
BCD085DA
BDE3C86A
3D736F9C
3DEFFFD8
BD379AAC
BC128F2F
BE4821CA
BEC38F5F
3D295BA6
BD8A9F71
BDE06E6A
BE1CE6C7
BCEFE1F5
BD96ED56
3E8A6DFD
BD99A9F5
3C871467
BADCE90B
BD748E5A
3D93A941
3B95140A
3DD760B2
3EA1D375
BDC3C6AB
BE1E75CA
3D69FFD9
BDEC0189
BE35E2E9
BD84B8A8
3CEAF186
BE07EEF6
BDA5B72B
3E11F567
BDCD13A2
3D710308
3E59E7A4
3EBBFC6F
BD2248AA
3DF7868C
3D686960
3A695766
3D8AF0A6
3D5537F6
BCBCDA66
3C4A3ACC
BB4E0A17
BC97FAB8
BD810891
3E12B7C2
3E92ACAE
BD40FEB0
BE503743
BD0C809C
3D15A92A
BDFECA9E
3DE359F2
BE118F53
BE57D27E
BE3DAF73
3D70F5FC
BDF17A54
3DA7ACAF
BE09E3D0
3E67D78D
BD7CCE24
3DADD727
3D3315E7
BD227C8F
3D33AA7A
BCBF708E
BE53B8DE
3D90A6C4
3E57A044
BBBA488C
3E05D6F4
3E294622
3E18C8B3
BCEEFD6F
BDD9C787
3EA47B17
BD21E1BF
3DFC5E2D
3E52D293
BC23F842
BE16DA95
3C9F4967
3DD7CDA4
3D123778
3CFCE1F9
BDD17672
3DA3FC07
3C5F04A8
BE0FEF11
BDB6AA6D
BDFC0D3A
BDF46E09
BCC87387
BDF58C8F
3E3B0A0B
BD410899
BD4167D2
3DBB8C4F
3CCDA7C3
3D0278B9
3DA088DC
3E70CE70
3DDAE74F
3DD967D8
3E2E728A
3D83FB97
3DA74F9A
3D4B5FF3
3BFA71F9
BE21A8EF
BE97385D
BE21A225
BDA9030C
3D697991
3D0574DC
3C029099
3E4FF5E8
BC09307C
BD3519E3
3EAF9046
BE6F07DB
BD8EC8C3
3D3E55C1
BC2EB29B
BBB70936
3E4B9721
3DAFAE25
BD341B2A
3E35803D
BD7024A0
3D251AF2
3E0EC871
BDF76394
3CFF812F
BD914D0F
BC1BD4BF
3DB6BB4E
3DF3259F
3E99AF9B
3D9A35D5
BCED9FAB
BE23667A
3DE48DF7
3E179EFB
BDA1649E
BDBEB6D5
3E4EB965
BDA60047
3D4BB0EB
BDCDBD3D
3DE99293
BE4969F8
BD2E8B61
BD6BE9D9
3E0C4A18
3CF80EAF
3EAC1803
BDE1352C
BD74D418
BE2E5DE1
3D1B287D
BE2EF700
BE3131CA
BE538C04
BE55F810
BDA81202
3DFCED77
BD023712
3D5842A2
BDFA1222
BE24B3D1
3E0861BA
3DF0B7A8
3E90BB97
3DAB08AB
BE3339DC
BE9759B5
3DB67AB1
BE89D1D1
BD0CAE82
3D3082AF
3E69D232
3DA89695
3C26E80C
3D1E0EAC
BE38E0F2
3DA96B62
3D6ACA8C
3D1445A7
BDAB366D
3E21B2E6
BD424C08
BDCEE129
3D2DD82D
3E19FA12
BE575E49
3DAB5A9B
BD21778C
BD002067
BCC6F35F
3E133497
3E2622BE
BC15CE71
BDA59135
3D02B5F0
3E2718B6
BDAAEB45
3E4BD549
BE32F9F9
BE9B7DB7
BE352A84
3E31CB8A
BD6B3A03
3D900A08
BC36D636
BD67EFAB
BC56B6A6
BD55BDAC
BDB9BD32
3E40B821
BD6158AB
BDC92B15
3D78CAAF
BE1546E1
3E3DED14
3E2278DE
3D67124B
3EABA490
BD037C79
BE652476
BE4F9CF0
3DCD6627
BC0ED8EC
3D9F217B
3D38A382
BDE8A083
BDC688F3
BE434BE5
3DC3E2F2
3C921180
BE02A3CF
BD81EE1F
3E0CB4FF
3D045C40
BD6D5863
BD82E628
BDFC3DEE
BD690BE5
BE32B66B
3E00D8F3
BE7964E9
BE9FA06C
3D29158B
BD7339C9
3CA2E07A
BD53B554
3D4409AD
3DB561B3
3E453488
3E911F6A
3D73FF26
3DFB629F
3E8ED1EB
3E56E2A1
3E113D32
3E4F87C1
3D900DFC
BA37638D
3E4BCA7C
3DD265FE
3E331FD4
3D95DA78
3E0792EC
BC08FFD0
3C9B1A7E
3DA44784
BDCD900B
3DA86A5E
BE91D088
3DA7BC5A
3E483E93
BCD24CB9
3D5AFFC3
3D337357
BD036FB4
BC9076EB
BD897FC7
3D1CEA06
BE51C3C7
3E39E6DB
BD245057
3E3930AA
3E5FCF44
3CC836A0
3DB0BD2F
3E031F33
3E432B8C
BE179A5E
BCBE485A
BD0DFCE3
3DA09D2E
BD539815
3D617487
3E886D1B
BE0F4AE2
BD5EE249
BDA9173B
3D087BC5
BDEFA7D1
3CD9ADF7
3EDEEE9C
3CBF3D72
3C36720D
BE81AC9E
BDD3F6EB
3DD162BC
3D2E3321
3E7833AB
BDAE00F7
BC85EAAB
3E87C42E
BE6C0698
3E3286BC
3E3DB6F9
BD6BF84C
BEA8E48A
3DAB26F0
BE6AFC34
BD68E7A5
3C0AD256
BD04CF40
BE4C6B2D
BE5838B4
3E435504
BE8E1F5F
BD2EB4F7
BE4BC8E9
3E8AD4C7
BE66DCEA
BC68C96D
BC60E776
BE1EC127
3E99C2A0
3DE7ACAA
3DF75C4B
3E55291A
BC85FEFD
3DE12BFF
3E3F6175
BD84586A
3E91CFF5
BE1DE813
BDE7ADD1
BDFFE586
BE2FC6B9
3E4B4C9A
3B485566
BBB5417A
BDB24D9F
BE44AC66
BD042A09
BD7831C5
BEA8B6D8
BE26B7C5
BE6F77D8
BD9A3486
BE006976
BE7AB680
3C589746
3E97F3E7
BDEC58C6
3E58A153
BD7662B0
BE0FE451
3E8A82E2
3E51BBA0
BCF936EE
BE285122
BE357F88
3E266F0D
BD331559
BCFCB4B7
BE3050D2
3E0CB513
3E662E40
BD013DD8
3CFB0E89
BDD534BD
BCA7074B
3E2EB980
BBABFF4F
BEB91109
BC8531DE
3EA5FB86
3D370FFA
3CAEA62B
BE0E46C9
BE0BC1CE
3E5B6410
BDA18562
3CD9D75C
BEBD23C1
3CF6F453
BDE8DAC2
3BC1290A
3DAA6555
BE0E23A8
3E3770B0
3E144370
3CCA21D2
BC82B470
3E313D46
3E4A78AF
3EA11783
3E004A08
3CCE59A0
BD0185C1
3D86AD3D
3D086783
3E478169
3E09B38D
3DDA7554
3D92ED2C
3CCE5085
BDF9141E
BDB64F75
3D95C0C8
3E774D74
3E2BE1F9
3D4B6C6D
BE49EFBE
BCE842F5
BDBBB57B
3E8B1939
BE35B4E7
3E7B28E6
BD330889
BE3B3220
3E3282E2
BDADAB8D
BDF709DF
3E4F5BC4
BDCA456F
3DFFBED5
BDE0BB11
3CC47921
3D4E0079
3E9AF867
3DF9E8DF
BD9AA513
BECA19CA
BE35C0F6
BDA9C349
BC9B0697
3E03E1D0
BBF08A16
3E9504C8
BE864808
BD133529
3D615776
BE64A42B
3D775C05
3E4A5B31
3E7D445D
BD85030B
BDB25B2C
3E9EF52D
BE7AEBE6
3E08B7D7
BE4F52CD
3E76A734
BDF79A94
BEC2B5B3
3EA0D1BE
BE4B11C7
BE633E22
3D13AC5D
3DB1E07D
3D6C643C
3E77EC43
BEBB3D3A
BDCDA09D
BEAA61C3
BD48E33E
BDC7EFB9
3C7B4068
BDD3BD9D
3DAB9E01
BC2D829A
3ECCAFDF
BD7DFAA5
3DA4D518
BE2F3E32
BC4EAB14
BEAE6242
BC9E13D7
3EA336B6
BDD2117A
3D2868C2
3D81855D
BD90F75F
BE21ACE5
BE7C9632
3E074235
3CE85188
3D945328
3DBFD54C
BE5C3C2D
BDD1CCB1
BCBEA974
BEFEE088
3E570AB0
BE75A1C4
3E52DA7E
BD96DAC0
BD9ADC81
BE1F415E
BE39845E
BE72C7E1
BD4262E4
BACAF8A6
3D895A58
BD75BA14
BDE0BAE9
BE0DCEFC
3E0AC182
BDC44299
3E432456
3E194FE9
BDBA76FF
BC1B8D3E
3CD78B1C
BE4CDE85
BD81A79C
3E2E7408
BDA260E8
3E48FC1B
BE33436D
3E4CB810
BD530607
BE8D0B0F
3DA891CD
3EF5D672
BE8CF6FB
BD08D33B
3E18FB44
BE08094E
BDE2467C
BD875572
3B600D46
3E625644
3EA04253
BE16536C
BD67AAA1
3E987AD1
BD1E9D87
3E729245
BDE0B9CF
3E018A4A
BDBF5974
3DF36F71
BCB7B60F
BDE7244C
BE64B3FA
BE590335
BD7F3B54
3E456CD7
3E527ED2
3DEEE83D
3E3D7FB0
3E9E4724
3D975D7F
3A05C95A
BA47226E
BD6F52B1
BD022B69
3E0BB5CD
3E8F70E2
3EF0E585
3F0BCA1F
3EC79CDF
3EC01F43
3E983119
3E396624
BE80278B
BE867CCD
BD8C98F5
BDDCBD2D
BDDB70E2
3E91E2C0
BD12D6AC
3E3F92B0
3D3875D0
BEB56E4B
3E278884
BE425FA6
BD20FD91
3CB5538F
BE751E39
3E6E0957
BE8A4099
BDA2697A
BDE0BD0F
3E11AD00
3E78CE5C
3E3FA63E
BC91F403
BD965DCB
3E56AD0C
3D767626
3DEE43C5
3D279A76
BE235BAD
BE31EA86
3E6841DA
3EA0B5D6
BD3BB304
BDA185DA
BE38B23B
3E8955E7
BE92D92E
BD1263A0
3E905FEB
BDBB67DD
3E4DF2ED
BE7DA8C4
3CED33AA
BD25FAE4
BAEFE9DD
3BE3A50B
BE05CEC0
BE420719
BCE852A5
3D8C647B
3D9E117C
BD8A2856
BE8DDDD6
BEC136A1
BC8B1F1D
BEA08FB8
3D5CE033
3E076676
BD90857A
BD95A536
BD9AFFCA
3DB5EA27
BD8B7495
BD3BCB30
BE819BC3
3B8603C3
BEFE7FC3
BAE49961
3E4EAB73
BEC2177B
3ED52840
3E0E21A4
3C12AC7C
3E9ECE6B
BE13ACF7
BDA2B234
3C783AFA
BEB884DE
BCA4CA8A
BEDB4A85
BDC30172
3DB9F1EF
BE96DBDB
3DC74457
BE5C79C7
3E146D46
BDE3D7FC
3E0D493D
BEA35145
BEA64412
BE84D706
BC43F79C
3CF4FC9C
3D440C21
3E02DF43
BDE7D7EB
BE171CE8
3E678EBA
3E8165A1
BD801753
BE45908B
BE917ED2
3E831D50
3E8A1A0A
3DF73ACA
BC08E6F2
3CC02E3E
BE871A13
BDCE8F52
3D793E93
3E429098
3E2812D9
3CD52261
BE9505B6
3D82F01E
BE07A864
BD9FE2A6
3F038121
3D75A2EA
BDD6DD85
BDFF6754
3E6ED87C
BE2FD16B
3E1FB3B7
BE52EF41
BEA65EC2
3EE368C5
BDBF2FBF
BE3E9B1E
BE12C53B
3E9A6F82
BDC496EE
BDC1A3B1
3C7226B9
BF11FCE6
BEFE6458
BF0D7C29
BEE027DC
BEC7032A
BE9E492C
BE54AFD5
BDB00BC7
BD4A1337
BE7F4532
BF05F4CE
BF091E5C
BF0E3F3E
BEC21702
BE648E98
BD10169B
BD4A0908
3C930CF3
BE3197D1
BEC0D530
BE983A46
BE098322
3C1C906E
BE2B47F0
BE754DE1
BD50D8AE
BE2ABD1B
3E33BFDE
3BABC124
3E2BC2E2
3CB17005
3E7B5690
BE0FC5A6
BD3153B0
BE7178C1
BDA20908
3DA06488
3B79389D
3D28F616
BE332DEE
BC0F8CCF
3CC690FE
BD1DB84D
BDBCC708
3D84E4B1
BCCC42BF
B9A27C73
BE0C18C9
BD3C05B0
BDBD62EB
3E01A9F5
BDD79281
3DCEC71B
3D86B333
3D50534D
3E8BB9AB
BDCA3F4E
3E4BE5B8
3D1A1D2D
3E3FF86D
3DEB9F12
3CFD81BB
3E3FB8B9
BDE72A61
3E4150B9
BD943AF1
3CC88EF0
3CA7A6A8
BBC10BE8
3D3C58F1
3E0950B3
BD3ADA6F
3E1D9B1B
BE0D7D18
BDC0C018
3D659F16
BE32F5B3
3D3E712D
3C84B8ED
BD3840A9
3E0911BB
3E419A8B
3E1ADEEC
BE3F1702
BD73C2B8
3D4CC9C5
3E5E0101
BE07E9ED
3D9F9DAB
BE343357
BBB1DF34
3C85BE81
BD0F5F36
BCBE8A14
3E2213EB
3D96FBDF
3DCB24E3
BE50B31F
3E4F0938
3EA50E05
3D939A19
BE014D6C
BE153CAF
3CF3A6CC
BD867FE1
3E058864
3EB7BB73
3DD98EB2
3E4BB3A7
3E63E370
BDEC1A70
3D98A694
BCA36D73
3D5EC64C
BE1F214F
3E30CCA8
BDDA14A7
3DE0139C
3E4E1C5F
3D8668D4
3E608DB7
3B3AACA4
BE8AD6C8
BD4B93A2
BD00683A
3E655744
3E956426
BE733D9B
BDAD7D2C
BE75B269
3CDE5525
3D07C360
3EA40B6B
3D512646
BE9F5CD7
3D5804FC
3D33EDD3
3E1D30E3
3D7F9D6F
BCC9AC81
3E9F2548
BD7F4268
3E118641
3E218BE4
BD93855F
3D63D72D
3C891F94
3D2C21B4
3E259232
BE7E54BB
3E14896E
BE8001C8
BE69302A
BDFA7498
BE8A8C30
BDB6D818
BE8868D8
BE0CD346
3EB11C2A
3E85CEA8
3D842711
3E360D10
3D593302
BE27C760
3C95CA77
3E228EC2
3E530567
3E21C044
3E746314
3DEDFCFE
BCF53115
3E4B88AF
3EA66D52
3ECCA30A
3E89B7F5
3E0DB34E
3DD1D97C
3E5D0566
BDF956E9
BE97AF7F
BDB16091
3E264EE9
BE0B6318
BC44B6E9
BE2AC4BC
3E0A5B1D
3E2363E1
3DB33AEE
3C1AAC30
BD3166D5
BDC97410
BCD5AF14
3DA7CFF3
3DFABA03
3C4F3DAB
BD3383F6
BDCAAA8F
BCFB0885
3E816104
3C382BAB
3EBD14EE
3E52936C
BCB4DADE
BDC31176
3DC9A1BA
3DAEE53A
3E1C8366
BDA451B2
3E3F17C4
3E4BDBDD
BE47CF59
BDBD205B
BD56A2F7
BD7C575C
BDAD1A62
3DA45A23
3EA3DF5A
3D89344D
3E57B2C6
BD10CFDF
BE0985A7
BE10EF35
BE18AC63
BA6B3FDA
BE05747E
BE07DBD3
BB328A68
3E08DA57
3E5DB2E9
BE34D651
BDAED388
BDC38C77
BE14B6C8
BE05E658
3E43B06D
3E8FB7EC
3E277DDF
BE08F594
BE274243
BE13E5B2
BDA3FF8B
BDDB6150
BE2E041F
3DA087FD
BDF4733A
BC724BC2
3E3C77E4
BEAEE31D
3DA7DE33
3E2BFDB5
3DCC0CD8
3EA32394
3D2497FA
BE24F40B
BD8E8E8D
3E69A49C
3DE1E083
BB130EB7
3DB5458B
BDB7156A
BD715F5B
3E5C09DF
BCDE164B
3DBCAAFA
3D97BD22
3D5401D0
3C8D789F
BCC04EC0
BE5E3DED
BE23AC2E
BE47F4CE
BE5B1B4B
BE223613
3D90B08A
3BF72CC1
3E50A6D4
3D68022A
BE1082E3
BD11E6A0
BC6F96FC
3DD0142F
BA8A4D20
BBE177DF
BE20A25F
BCE15FFC
BE500CBD
3DA8683A
3DAE5591
BE7C49C1
3E511CCB
3CCD5B4D
3CF7D036
BDE6BFBD
3E41EC26
BD5ED080
3E97110B
3C8FB804
BDA9B3E6
BCCDEA8F
3E0C0F09
3E02374E
3D87AA84
BE218B3C
BE3F97A4
3E7885E0
BDCB79B9
BE2D23E2
BE5A350D
BB7DC39D
3C6A48D4
3E9377EC
3E506474
3E64E146
3EEE15A9
3EECA2E5
3E89DB98
3EA26C71
3EBE1CE8
3E82625D
3DDCDE50
3D13F97F
3C22B02C
BDA5A939
BE020903
BE840A7C
BE473124
BDC8DACC
3E078C22
3DCF658B
3DB1D8E6
398AE6F9
3CC00B6E
BDD63EEC
BD245F4B
3DC65065
3E8D6412
3D48E636
BD2B540C
3D87FB72
3E4AFE5A
BC2F7726
3E1ACAA1
3E9BF50B
3E363052
BD916846
3DF169C2
3CEC4944
BD40BBFD
BDB5FB28
3D04F5BB
BC4F4497
BE231910
BD9BA876
BD537C57
BDDB8CEF
3D54F16C
3E85B91F
BCD4E11E
3E683AE1
3D7B74BE
BD430467
3D973922
BDB11785
BDDAC5CF
B8DE9AC1
3D8B9ED7
3DD88FAE
BCB0A5C5
BD8A0F33
BD894803
BD82FC06
3D311940
3C292A26
3DB91A62
3D8846ED
BD74C75D
3D895B98
3CC63FE5
3BBF7D2C
BD26A35D
3E131B6C
3D231ACD
3D3E37BC
3E19E6AC
3D3F1A85
BC79C41C
BD57ADF7
3CD2B2FB
BDAF3170
3DDC1CBE
3E98401F
BE2E5B8C
3D4FA5E3
3D90AEC5
BA74F6AA
BD503B3C
3C80B6D4
BD198898
BDAA490A
BE1245CD
3E1C6195
BDB5F905
3D15B325
BDEB797B
BBF3D384
3D16EA95
3D92CCA0
BE2E5556
3D3EF65B
BC9F3F1B
BEB1EB8C
3E40A2E5
3CE3DA35
BDA081D2
BDD90174
3E074949
BDF29C27
3D606EF0
3DD21427
3DF9661D
3E227DA4
3E401444
BD62EB4A
3E0DDDE0
BDD8BC67
3E6B35D9
BE5E9CF4
BE09E252
3E144835
3E0198EB
BA0BF169
3CD13A1F
BE3F4E66
3E30F473
BE1E3194
3DA0E110
3E3D1C99
3DA945F9
3DF183DE
BE43C218
3E450B08
BE6ACC71
3E39F4B2
3D8008C8
BD79A535
BD7CE6AB
3DCAD969
3E19ED25
BDE2CE89
3E31DD93
BE06897A
BC00909A
3D9A722E
3E65D25E
3DA1F1BD
3DBDC3BF
BD81DE5A
3D392B0C
3CBE34BF
3C0D95F4
3E0700C0
BD9969E8
BDFAFD04
3E4D7D97
3D1ABD28
BD7D8349
3DC7D384
3DD10145
3E150DC2
3E061B0F
3D370D12
3E07D2A6
3E809E9C
3E70AE46
3E196AB4
3E7E8307
3E5C10EC
3D6284D0
BD5EEBB3
3D3FD324
3C8A9E29
3C83893C
BE2D951B
3D0BF960
3E0C9B2D
3E32D11B
BD4F4420
3CCFCC3B
BD91ADF4
BDE1F4A5
3D2C7ECF
3CAE36CA
3C350E14
BDB8E9DC
3D0DD2DC
3E523982
3C3F9475
BE5EA70B
BDE4B1B8
BE4D7C12
BD183008
BD048D99
BCDE5A53
3C190D63
BD197BC2
BE5B969B
BC6C487E
3DB258B4
3E825F31
BCF11800
BD378C4E
3D5FD2E9
3E541C03
BE5D51A1
BD447CAF
3DB1266B
39A13AAA
BD5C1FE6
BE124936
BD3CEE6E
3CE5F603
3E784704
3E89F6C4
BE827F30
BDE6088D
BCCBCF46
3E2AAF9B
3D854DF5
3E0E99B4
3D3E4AD9
3D03028E
BC91BAD3
BBE26473
3D6E9430
3D890876
3C99B4C2
3CECAC4B
BCE854C3
BD496475
3DDD78A9
3DD3969B
3D265BED
BDCA1121
BCBC43A3
3E7D1344
3D56C2C0
3DBBD81C
3DE7DC38
BE544D29
BE1D5D08
3BA4163B
BE85A297
BC6F1440
3E0432EC
BDEC3B78
BD9B8BEC
BDAC827B
3E70CDF1
3D228CF5
BE22C054
3E937FD0
BD890642
BDA6B95D
3D8E5D71
BD7AC083
BE25A7D9
3E1A1364
BD31ABEA
BD9E8767
BCA7420E
3E6CFB98
3E0E15BD
3E66159B
BDB8CF7A
3E9346A7
3E30356D
3C47B0EF
3E87F06A
3D846700
BDF77E87
BDE18DE2
BD434C8B
3E1CCC03
BD0D2CB7
3E2669B4
3CCDB9CD
3DB11391
BD67C1DE
3E6A0543
BEA55D5C
BE61A39D
BDFF9B8C
BD8EC7C5
3C910891
BC04AE8E
3E257AA1
BE235611
BE257364
3E2BAD69
3E3326C0
BBF4AF27
BE4795DC
3E30F217
3AB4B122
BE1172B9
BB6A8284
BD982022
3EA02F83
3CADD373
3C3E68B1
BCC7CFA2
3D182230
BC935EC2
BE90D196
BD373399
BE005243
BD6DC5CB
3DEABDF1
3BEE21C2
3E1DB49D
3E9F6C7A
3DE458A5
3E458A62
BDD74879
BDA0FD38
3DB93E81
3C544A7A
BD671D70
3D527F39
3E83BA3E
3E30CFDB
BD560E55
BD7DF764
BE76127D
BEFEC1BE
BEC49753
BE72A23C
BEAF0D26
BEECF6E3
BEFD5164
BED4B2E3
BEAF6380
BED38EFA
BE847043
BE24845F
BE9AC695
3D08AA33
3D956ADA
BCC2D98F
BE00578E
BCA4BBB1
3D04B54C
3DC9A519
3DD7FE16
BCFD068C
BD4EDCF5
3DADEA38
3D28778E
3E670D48
3E4609C2
3E095210
3E045E77
BDCC0DC8
BCCA9C0B
BD8D4173
3BF26BD4
3D3B3BFE
BD9826EA
3E56AF2C
3DA7385D
3DFB24C2
BD0607DC
3C736F99
3CB07315
BD120C17
BE6258EA
BD8208D4
3D425E54
3D2EB19F
3E7F1EDF
3E0BD3EC
BCC5C5E8
BE07BB58
3DA2AA23
3D7A9240
BE2FDEBC
3E4F8360
BD4A3A66
BCC24E8F
BE597DB5
3DFBA7FC
BD61F80D
3CF2BEDA
BDD6A9D3
3D0A4D08
BBC0C103
3E20FEC0
BD6864F9
3A8709C1
3E06BF87
3D6D11FC
BE34245F
3C282645
BC41100B
BC42F3FB
3E9C7F6A
BD7503B8
BCC9E6FF
3C853B1E
3C6FE27C
3E3BF0C2
BD04F987
BD74B2B5
BD84A0F6
3DEF5911
BC59C9C0
3D63468C
BDCFDD08
3D92A426
3E4B1D50
BC48F1A1
3E1D9267
3D569236
3E0D2CD3
BE2B9885
BD9B5C11
BE14624A
BD5ADFE5
3D8C4B6F
3D4E7A4C
BDC10783
3E444073
BDAE85A0
3DF63828
3DB8F1A4
3E2F8E63
BD434B21
3E1B728F
3C042F02
3E12CFC5
BD824E09
BD92B22A
BD3A8F6E
3D176E61
BD033384
BD8B42E0
BE127ED2
3E4F40CB
BDC0C1C2
3DA4E5C2
3CE99845
BD8BED7C
BC6BBB5A
BE0F5FB3
BC5BA2BE
3DA12E76
3E1FC2B6
BD959369
BDF9D6FE
3C5BEAF8
BD17D8E5
3D78A223
BCC68E3F
BDB258E6
BBB98E27
BD138D91
BC17F796
BD28FDF3
3E2167FA
BD05FB67
BD872B36
3DA1E431
BC8DF8E7
BE16700C
BC5B9959
BC838C2C
3DB85160
BC83FE82
BD85A6F6
BE95C7D1
BEB2FB13
BE1743C8
3C40FB93
3E18DBFE
3D420893
3DAD2E74
BBBBF18A
3D991A31
3E1A0382
3E2630B0
3EF3C2D8
3EBF3DFD
3E2B36BD
3E49ED8A
3DD7EE69
3C69DEC1
3C42F390
BDD567CE
BCEAD5CC
3D203DF9
3DE98D7D
3E1072A9
3E42C351
3E12076A
3D6014D6
BC8CF4C0
BC2B6D61
3DA1E654
BE2EE4CE
3E93173B
3DD6EBFD
BD8449AE
3DAD69A1
BE1EC629
3E15D533
3D9E7CC4
BD443666
3E0C00EE
BC9F1452
3E739D4A
3B866E26
BCC21DF8
3E17E217
BB8264B0
BD0D1FC9
3DD5D77B
BE49FC4C
3DD55956
BE28ADA5
BD55F1CF
BE0D489C
BE21515A
3BDFB391
3DDF2270
BD99B6A4
3E011F56
BE01ADFF
3C79AAA6
3DB399DF
3B08267B
3E305F36
BCB71F71
BD140208
BE154E46
BDDE293E
3D13AD39
3CD20DA9
3CAC50E1
BDC38F4F
BE006C9B
3E44BB9A
3D7ECE31
3C87A9ED
3E95FBD0
3D03C15E
BE33B9BB
3DB2F262
3DFDE291
3D2AE577
BE270B86
BC3E544F
BE8E4B9C
BD44B88F
BD8139C4
3D320C42
BC6A4813
BEA44A80
3DFAF88F
BD8B30C7
BD947CA6
3D826EA6
BE8A0ACB
3D5AC48D
3DB55305
3C887ABE
3E069B25
3D9DF8BC
3E2B1324
BE112139
BB6EA757
3E1E9114
BE2187DA
3E7742A1
3DC4C983
3E039687
3DFEECA5
BDD4E8D3
3E28FDD6
3E107754
BE9A4173
BDC8701A
BD08687C
BE0EA30F
3D0A0B5C
BDB6D030
3D5D7028
BE510F8E
BE510067
BDEA67E8
BC976319
BEA22926
BE18A182
BE1AE672
3E3BA7DB
BCB35A1A
3C9C7135
BC00F13F
BD0586B8
3CC5B96D
BE095E18
3E85E30A
3C8FBEB5
3CE3800D
3D1D1872
BE069333
BD3A64C0
BC8A4A56
3D63F058
3D0BEF5A
3E3BEED1
BCBFD553
BE41360A
3D3F67E7
3DDD7EF4
3D53DDEB
3E47F0AA
BDAE0A2E
BDF0A6FC
3D9C8676
BDBBFE17
BD692A1B
BE215274
3E6AA3BB
BCF90DAE
BDEC97CB
BEAA3D05
BC49BF11
3DF75F55
BC1B813F
3BFF1CAD
BD084F7A
3CE40350
3DCC4655
3E021D0A
3DF4841C
3D29B6CE
3DD7F0B8
3DA00735
BCED63E1
BE2B0F93
BD5B70E2
BCBF84B0
BDB9969D
3DAB02CA
BBDE6F48
BE2483F3
BDDCFBEF
3DD04AF9
BD17A2AF
3D8B5D22
3E818D98
3D4FF6C6
3DC054C2
3E4BC4F4
BE8D2023
3D34A112
BE16BA0D
BE504718
BDE9D2F5
BF05C4D0
3DFBE61D
3D86E6D3
BE8E68BC
3DD7B0C1
BE8B73CE
3E3ADD45
BE22CEB2
3E9251EA
3E56257E
3D63D146
3E0925AE
BE92E427
3E9BB367
BE9B7B3D
3E33719E
BD7592AF
3C81A3A9
BE75E885
BE35469E
3E7A7CFC
3D2967D6
3C5947C5
BE2E46D6
3EB94188
3E68E384
BDE7883A
3EB35CF2
BDA5D496
3CF9F067
BE75226B
3E981175
3D84EE28
3E459E7D
BE2780B4
3CC249FC
BEAD47A1
3C0AB381
BD8C2AC7
3BAA90F2
3E441BB9
BD95A369
BDFF7FB5
3E46F0A1
BE8D61CD
3D021447
BE91D624
3E33A4F8
3DBF2BC7
3D0688F6
3DE0EAD4
BD48F76B
3DA86068
BEBFE521
BD654FBB
BD6B4815
3EBC27AD
3E69DA16
BEBA1E3F
3EA72E17
BCEAEF57
3D8B1C1B
BD1796BA
BDBF1490
BE59C857
3EA3CE53
3CD7E2DB
3E468D25
BE737197
3EE3912E
3ECCDAE7
3DF4EFB1
3E367FB9
BE94A520
3ED93808
BE03D6B3
BD35D87A
BE33546A
BDCF0F90
BEA07406
3C7DD8FF
3DF6AF11
3E2BC0D6
3DB0361D
BEA1650E
3DC421C3
3D8F1CB6
BE28CC14
BD1D9309
BD2DAAC3
BE0E6BDA
3E8A856D
3DA60C48
3E1C072B
BE0D6B5F
BE4C7234
BE00A1CC
BB397F68
3CE957A2
BE03B4EF
BD91AF87
3E57EA7A
3C9505AB
BD632737
3D17DCE1
BD96A162
3EAAC790
3B8B4D14
3E93386B
BD805A58
BD80E045
3E4A56BD
3E033398
BE4D4A28
BCEBD368
3EA720C5
BE21D8E8
3E4E6524
3EACD1C1
3E931031
BE2CE274
BD75450E
BE2B75F8
3B33E36E
3D0F73F4
BE0F1A85
BE81EB35
BE6AD913
3D3AD61D
3E483D72
3E21DB59
3EA9021B
3E291D6C
3D72F86B
BCF3CF96
BE0C4F42
BE3EC7FF
BE84964A
BE3BA56B
BDE535AF
BD34AA9A
BD881D8F
BD3895E9
BDA9CAD6
BC8DA6F2
BE5400EE
BE316597
BE5CD9A5
3E90A8B7
BD08B274
3E6AD546
BCAD81E9
3D90F9F0
3C7EF843
3C82D9C4
3DA48790
3A54E0F3
BD3CA2B6
3DE821A2
BE038BC1
3E201E54
BD83F94D
BD1CA9EF
BE8CFD05
3E1A0092
3D965930
3D8F7AC2
3E2DB750
BD978DAE
3E04922F
BE4EC76B
3D8B0F19
3E153515
3DF3C5E5
3D032366
3CF3C773
3EA2D9B1
3DB4D278
3CC6DBA7
3E1AC47F
BC5BFE03
3C9CAF5E
B95BF7FD
3E5F38E0
3DFEF904
3DC8F655
BE303ABF
3E08ABC2
BE596986
BC3DD706
BD8ECACA
BDC5F0B3
BE249C40
BD8598A3
BE8D5754
3DA58E1E
BE2802BA
BE43B342
BE838E99
BDC3FA19
BE9C45B4
3D28436E
BD47FEF5
3EAF2F7E
3D565B0B
3DCD45F7
3E0A0E9F
BE131734
3C24D044
BD9521D2
3D66B75A
BE56A437
BC81CDA5
3E6D0898
BE13AADE
3E7D300C
3D84ADFE
3E381E47
3DC16770
3D103728
3C8D4D7B
3CA0241D
3D16923B
3E9065A5
BE12DCCC
BE081B86
BE32E332
BE1161B6
3CC51A76
BC22D15D
3E28BC1D
3D3682EC
BD593835
BE742E63
3D7206FB
BE523B51
BC9B057F
BE4D68C7
BE58DB4F
3D050F4E
BE2D6528
3DA29385
3E713024
BE7B6743
BCB84FF3
3DB91744
3D471215
3E338FD1
3E2D539F
3D61DA35
BEABF887
BE2AFBD6
BDEFE27C
3E292868
3C8AFB21
3DB8F8FF
BC441025
BB48F5AC
BDF842DF
BD1C4B83
3C37C0EC
BDC3D991
3E0B5024
3E18C88A
3C9AB6F6
BD0C3136
3E31739E
3E307D8A
3E1C6FF3
3DF34953
BDD4A7B5
3D95727A
BC985282
3CFD39BD
BE303F12
BDC1CF29
3E0A7187
3CCC9DF8
3CFCD823
3C4F2F28
3D04520C
3E1E0774
3E739D1B
3E82B60A
3E6392EF
3E903654
3E4C59F4
3E2626C7
3E01F9CF
3B4D9A9B
BCE0E53D
BC51D433
BCEC1A55
3DDA71C4
3D5CD94A
3DDE300F
BD9FF586
BE191970
BE797B8F
BE2E9DE5
3CCD50A1
3E9934F0
3E21A756
3E3B3106
3E10B1A8
BE20FF40
BDB0AF15
3D69E229
3E383E50
BD2471AC
3D8EC73E
3E2F5D86
3DAAE75B
3D5226C9
BE17DCD2
BDBEC998
3E08FB8E
3DD6D5DD
BC4C55D9
BCC58230
BC9DFDD7
3E256E3A
BDE26550
3D41ACCE
3E7D87CA
3D1FD6D3
BC3B92C8
BD95817A
3DF96ABB
3DCB1FDB
BD36F842
BE370890
3DCC9607
3DD74B18
3CAB4EF3
BE00B8D6
BE80C56F
3D36EE0E
3EBC0318
BDC0C81B
BE2C4030
3D9F56C8
3D2A5A01
BE15D624
3D6BA6A7
3E477A48
BE73516D
BD903B37
3E047596
3D59523F
3DB17E6A
3E1B1A31
3CBA8140
3E4BCC66
3DCA1FAD
BCB86ABB
3CC241EA
BEB8BFF4
3E969AD4
BDC54469
3D719F92
BD08B373
3C39C5EA
BD93F3D7
BC2C355D
BAC70BA9
3E2FFDCC
3D90B932
3DE06C1C
BD836BD5
BDD5FFB1
BE4ADBE1
BE171716
3CFE9C73
3E03F9E8
3CE72B38
BE33A7DB
3F012581
3EF6FAEB
BE8002C1
3C901338
3CCE8300
3DC0C102
BDE81C49
BD6B2230
3E7C2A67
3CBB2FB7
BCB03F78
BEC94F59
3E9A19E5
3D0F8E38
3E05AC18
3E782364
3D0BD4FB
3E5635B8
BBD1D5DE
3DECD764
3D8C768D
3E44BE6F
3E4A6593
BE5E052C
BD68E5D2
BCB36CF5
3DA69457
BCADA601
3D033A4A
BD4FD545
BDE57D68
BE4ED70B
BE05C7F6
3E436F13
3D93157C
3D659D71
3E589C3D
3D6332E0
BD4CDFD5
3E8233FA
BD90B6CE
BDD1A1C1
3DA845BE
BD8F7C4F
BE1E1EAD
BDD25CD2
BDAFF59D
3AFAB919
BD470187
BC10BE8F
BCA5659B
3EA1D492
3D2B8DC8
3DB0C06F
BE536F99
3E7BA9CB
3E6840A5
3DA8D5FA
BE00975D
BD1744A5
BDA96C15
BE09A8B3
BDFDA159
BE61826D
3CDE7988
3CFD5607
BE1C77D0
3E3CF0EC
3ED95974
3EA20C54
3C4BEC3D
BE9B3D62
BEA13DA7
BE81FBC3
3B5AABD1
3E45078C
3E21324A
3E646195
3E93923A
3E66D26E
3E0D85BE
BD0130DA
3DD21676
3C55B990
BB913C03
3DF33582
BE29CA8B
3E48BBD4
3ED72587
3E87A670
3D5B259B
3C78ECDC
BD4CE360
3D9A869D
3CB0F14A
3C2F3CC4
BDDA6557
3D77CD51
BE8A31BC
BD169B88
3EAF85CD
3D2A4BBB
3DC41EDA
3E980C52
3E1C2FC7
BE15A6F5
BDDE609B
3E9B5BF3
3DBE9D54
BE387A5E
3D7E5F4C
3DF4E916
BB8EAF07
3D16DBEF
3C3DE4A8
BD8B075B
3E0E27D4
BE1330C3
3E5B657B
BD1336CC
BDF998B5
BE8D3951
3CBA4276
BE87117D
BCDCA4A1
3DA9406D
3C763729
BE698AF9
BE6FA4DA
3E138E2A
3E2AD38B
BCE0F6E6
BDD7B924
BE6B7253
3E206A10
3C310856
3D3B7539
BDE6B632
3D8C4480
BE70E417
3BB4EEDD
3D98D3E0
39CA01D2
BE5F7AF6
BD977FCC
3DF235DD
BD64F0AD
3CE0AFD9
3C1EFCEC
BE1C2F6F
3DAE7CA9
3D5A22C4
3E84EF03
BE286A5A
3E125607
3E10FA52
BE2A6A52
3E3DBB4C
3DE012ED
BD1FE07B
3CCB9021
3DC3F279
BDAB1A21
3D916E92
BD82E53E
3E5506E4
3D580C26
BE0413C1
BE683241
3CF77B37
BED1C55A
BCA9405B
BD14B5D2
3D03FCD5
BCB4CB33
3DA08669
BA066F87
3E29B032
BE9A4BEC
3DD174E0
BE0C891D
3EEAE91B
BCFB13DD
3D3C5C7F
3DBA2742
BE665EEE
BDFBF2A5
BE3AA158
3E5FF0C5
BDBC4F69
BDC33481
3CB45735
3D1BF097
3C71FF01
BE20AA4A
3E7A7C5B
3CA17A43
3D848D07
3D0C95A5
BD18D79D
BDF6A932
3D8DA486
3E501132
3E45AED9
3C060A76
BD956865
3E9BD1BF
BE8F4550
BD59D980
BBCFB8EC
3DF9E70A
BB9D2B99
3DEB9F99
BEAA50C9
BCA317CD
B9806645
BCE85AD3
BE188921
BD875EB9
3D8DA04B
3E8724B4
3E002FD1
BAD6388F
3D636194
3C21D322
BDDC1F5E
BD17FEE5
BD4E3878
BDA8F78C
BE78F239
BDFC8BFF
3E1183E5
3E662C3B
3C8A7991
3D8E4235
BD2C5650
BE5255F3
3CE2A95D
3DE22DBD
3D332E1D
BE4C33C3
3DA597DF
BD893EED
BDC2C17B
BD9DB80A
BCD0ECCD
BE97F367
BDED0E71
3DBA3AEC
3DA06ABD
BC78E61B
3DF13C25
BE9D2506
3D727736
BE389A02
3D3D6CA2
3B45F9C1
3E76F1F0
3E7CED1F
3DE15B9A
3E2DAAA0
BEEC5070
3E22A221
3E060921
3BEBA34D
BDB08618
3E116EB0
3EA5CF83
3C81C77B
3D0AB137
3E1688B0
3E567989
BD4D6B12
BE8CFEBA
3E2044C9
3E18446B
3E783B02
BCEB0D09
3E9CD5C1
BDDCD6A8
3D124A70
BD41D5F3
BD437C71
BE9F1B62
BC82789B
BE829299
3DB132D4
3E080DB6
BD1CBB7A
BD10BC7B
BDA8F6B8
BE90FFEB
3DB9CFF7
BE953583
3E668DC6
3C81AAEB
BE321017
3E91DF6F
3C86C369
3CD8171E
BE09F630
BDF08CC5
BE8D8EBF
3E71E4E3
3DAAAA91
BD1170F4
3EA3AB4D
BC621432
3CAC4D1B
BE523FA4
BE25760A
BE664940
3D5FEE14
3D683AED
3D65BB18
BE201BF2
BCEE5797
BE012D5C
3CD192D5
3E386BD2
BE5C14F5
3DB3B752
BBF9CF8F
3CFAED26
BD8F7E1A
3C95C650
BE4707E8
3DAB699E
BD8DC075
BBB3195D
3D2E4A10
BDD6F014
3DA2CD0A
BCB95094
3D4C8847
3DA047A6
BD15F085
BE4EB2CA
3E59D00C
3E288CCC
3DDB4246
BE379BDC
BCCFB70D
3E083933
3CEF7279
3DB43582
3D1A372B
3E58BBE1
3E304E25
BE5AD18D
BCE15CC2
3E15E31E
BE624914
3E71A402
3DD1FE07
3E2AE39D
BC3341F7
BD585E03
3DD55AA5
3E5EEA56
3C0F59AD
3E05595D
3E3615F9
BE464310
3CCDE231
BC84AE45
BD6F4E4C
BD8CDB03
3E6CAE14
3D228B15
3E6594B6
3E1E3F1B
3DA47FEF
3DD907D9
3E0BAF96
3E8019AA
3EB10FA9
3E94EBC9
3E81C21D
3B56801D
BE11D170
BE22EA46
BDB5E27F
BD49AE72
BDEFB118
BCEB691F
BBE69F51
3D443C2D
3E775269
3E7E8435
3CADAA48
BD53EDA3
3CF54D5A
3D293828
BE3B8716
3E40764E
BDA18A42
3E0ED72D
3D1798F6
3E325E50
3E6ACCF7
3C7EC288
BD119615
3D5154EA
BE120C5E
BD90FE83
3C14ECB9
BD774C0F
BE1E1240
BE871063
BE077293
BE094AF5
BD0AEB3E
BDF5C23F
3D904F03
3E7D5AC0
3D8D0DD5
BD8D3F4F
BCD926D8
3DC9CDBA
BDA24591
BC503913
3D7023DF
3B7B270E
3DC321CD
BC807073
3BB8A525
3DA2A254
BD21118D
3B0E3C77
3DE92677
3E8FF5AC
3DA9AE51
3D110F34
BE2227A8
BE4BFEF7
BD175BAC
BE8F7ED7
BD4ECC9F
BCFFFB12
BE4D0508
BE3DA13E
3E80B59A
BE007F7B
BC2D86CC
3D96B899
BE48E186
BD5B2AF1
3CAB0F98
3D6F5B78
3E61A600
BDD2DCA4
3DB2480C
BE7C49AD
BE17A5A4
3E43E6B1
3DE54B2E
BE743F45
BE0E17F1
3D90B0DD
3E00C1C0
BCBA569E
BD09F861
BE7255A3
3E7A69F4
3DEB7C42
3D6D7CD0
3DDF7FEB
3DD7A81A
3BC796E5
3E87EF17
BE029B07
BE5FF80F
BDBDA015
BDC44921
3D49E44A
3E14502D
3DDA23E8
3E354703
BD8835E2
BD3897FF
BD3BD526
BDEF62EC
3D4AD2ED
BE354E1E
BE64C55B
3E2BF5E5
BD91A182
3E104C4F
3D2C3136
BDE96E81
BDADA9EE
BEAABD40
3D049833
3E368895
3DE97BFA
3E6F4264
BE18D96C
BDD92253
BD6DF1E3
3E0E4B45
3CD346C4
3D3D684E
BD621C2D
BD180A68
BD7D0300
3DD2F0EE
3B5C5FDF
3E78748D
3C929A36
3EAF7EEF
3D444415
3E28578E
3E00FA88
3C9403EE
BD254AB5
3E2CF165
BD457F5B
3C3A5155
BD9CCDB0
BDFC6A06
BDD2F61F
BDC14F60
BDC2E049
BCE43340
3DD3E659
BDAE4530
3DB52B91
3B95DBFB
BD31E4E5
3D61386C
3D9B8158
3B1F75B8
BDAC726A
3CB701EA
3E0115B7
3E1E9C24
3E09D727
BCB72F61
BD64956E
BDF941FE
BE6C8E7D
BD3CA674
BDDF9A4A
BE13C75D
BD66687A
3CF48B62
BC828D08
3D804834
BD60E81D
3C098E4C
3E822344
BD738D86
3C82AC73
3DCB6F05
BDB83CE8
BC947B78
BD383D46
BDADDA79
3DD4DB8F
BE2BD1A4
3E180C6D
BE31B15A
3D42DD40
3B785219
BD3B5E28
BDE15C7F
BDDF8940
BD66C26F
3DC1235B
3E41E0C6
3E166D2A
3DF4DE71
3D627479
BD3F7607
3E6B4B01
3D90638F
3D290E3C
BD0C3276
3E142748
BD73F1CA
BE0CAFE3
BE142191
3DDB7938
BC4B2C23
BBDEA330
3B609B4B
BD03C257
3E49C7F9
3CF2E36D
BDA754DD
BCFA33EE
3D593A10
BD88B1CC
BD47D6EF
3B93E77A
BD95A2AE
BDEA8C15
BDFD433D
BDC0A2A2
BD2CA181
BCDD4890
3BC82761
BCB717B4
3E02D0E5
BD85E7A5
3E5229CE
BC7EE1D3
BCECB911
BC9ADE9E
BDF52BD4
BE2244FD
BE4F9E3F
3CA95FA0
BE08B04B
BD1AE1F9
BD9FE257
BDD0EF71
3DFA4BCE
BD01EC1B
3E1CED19
3D3CEC85
3DEC1857
BBE24000
BDDCD69B
BD72B5E0
3DA9E852
3D88287A
BC380F86
3DAF72F1
BB861E6C
3E4D24DB
3DDA351B
BB4B7F16
3C9D7A95
BC93E84F
BE12EEE9
3DAE3F98
BDC07897
BD253A1F
BE008E30
BD30821E
BE8571DC
BE469B40
3E080757
3CADCD08
BD91F59A
BC5907D9
3D922064
BDAADE65
3C9F0D5C
3DEB6369
3DFB0B54
3C46EBED
BE2B6637
BE32C6BA
3D114189
BD1D4812
BD2FD815
3E7757DC
3C9378CE
BE2755F2
BE3F9427
BD80A864
BDBF1DBE
3E4C9E1D
BD61AA01
3DB7A424
BE25FCA0
3D37ECA9
3E67D736
39D162CD
BE38A75A
BE577A20
3D7F2913
BD4E4CCA
BE221166
3E310B05
3D9397D8
BDE5374F
BD714AD3
BEBBD57E
BE704414
BE1B21DF
BDA64712
BE01010F
BE959309
BE7F13DC
BE3FBEE2
BE367C43
BE17CE4C
BD1C22C6
3D019AB2
3E175254
3DB65BAE
BD19C662
BCFC5AE5
BB99116D
BE1574CF
BE8E69FA
BE97F34D
BE88E0B6
BDA30C82
BED8C275
BE15B47C
BDBF43D7
BE2E6A70
BCADF22C
BDB6432E
3E5D8B3F
BE65BC23
BC180A16
BD956ECE
BDB00BA8
BDEFBBA2
BE0645D7
BD5EE0AE
BD69936F
BC2B1770
3E1E316C
BD37877E
3E0584EE
BD58E2D0
BCB6D8D5
3E4301EB
BE0EF2A6
3DD9D071
BDC22D18
BC8A500B
BD16F146
3E2A68B8
BD413108
3E1B4ECE
BDC02B91
BC93E4E4
3DC69516
3E09288A
BC5B9EF8
BD8001F7
3BD8AF59
BDE54054
3DF9B944
3D8E0910
BD73C265
BDFEA72D
BE88243A
3DA4FD0E
BE0E7316
BDC55430
BE08A0C6
BDE6C8EA
BE5E3EA9
3D0830F1
3D3A31B8
3DDE9920
3DCA0213
BE8DC454
3D8ED388
BD4E9819
BE18421D
BE0A4265
BE6153C4
3E5B0886
3E783892
3C5A20DE
BDFAE155
3B27BB70
BBA55312
BDBD8478
BD60D2E6
BD82597B
3E3524F6
3DA8CE55
BE2F8416
3C0FC108
BE2E7939
3D4FE860
3DB705A2
3D87D99F
BDB77D81
3DC820A2
3E29FBE7
3E6FD37D
BDFD6B15
BC4D1821
BE5DC9B7
BDE3A2ED
3D35B254
3CFF39FD
BD987DB5
3E622CFA
BD1492EA
BC0D3203
BE04311D
BDDF9E89
BDB4EA63
BE47067E
BD1E7F21
BD6B1999
BDCF4E01
3DB5B073
BBDE36AF
3D11F6E8
3E43163C
BDAEC140
3D4252A6
3DC902E9
BD37EA88
BD8922D4
BE01DE41
3D78654C
BD1BA3BA
3E1947A1
BD96B3E2
3AFE0CD8
3D2856D1
BCCAF11A
3D7A4E7B
3E61D4D8
BD1085FD
BC257E3F
3DAED0D5
3E62904E
3DD0C3FB
3E4F96E1
3D9B87B4
3DD2C69F
BC76CA0C
3D5545A7
3E34C83D
3DBC0BE3
BDF98D8B
BD0ED66A
BC9A5C22
3B3C0D89
3E01B901
BE24A941
BD4D6EB9
BE554AA1
BEA329EC
BE70C756
BD519BE7
BC9E5200
3E3FDF21
3E5D3452
BBEECC39
3D424867
BE341BA5
BBC2EB13
3AC35BD7
BE396B8B
BECC89D9
BE8E972F
BE51EA00
BE8F6789
BE043691
BDB75DB6
BE162C7E
3D327015
3DFDC436
BCE20695
3D3CF313
BDB01E11
BC31EFB1
BDA87926
3D9BE8BD
BD1CAF79
3DD24BF0
3DB7A7C0
3E18C869
3E541FA1
3E9E3494
BE01B8E6
BE205F29
3DA7D448
3D0709E2
BD1BA02A
3E1A11CB
BCED8C9B
BE01BCB3
3BC81A98
3E676C63
3E7AEA10
3CE65646
3C3A02F1
3C15EC69
3C9E15AA
3DE3DCA6
3D5B5308
BDFDEDFF
BCC0B5EE
3D295E3D
BBB64E2A
BE77CAE4
BDEA3246
BE340987
BC86BA14
BD0A2C5C
BC781A6E
3DD5D86C
BCD27B6D
BDE85E81
BE0D8440
3C99E158
3DA96F84
3DFA4236
BD79254B
3D85F9C0
BD3AC965
3DAA6724
3E77EB22
3A80EE16
3C9806BD
BDA82638
3D9E64CA
3CE2393B
BDBAE423
BCB76AE6
BC8B087C
3E7C40B6
3C18340D
BCD38711
BDD5E057
BDC798B6
3D937A53
3D3A086F
3CBB5038
BD7E96CF
3C56CAB2
3C3B20D3
BD2F8E48
BC736324
3E0A64BC
3E382F22
BD5B9CA1
BB5BE982
3DD5A965
BD86FF21
BCDC5A44
3DB8C555
3D3E2608
3E397812
BDA9F080
BE0E0F22
3E251612
3D9CBC1F
3B5A6FAB
3C33251B
BBB55A53
3E9BA0AC
BD3A1416
3D33BA0F
BD1A7316
3D9A7BA6
BDC6BCFC
3E318E6F
3DD4BC1A
3E34995E
BA99594F
3CF0F632
BEA25A0A
BE445AC4
BE10BD88
BBC6A744
3DF1FD9C
BDC0EC25
BDA020EC
BBD217C9
3DA4159E
3CDF7F21
BE097911
3D10E032
3D84263C
BD09B111
BBE8B4AC
BCB6965F
BE01649F
3DD890A0
BD472BA3
BE60F2CC
BD15CD27
3E266BE1
BE66ABF9
BABEA350
3DC5B823
BDC97D75
BC6A46F1
3DB0E551
BDD4FDF4
BDD75F3A
3CE8687A
3D4CDA74
3E9BB822
BDA2C451
BD0EBD2A
3E788B68
3E973797
BD8336F7
3B75B636
3E1F94F7
3DBAD23C
3B5980A1
BE1F37C6
BDA9D2C2
3DE4459D
3E6F317C
3DE5E6FF
BD02E1E2
BCB2F6C8
BDE64EA6
BE112224
BE0A270E
BCECB63C
3D75B993
3E084791
3D863E77
BE5E46EB
3E06A621
3DF2CF38
3DC049B6
BE1E7558
3DB3CF4F
BDD7B85B
3DAF6484
3DBC3D1D
BC184DB0
BD99350F
3D869BAA
3E90BC8C
3D215FAC
3D71AC8B
3E1D8B2B
BD016944
3DCA1DC2
BE256D1A
BD902558
BDBE7467
3CB764F1
3E09F4C6
3E58DA8D
3E37EB36
BE584995
3CFAA710
3D36E8CD
BD7BC9A5
3CCBE597
BD346151
3E69F3CE
3D0178DC
3E3C541C
3D1D8234
BE7A026E
3D015AD9
3DC83EDF
3DB51195
3CDDA6E5
BD901B43
B9306EDF
BCD38D0B
BE87F0F1
BD87EF28
BD9FCD8E
3E00F0FD
BDE8FC28
BE711106
BCDC9E1B
3E75F94C
BCCC9BBA
3DADA972
BE01F1FF
BE18EB3F
BD44A61A
3DF3DCF7
BC323C28
3DE5FC06
BDC6B89A
BE24A76B
3D48825D
3D32E748
BCBD192B
BD7284BD
3ECB6FB7
BDA7B559
3D8BB52D
3CE37F71
3CE6FA9B
3DCEB0ED
BDF5A4BA
3E5B934D
3D8829B4
3D8543DF
3E317FE9
3D0E61F6
3E7734B5
3DBFC946
BE846EA7
BE0B9291
BE0DB178
3E62E748
3E357075
3DFBDF9D
BC09C10B
3E738045
BE52568E
BBAFE10E
3C2832A4
BE7BBDD2
3DC137F6
BC2B5FEB
3DC1890C
3DFB808F
BE5F35EA
3D21F1EB
3E26550C
3D409ADD
BD58EF50
BE81317A
3DA15D53
3E0F2185
BE05CAB0
BCC96D67
BE7F8155
BDFF757C
3D626F5E
BCB87400
3D6B74C8
BB065C29
3DAE618C
3E0FBD85
BDA51709
3E05A15F
3E907E97
BE6EE024
3E2D1AAF
3DA8F9F3
BE8BC94A
BD0AB97F
3E89C125
BCE8A1B5
3E302547
3E1FCD75
3DB21DC7
3E0407EE
BD9FDB03
BDDBB949
BE468BBB
3C45190F
3DB4C97A
3E474708
BE5AE940
3C77FE29
BE4A5D3D
BED6219A
BE36D3E6
BDD44806
BE4A9593
BE365A07
BE26D917
3D4A5FC5
BD5FD2AC
BEB52BC3
BE710067
BE3ADDD9
BD7909EA
BD8EC1B8
3E011CAA
3E331EB3
3DE93E88
3DEF20EA
BD755179
BC0FE8DB
3E2E3A63
3D713275
BDE03827
BC34ADB2
BE11DC58
BE2BC7FE
BC190B84
3E1C29AB
BD349C7A
3E2E00CB
BD0AE4DB
BCEF3258
3E172CF3
3D8356BE
BE7EA507
BC9D625C
BE520B1C
3D4B94CC
3D7DAD98
BCBD3977
BE5EA480
3CF037A1
BDC45FFC
BB63985E
BE6B3376
BE15462C
3E69B365
BB9DD2AC
BD9DFABF
BDD5A17A
BD9A0028
BDF4190C
3CD48878
BE2A875D
BDC62375
BE3CE4A8
BE3F7A92
3DF2D758
3EF3ACA0
BDCCF2D0
BD27E5F0
BDA3C641
3D88952E
BD0530FC
3D9C3947
BC3DD2A9
3DAEBDA2
3E7E95B1
3E2C4044
3D476118
3D1BD2F5
BD8B8455
BD3DEDAC
3AF33951
3DCBF400
BCD828DC
3C0F22B3
BE6206EA
3E2B1F25
BDFB1331
3EC9BA0E
BCFE3F86
BEC6D879
3DF34C6B
3D2876B2
BDA4C307
BDF76336
3D6510E6
3CAD4AE1
BDC567F7
BD2C4C0E
BD5C182C
3D0D9585
3D8F1371
3E47FD5A
3D5D7C4A
BEB249CD
3D68E29A
3DB92253
3D21E159
BD40ACCE
BCEC8D62
BE11A375
3DA8B613
3BD12AAF
3E9D0C07
BE1AB756
3D1DC868
3E59756D
3E4CE45E
3E477B1F
3DADD40A
3E30C0C8
3DFD76D4
3C8FED79
3DB4BAE7
3D0C8282
3E8E6EA2
3E2F4AC1
3DB2D23A
BCC495AC
BE06146D
BDDA6B1B
3E46EC47
BDDAC3D1
3DD18BFF
BCEF88DA
3CB9E970
BE123685
BE391B53
3DDCB32A
BE3174A3
BE27D71B
3E1DC1BF
3DD6BC70
3E47C95F
3A5C0D62
BE75548A
3C7455C8
BDA6294B
BD0940E9
3D1D17E9
3D1DC652
BE6E262D
BE16B413
BC22E4F8
BDFF151E
3C0F6FD3
3E677363
BDC9A829
BD088D22
3DD25502
3DA0A6EC
3E406E93
3D7D492C
3D40615A
3E19EC55
3EB9D1BA
3EB695FE
3E100A8A
3E5933A7
3E7E749C
3E5AC2C4
3E8D07BB
3DE2C775
3DA334B2
3C6B1EF2
3E676387
3E07116C
BD7A2AD9
BD922FC2
3C169F32
BDE827FA
BDE2824E
3BB64CB2
BD5DBA33
BE6524B9
BDB0C5D4
BEA8E81A
BDB1BA89
BCB4FDA3
BE07F2CA
3D76CA1F
3DFB6E79
BCC77B34
3E63F3E0
3D855F63
