3DC08E7E
3E70D2CA
3E4BAD77
3E44EDF6
3DE5FB3C
3D350EEE
BD9BC6A0
3DAA4747
3E72F456
3E9C5243
3EBC2239
3EDE2A69
3EDD5004
3E561C1C
BCE9FAE0
BC0E55D2
BE1E97DE
BD33585A
BDA5A12B
BE91E072
BDE242C3
BE274052
BDF073DE
BE39CCA4
BE854DE5
BD34CE71
BE13E28C
BE3AC3F9
BDA0F21B
3E83B2D3
3E3F5A96
3CC60B32
BE0E131E
3D90C772
3D8B3CBA
BBBABC36
3E36EF15
BD35FA96
BE0D5094
3DB13852
BD5F01D1
3E006177
BDB507A1
BD6CE5A4
BD35CD8D
3E28445E
3CAA5894
BDF778A8
3D082C77
3CF554FC
3D94A8C0
BDD41EB6
3CD27DF7
BDE391BB
3DC4DD38
3BBECB44
BD4D2FD7
3DDBBB55
BEC0E8D9
BDC63B01
3C9F3387
BD8A8247
3BFCE125
BDD7FDFB
3E16F1B4
BD88260B
3DBE0C89
BEA2F9D8
3BACCEFC
BE126F68
BDE6F42B
3CEDD9E8
3D2770B2
3C89A098
BE51CF78
BD8CD2B9
3C8AF4FC
3D0E837E
3D11AE1E
BD491459
BCBDE716
BE32B409
BD1EF830
3DDB3934
3D3FC1AC
3D92C5B2
BD7E6F62
3D337B14
BD64CB89
BDC67559
BE03D6A6
BD720C44
BDD498C4
BD2A1250
BCE9345C
3D25AEC9
BDC14F40
3D348162
BE2294AE
BDB2A6A6
3DE344B6
BE554F16
BD10A78D
BC08BAE4
BD86BA8A
BE2FA715
BD5C3D4D
BDAA2AAD
3D74B534
3DCAC6E5
3D883B4D
3CE6193F
3C5649EE
3D5F439D
BD0BCC39
3DCA3E82
3E21BA22
BCBFE94A
3C984353
3E2F7F2F
BE8430BC
BE300786
BD390E82
BE1C307C
BC1679D7
3CDC5291
BD7A82AB
3DC871AD
BDAB5F73
3DC387F8
BE0EDD77
BE812221
BC83E136
BC6EF0C4
BE55F1C6
BE6EE024
3DAAD572
3E17A1A8
BDFB2C41
3ADA68C2
BD173170
3C026CA1
3DE4A417
3E2B2A28
3DD16576
3D9A8C1D
3D077DF1
3E0F70B6
3D023AC5
BDD2CA65
3CE659E7
BD8DAF70
BD972725
BD975956
3E18335B
BD19198F
BDC30A8B
3B0DE2A4
3DC0F8F8
3D5A1BC5
BD6B39BA
3E3AAB7D
3E00B497
3E2A0D1A
3D4CE8BC
BDEFE868
BE2660CA
BDFB545C
BE3E0305
BE0AED6B
BD1DD373
3CF5EBDA
3DD31777
3E18305E
3D9C4DB2
3E6A9054
3D94362D
3E45E88B
3DF477FF
BCF761BC
BCC390EF
3DE29D5C
BD401673
39AD087F
BE62F944
3E8753BB
3C737248
BDA23E55
BE570BC3
3E5EF904
BC5E6DD4
3D651274
BC975C93
BDF773C7
3D3E6833
3E4E4F41
3D007FF8
3E3C4EDE
3DB0F97C
BD8765AA
3C194679
3DE53EDC
BC0520CC
BD954FFE
BDD4A8F7
3E53E088
3CD07523
3CD4AB1D
3BD0B1DA
3DC38138
BBF161DC
3DCEC347
BE86B28E
BB4EBE8C
3B8AE8FB
BE0B6BC5
3E2A523A
3E37867F
3C76D0D7
BD95F018
BDFBCD36
BDFCDA1E
3DA13226
BD8CE67B
3CB28AED
BCB2D341
BBE3EAB4
BD290280
BDA4A566
3D22DFB4
BC14E97D
3DCEC9FD
BD9F970E
BE1F12C9
BE4C9C11
3E6A3514
3C84B237
BE37E323
BE210B56
3CCAE82B
BDC92958
3DAE315C
3DE2CEB2
3E34C5AB
3E185723
3C89A5D6
BCB22389
3E14779A
BD35FF63
BCFAFC65
3E328474
BD90374B
BE199879
3D711C0F
BD730A39
BDEFE388
3D754247
BD85D406
BC9FE080
BC9B5D0E
3DB7227A
3E3E762E
BDA13BD2
BDD2408F
3D966794
3D4FD6D8
BD08A390
BE5335B7
3E8D6B81
3DAF8836
BD9DB8B5
3E03B3D6
3C77AA66
3DABA4C5
3DFEE20E
3D17BF77
3DE5C28F
3DAC5D79
3D9F2AB0
BE314871
3DFD86C4
BDE4B699
3CD3140F
3CD3179A
3DAE542D
BCD3B94B
BCCD405A
3DDB66A9
BE2A2B7C
BE81563B
BDACFECE
3C065C80
BDB8290C
3DA610DD
3D442AC2
3D323333
BD349AEA
3DA80812
BE4E6FA7
3DA0EDBA
3EC2A4E5
BDCA3BF1
BDC59C7C
BE187718
3D946B03
3E86F6CA
3D69F232
3D9E4769
3E0DACDB
BDB43146
3E75FAA9
BD98BD85
BE30450C
BD97C624
BD9F9559
BD98F966
3E023605
3DB408CC
BDA5FA10
BDC8F15A
3C9324DB
BDC41DC8
BDE66730
BDD9FD6D
BE46C912
BE77D95C
BE86ED2B
3B889495
3D848325
3D902AD6
3DD1C2F1
BD89793E
BD3FA478
BE6128A4
BE23ABF8
3C563267
BE024DDA
BDDAC421
BDB57971
BDA5586E
BCA2E0BB
BDE3359D
3BD78B12
BCB74AD5
BEA3795A
BBC393F8
3E250C51
3DBCB641
BB93CB8D
3C980CF7
3D176C99
BD3C4667
3D3F72D7
3D01F022
3DF50614
BD3AE97E
3D3B8A65
3DA29350
3DFA39D3
BCA3B6AE
3D273180
B97700C3
BDE8F938
BD08E262
BD7A44BA
3D03AA2F
BE46F904
3E0CC7CB
3DA9B48B
BC8FF388
3E53D684
BCCF345B
BE0E1120
BDCF03D1
BD9F3E59
3CE87F40
3DA7F50C
BC903EC2
BE7A4895
3E52E719
BD861C33
BDB1FA1A
3E405624
BE110A9A
BD6C4A51
3D82FBE6
BDEE4720
BDC95A78
BDBCD594
BDD97E71
BE0F2F7E
3D8E3079
3C749E4D
BB41FBD7
BE40E0F9
3D971822
3E53A422
BDD09B59
BCBFDA40
BDD143A5
3D1C0364
BD8646A5
BD30E8BB
3CE1A41A
BE1A8F48
3DC8F0D8
3DD98C99
BC94A219
BCDAFA37
3DFB9700
3DEA4A2E
3CAC15DE
3D93CA10
BDB538D7
BDEFD362
3D3AF501
3CD5E5CB
BDB2BEEC
BBBE98D5
BD6DE9FB
BC99F08C
3ADCE60E
BD5BDEC6
3D0E0234
3B932581
BDA0BD96
3DB2A5A0
BDCF36F0
BDA028E9
BE73142A
BE39C47D
BD2A0E21
3E235994
3DFE62DC
3DEF1448
BE8770DB
BD25445D
BDBD9652
3E2FF753
BDA6A012
3DD89EA0
3DB2D054
BE401ADF
3DF21D61
BD98A6B0
3D94A85E
BE03CA9D
3D095C42
3E1635B2
BE68088C
BB37C44E
3E2BD0B9
BE37CAEA
BD49DEAE
3DB2229F
3D176A12
3E07A76C
3D892C44
BCB63648
3D12AA29
3E0FEDF7
3E1D7DF5
3BC2C6DC
3DED7E10
BE242719
BCB0CE64
BDBB2BF8
3C93C956
BE5AAD82
BCE1310D
3DAB103E
3DEDEE28
3DDAE0DC
3E2989F3
3D13C2F8
3E39AE1A
3E8924CD
3E805FFF
3E6CC6C5
3E394FCE
BD221795
BE5DDD10
BE17DB89
3D8C4746
3E21A636
BD97578D
BD26B0F4
3BAB6642
3DB4CFB0
3DDEECB2
3C39CA87
BCB82CED
3AFE4300
3E589C65
3E031C79
3E145F7C
3E88C1D1
3D620ADF
3D4A1387
3E4C8CDD
3D157F6E
BD633D8A
BB98067E
BD4D3BCD
3E738844
3E2FDF27
BE458B0A
3D81A5AD
3B4C93C6
3CCF1470
BE9162E1
3C8E9458
BBB235EE
BD49E3C7
3D8CCE96
3D83A42F
BC5A19E7
3DCE113B
BD351EFB
3E1ED084
BC6F22C3
BDCE7536
3DCB259A
BD83F8B4
3D74F4AF
3EC7F697
3C082598
3D0B7F0A
BE2A71A9
BDF0C6A7
3E0902F9
BD794254
3C948EA8
3AC6062C
3DA3FFDA
BDFDB9BA
3D132272
3D78EE0B
BE508590
3D83C26F
3C7AF681
BE3DDCEF
3AFB4629
3E364A8F
BD86041F
3E101605
3CACB794
BD08E4C6
BC742C17
BCA7D9F9
3DA9FC20
BC088FBA
3D2508B6
BD68E1A9
BDCA20D8
BCE52599
BDAA5CC5
BA4C3B7D
3BE39E87
3CFA4195
B9DAF4C9
BD91D2F6
3E021B0C
3E0F3C7E
BD1B7F07
BCA327C3
3DDD6211
3DA1595B
BD593AC2
3C89A627
BD9A0AE7
3DDD24D4
BE0BD8FB
BD561477
BE4A6388
3DD30107
3DD2D5B8
3BD1F920
3D864F61
3DADA0E0
BE04B2A3
3D936C52
3E02CD47
3DE1BADE
3DB6B532
3D96AEAE
BD45A9A8
3E6B5D97
BDB1B501
BE18C0AD
3D886D1B
BE18DFA9
BCEF1318
BE18664A
BD9248CC
3E31F9CF
3D00800B
3BAD1A5B
BD9A2780
BE01B5F0
3CFE2910
BD0B175B
BC89065F
BD983F49
BC8729C5
3CB67CAF
BC6F01AB
3DD3E525
3DBC30E9
3D8008C3
3D89A554
3E4DA089
3DA91A08
BD0BF155
3DA7456F
3DE3A033
BDC483FB
3CE7901D
3D60FFCD
BDDABA46
3E104373
BC90135E
BE009283
BCDEEE17
3ECEDD09
3DCE52B7
BD71EFE4
BDF9B92A
3D56CD4C
3AF87095
3D82F868
BDF8BF14
3AFE28A9
BDC8045E
BD36A802
3DCE1727
3C8612B9
3BCDA253
BDC76895
BE6FB16F
BE33E7D8
BEB09EF0
BEC32FF0
BEEBE9E3
BEA68A90
BF1A9A84
BF21736D
BF11C6CB
BE91A2E8
3AB9CC59
3DB60BFD
3E862783
3D973139
3DFA614D
3D874E73
BCCA62EB
3E0A157D
BDE32625
BBDC0216
BC7CCBCE
BC07790B
BD8159A3
3E307F9D
BC8F7BB9
BDA99042
BE6774EF
BC84CEB7
3CDF0752
3DF59784
BD820C7F
BBA41755
BDD9E102
BD580E72
BE1F3C13
3DB4AF92
3DE55B46
3D818DF7
3D80FDFC
BCB160B0
BDC48C15
BCCA0D60
3C7AF25A
3E08BF64
3DE659A9
3E0EFA4D
BCAD2EED
BD04E60E
3C57A873
BE00C15B
BDB159A7
3C8030E2
3E352250
BDB14D4E
BE05CB72
BD87DB2D
BCBE2B4F
3C2F90E7
BD0DA06A
BD977498
3D84F888
BD81DB17
BDA5B539
3D857C54
3C1E8593
3CEB8E64
BC24CEA1
3D215301
3DADC404
BDEA9C2E
3BE2EB1A
3DA64CC9
3DA4D6E6
3DE9A0A0
BCC606E5
3DDB5CDB
BD9BDA58
BC6430F7
3E31D580
BD02F6B0
3C8B7396
3DB67FC8
3CA6EB7C
3DC9A357
BD5B029D
390378B5
3B6DD68C
3CA1670E
BDD83219
BDB66698
3DAEEACE
3E1FC3DD
3D00FCAD
BD86E713
BE12C4BC
3E02F563
3D8D5EB2
3D67C0FA
BDF38EE6
BD5918B3
BE0461A3
3DD31ECE
BDE6A8FC
3D0979B9
3D59B63D
BE5DED87
3D8611CA
3D19C1B0
BDB43E59
BD0F0A92
3C2E052C
3D3E9613
3DDB95D8
3C246F0B
3C62C760
3D4CF691
BCE81B12
BDB3208D
3DA1D882
3C2E32D9
3D9D239D
BD6E8516
BE101098
3CDB7C1D
BE085A99
3D056D58
3DAB3954
BCB0B026
3BE9F23E
3DC9B0FA
BD99031E
3E15D72A
3DB3669B
BD87B1FC
3C291228
BCEB9204
3D6C14E7
BD0188E7
BD45E6AC
3D40EB32
3B6B5093
BE882470
BDDA8D4A
3DFCA919
BE8D3309
BE87F4B0
BE9E9832
BE5E53E5
BE794601
BE2686CD
BE5FA872
BEA8E54C
BE4CD199
BE613FDE
3D5D274B
3DF75A5A
3D0D347C
BDA61CF1
BDC8F18F
BCE2105B
3D0A022A
3E57129A
3EA84CD2
3E7394B1
3EBB9AC6
3EB9575B
3DA1DFB8
3D795013
3DF8A58B
BE1477E4
BE2EF9F6
BDBD2B3D
BDE4250E
3E605334
3C8617E2
3D9DC980
BE07C1CB
BE263C5A
BCA9CA64
BC852C45
3C94142F
3C980CD2
BDCDAD90
3DC1EC2A
BCAD29FF
3D875B70
BB00CCAF
3DCA295D
3D89CECF
3E1A951A
3D918AFC
3D628C64
BE0235DD
3E7C8F11
3DB1DC91
BC901816
3E344CAA
3CEBAA18
BE985795
3CE0F1B2
3DD3A897
3D28FB61
BAD7DF83
3DAF47E9
3D5DB304
3CF0FAD4
3CF67A1A
3D0AADB3
3E1D039D
BDC206CE
BD6CF1BE
3E41A07F
3DA5433F
3E0A2615
3CF25B52
3E66201F
3C8FFAF5
BCFF23ED
BC7C068C
BDC08480
3D4FAE6C
BC56A16D
3E2F10F3
BBD4F536
BD8ABD21
3CD39D26
BDA224EA
3E3A3CE4
BD1BEDE7
BC984DB4
BD97883D
38BFD06C
BE03B3AD
3D44D3F2
BDC0D4CB
3DB06026
BDBCFF43
3D988B21
BD067AC1
BDDB4495
BD7F82F0
BE0FD1FE
BD885BF4
3E2EFB5A
BD79B127
BE08A70A
3DBAE085
3E05310B
BE11A6B5
3D3179F3
BDFCC4F0
BD1BD810
3D73C115
3CF9AA50
BDE0A478
3DCCA0CF
BD31510B
BDD2A0C4
BDB03F8B
BDB6E6E0
BD99B50F
3E11DE56
BDBD7356
BDE7A893
3D3B9095
3D80B585
3D8C0119
3E57C089
3D3E83C4
BDC0EF62
3BC6417C
BD35671D
3DF3C877
3C75152B
3C98DEBE
3CB8CFAA
BDAFB755
3C8BF2F8
BDF23458
3E613C4E
3CDA1C46
3E6CDE64
BDF6866F
3D36B00D
BD1C4E1C
BDD7046C
3C388A60
3D8DD8CE
BD267CD7
3B460CBF
BC27295A
3D2D4924
3CCFB1C4
3D3B0B0E
3D07CF98
BE0EE957
3C16EFB2
BE4E6B47
3C51E9AD
3D39683E
3D388A28
BE3534DF
BE5203F4
BC883107
BE07E82C
BE2CDDEB
BE46370F
BD540E90
BD4E7856
3C020789
3E455242
3E68E9C8
3DECFB40
BDCA66C8
BD5584D7
BD923579
3CE45798
3E0A6A7A
3E23422B
3E4EA777
3E258000
3E8BACB4
3E651E0A
3E658912
3E6B368E
3DDE9524
3D2EFE9B
BD173E83
3CFB16D2
BD9AFCCF
BD95E5B1
BC6A8341
3D42D273
3DCDA4E9
BD0CC2F4
3E0A62E6
3D3B55EF
BDB55926
3E0D1AFF
BE4EE7B7
3D69FA0F
BB2C3B77
3D97D35F
BDFE78AC
BE2AD546
3C36ADD2
BD6674FC
BE1FEBBC
BD0E48F3
BD29446F
3D036392
BC2EA072
3E4D6D3B
3D288F4B
BE432258
BDC2CCAC
3D6E10C7
BE0F7696
BD137121
BDCA57F5
BD2DB377
3E16E10F
3C6F3232
3D7FC4C9
3E444C59
3DAB7EEC
BC107BC5
3D9934AD
3C58DDF2
3D83760F
3DA89495
BD8C6E6F
BE124CE1
BC14C039
3E45A8B6
BDFFFDB1
BBB89E2C
BD08D8CF
BBC6D412
BDD368A0
3BF2EE29
BDE1F652
3D73E4DC
3E0F9CC1
BD78021D
3D72AC60
BD81139C
3D880C02
3E076505
BD83A3B6
BD114585
3C270BD3
3D4906E7
3D67C2CD
3B119E74
BD91EFD0
BEA05BAC
3DA51936
3CFB437D
BDEDA3DD
BD22EEDD
BD898DF1
BDE1617A
BDC3A1DD
BD8A9873
3C7FA3E5
BD9BAC70
BD72FD30
BD291A50
BDBBBEE6
3CC73D31
3DD6823D
BBC69B38
BCFACC09
BE1F8DF1
BD7899FA
3DA6913D
3DECC44E
BC88DDB5
BDCF19C9
BE19F121
3D6F8968
3E31FBBF
BDE054FD
BB6B208F
3DC65111
3BCDEF68
BDA540ED
BDA3833C
3E831972
BE10D7C5
3CA94BF9
3D99334E
BCF85D19
3DB96442
BDB6C575
BDA2FBFE
3C2D8E4E
3C5ACC95
3D90072F
3E387A22
BC9CEE58
BD98DCDF
3DCF113D
BCE3F258
3D46BAAF
3DD016CE
BD3C823F
BDE98C13
3C4A07AB
BE3021BD
BE1CE2F3
BDA05DB3
BE27F815
BE5BE9A0
BE9096E4
BE7A0BE5
3D828992
BDD134B3
3B637556
BCACE5D2
3E21C066
3DAC46EB
3DD31A9C
3D69430A
BDB1BD52
BCDF9E00
3DC8A672
3ACA0E9B
BE6BEA63
BEBC7231
BE05192A
BE0AC5B4
3D822458
BE0338B4
BE5DD837
BE6C3343
BE032929
BDB66FEA
3D8F8F78
3D1241C4
3D92896F
3CE24346
BE35C93F
3DE94E5D
3E65D4E2
3DBD9C30
3D9D251B
3D8355BD
3DDF9B21
BD6F09F9
3C16C372
BD3A90A8
BC046A05
3E35882E
3E4B7E84
3E22C94B
3D489337
BDA27D0F
3E2736E9
BCC2ACE9
3E6CCD1D
BD307716
BD1F445B
BD81962D
BC7F9C83
BD824E40
3D7D2D85
BCEAC119
BE33E0EC
BDAB59D0
BBCB1BF9
3D93E959
BDFA8926
BCB08FDB
3E4406CD
BDEE4565
BDAACC6A
BDB99C58
3DD7BDA7
3CBD9C0D
BDA22ED8
BD0F1511
3E1855EE
BD828C3E
3DA33AA6
BD284DAC
3DBDB286
3E08BA77
BC3288FF
3DFA0A45
3DCDB12E
3E0AA016
3D10C03F
BE1F9336
3D16A0A1
BD9D4DB4
3BEBF404
BC7EAFDE
BDA10341
BDBA4BAF
BE31371D
3B8B937A
3E0F436A
3D79BC6F
BE21A12D
3C3DB5CE
3E22C450
BD17A1B8
BB87F2CF
3C14063F
BD00737B
3D2E7094
3D14BC78
BC853173
BD8152F6
BDD532A5
3E7A131B
3CE7C251
BDDBC9F6
3E1275B9
BE572402
BD9C97C6
BD9B172C
3C606479
BDB7E345
3C806911
3E113A49
3C0DFDE8
3D4781FF
3DF27C54
3DDD0636
BE43BA3B
BC48C5D7
BC8EC66C
3D019EC9
3D0194F6
3DF10E1D
BBE8E1CE
3D5FE726
BD851C53
BD8AA016
3CFC7231
3E49A650
3C88E669
BCE44F7B
BD0A36F6
3E0A9DD5
3BFD4D48
3D94C534
BD6B77DE
BD442DBA
BD45EC3E
BCA0631D
3CB534AB
BE1F5CB6
BEA15549
BE8385C0
BCBBC7DD
BC764292
BDA2C1F1
BDB6E115
BD8B02A4
3C8FF6D9
BE38F818
3E020E8B
3DE7A121
BDBD43A3
3BA13CE4
BD3F14FE
3DE5F5C8
3E08D662
3CF7121B
3E5F22FD
BD802486
3D6EDF84
3D86558D
3DF50F19
3C1D504F
3E228C6D
3DF4FF79
3E7A85EC
3E4CDB7B
BB9D7257
3DA56D61
BC1E58F3
3D60EA71
3DFF83A4
3D9C2401
3E315F24
BC87ABFC
BD77DFE6
3C8C2583
3D008FBA
3DA5F4DA
3E4FC775
3E669F5D
3D309DA5
3DBCCE94
3CD97430
3E3FAF7F
3CB23D34
3E0B56DA
3D841A45
BDC128D3
3DC0E506
BD470916
BDA5F37D
3D9ACF01
BCC9B17A
3DDC787F
BE619115
BDC02A92
3CC5DD3A
3E35D617
BE7D5FF8
BC1AED6C
3D9AF0D9
3D5067BC
3C819B9C
BD291BC5
BE1F842A
BD7F1336
3E1D8E65
BE293B2D
3DB3750D
3D1B2065
3DCD9AB0
3C62145D
BE2691DD
3CC8A779
3D36D77D
BD09B08B
3E737084
BE02BE2E
3CE8C1B0
BE26F516
3C4C2385
3D9F810B
BE0DE35B
3D83CEBA
3C5D9A7A
3D23B81B
BDB68A18
3E173754
BDDE4F26
BB4E7CE1
3DD4B0AC
3BB2BA52
BE296638
BD899EF5
3BAB8099
BBC614B3
3DD57181
3C62AD94
BD48ABC3
BB41077F
BCF06A1B
BDC65AFE
3C2AF4EB
3D41C301
BE0628BE
BC08017F
3C1E43C3
3D111612
BE3CA706
3D90FCBC
3DE89F5B
BC239089
BC8893AD
3C4B0232
BDEBBF51
3E08BED1
3C88F831
BE8980E8
BD02A549
BE1115DF
BCB6021B
3E352602
BD6262F4
3DBA6464
BD9B8256
3E065585
3E36883E
3D67AF41
3E4D65EB
BCB83A0E
3E19BBAE
3DD1ED0A
BE0F4AF7
BDAB6EB1
3E0CFF4A
BE302DB1
BDA84710
BDF23D0C
3DB9037A
3DD3425A
BDA9BDB0
3D018F4C
BD156FF1
3C07CB0C
3E059401
BC7189C6
3CE36225
BD34FBA8
BE12D165
3CC230A7
3E26C948
3D050ED3
BDCC023B
BE0864D2
3E1D5A91
3E1B56FC
3C550DD9
3D19854A
3EC667B3
BD912714
3D420B58
3E114C16
3E12FE2B
BDAE6A05
3DE0B814
394158EC
BDC4011D
BE1DDCC0
BD9B427C
BD2C6F6A
BD29D747
3E16E6FB
BD285908
3D96C31F
3E819E5C
3E7E16D0
3DB5DCF7
3E3AC6BA
3C99B2F4
3BF3DEE8
BDC860CF
BDFC2ACC
3DB1C688
3E8912E6
3E3C46B7
BC85226F
BD6AFA11
BDBB3215
BE1E5FCB
BE04B224
BD2D3D0D
3D81E367
3E44081D
3E0CC41F
3CE37CD2
3E5E8881
BE915B7C
BDA20A6B
3D7F1B6C
3D9992F2
3E26D4E5
B948CDD9
BDD700DB
3E0D7D2C
BD4BC018
3CD6706F
BB6744BB
3DCE5746
3C9025E8
3DB3A69E
BD93EB90
BCBBA68A
3D389CD2
BDD78CAF
3CAD6EAE
3D23FC6C
BE0C9C9E
BDF3DAD1
3DAB0E94
3DEF8A67
BD0EEB45
BD1713D8
3BE5C616
BDE79DB9
3D577626
3E32F62C
3E8A6B14
3D8B1AB3
BDF8924D
3DAF6657
3E0F5F1F
BD3F89BB
BD641FB5
BC47A342
3E12CA6C
BD9DDCD6
3E101B5E
3C4416BB
BEB09F98
3D8C6023
BCA11C50
BD3BE3E7
3E3C27B4
3E48D33C
3DDC4D9C
3DCD125F
BC2A8768
BE1A48D1
BDFA752C
BC9FD421
BDD654C9
3C24C359
3D416192
BD88356F
BD427FE5
3DDDE15D
3E18B59D
3E0DB523
BD89F9D7
3D93F50E
3DF66C10
BCB300D4
BDEC21BA
3D8248DF
BD1B1E9C
3C9C0498
3D00B100
3E39219E
3D8D9CF8
3C40BAC6
BD2B6094
BDA2913A
3E05E6A2
BC11F2E7
BDA63562
BCD8781C
BE10F019
3DB96AC7
3BBFAE3C
3DA20054
BDA502D1
3E09A3CC
3DCF8056
3D535BE2
3DC826D6
BCA1B333
3E4D216C
3E08A387
BE1C5B73
3D596168
3D89EFA5
3D8E1789
BC034866
BDDA605C
3DFA605C
BDD1DEAD
BE3FCD25
BDAD21E6
BCD3B671
3E09819D
3D3277C4
BD96CD73
3DFF10AA
BDE1A679
BE5B03E9
3E0C8726
3DC32934
BB361A84
3C1042E1
BD906083
3D30DDE6
3D9011DF
3C8F6C2F
3D96FB6F
BD556F93
BC81F4AD
3E09F1D6
BD65C237
BC6DDC87
3CAC74F3
3DF11813
BB00D8E1
BD508373
3D39857A
3E211864
3E7A9E0A
BC9C7602
BDC171D7
3E29B421
3E35588D
BD64DA48
3E14360A
3DAB76A0
3D28A88B
3DA206F2
3C98D5BF
BDDC0288
3D4426B6
3D989EE5
3DFAFCA6
3CB2C7D3
BE0320AB
BE0E62F1
BE6A0F5B
3CF7624D
3D00C22D
3DBF64B1
BC99CAED
BE40270F
BD096FE3
3D8FB36F
3D1038B0
BC5A6C7D
3E15D6B8
BCC029C1
BD9591D9
BE2A2D87
BD8C02D1
3D8F4503
3E317A6E
BCA0F40C
BDBD8263
BD10EE9D
BD5A4688
BE20EB83
BD0A865E
BC9B36F8
3DBBC40D
BE07D3F6
BDE1205C
3E2BA72C
3DA0390F
BD1C08A2
3CA06AA4
3DA5B261
3D607162
3D08BB90
BD7E3D15
3E6722DB
3E032E10
BE153771
3DC723A8
BD32621D
3D8CBC3A
3D1635A7
BBA6E909
BD18D13D
BD7D445C
BCDF42AB
BE1186DB
3DBF3B23
3D667062
BDDAA59E
BDF81F1E
BD9EACB4
BE386F4E
BDA3CFAC
3DE6437B
BDD8BE58
BBC04C2B
BD052F01
3C8DE089
3DC268A8
3DED9D77
BD68326E
BE375C73
3D2D5C9A
3D28C78A
BDDA1AF1
BC9A29D8
BD7733B6
3DE86F98
3A6CD9CC
3CDAD421
BD7ADE0A
3D6F84D0
3CEFA575
3DF367BC
BDB2C229
BD66AC9D
BCAC7E8E
3D8C200D
3C2CC20B
3DDEF63D
3E51582B
3C9C5DAF
BDD74C5A
BD9F4AB2
3E833D0E
3D475A57
3D9D6BC9
3E570AB0
BCF07AFD
BE06DD19
3D6AE2BF
BDE6C15D
3DE7D150
BDBB523E
BE143456
BDFA76D9
BE02BECF
3C3481BD
3D073DF7
BCF15C19
BDE11BA4
BD9DAD1A
3E14BC8C
BCB0DCE2
BE2B052B
BD24DB21
BC4608E3
3B600966
BDAF4BDC
3CF0CC0B
3E0BEBD4
BD429D6C
3DBAFFB6
3D1AC662
3CF78B22
BDBE80B9
BCB326D4
3E2798CB
3C1A296F
BCBE2E23
BE20109F
3DCCCF79
3D18E224
BE24C200
BD6111C3
BC9FC0C5
BDADF088
3E64964D
BD37FB9A
BDF6E90D
BC8FA4B3
BD38543D
BBBEDEE9
BDEA3055
3BD64C7D
3E3BE476
BD107B7B
BD2C8EA7
3D400C17
BE087F96
BDB85041
BD82ED88
BE1E55FD
BE9CA8E0
BDD0B128
BE1623B6
BE09CB97
3DB4AFC9
3E167275
3E2DD646
3D83DBF9
BD050DA4
BE08E878
3BAADF9F
3D8584B4
3D9B9512
3DAC0AA8
3D83B89C
BC3B2814
BD8E42C9
BE244D7A
BE672636
BD9BD6ED
3C8C7DE8
BDE6C899
BDC096B8
3D819E02
3D8ABF6D
3DE79182
3E1D17FC
BD8C2C5B
BDE4A49D
3E7A8FFD
3C5CC80D
BE02A86C
3E91F608
BD81FF31
3DF699D5
3B7A0A59
BDA5E2B3
BDA56D8B
3DC3C3C0
BE0EB60A
BDC8E4BE
BB8FB1AF
BDC41342
3DCFE1F5
3B112647
3DCFD1CF
3DA315A7
3AE81FD3
BE212500
3DA19B0B
3E269A1F
3E198E9E
3B88B885
BC0F6B92
BDBD8A92
3C59D447
3CACDC67
3E261389
BDE59BEC
3DF335C5
BD35FD28
BD1CB9BD
3DCDAAC9
BDA69195
3DC660BC
3C5BA538
BE117FE9
BD1F6AF2
3E06883E
BDCD51B5
3D860AD5
BDA9AAD4
BC46E7C6
3DCBEEFF
3D2915FC
3D8581A2
3CCAB444
BD99232C
3DAE698C
3DC92B76
3C6F286C
3DCCE8B1
3E0B77DB
3D755A75
BE12F3EB
3D6895D3
BE19D2A4
BDADA0F3
BD723029
BE1EC398
3E0193E3
BDB47AA4
BD8B9949
BB253247
BD1F8249
BDD648FD
3E0961AF
BD7A7B21
BDA5CF61
BE95E867
BDEB0E5E
BB8F8475
3E33E97F
BC3E5E6A
3E3A1AB5
3BB29F4D
3E0D15F0
3B11A71C
BD9C434E
BD1F2031
3E42F3D0
3D773823
3E835968
3DD6CD01
3D8DBE64
3D8E097B
3D297554
BE0A0F62
BE31BEE7
3E632DF5
3E33D1EE
BE36ACD7
BDAD3E00
3BBFAD99
3E8DF483
3E0E7FC7
BDAE5DCB
3C9EFA2C
BE8F9AA8
BD59E16B
3E48F473
3E4D0FBA
3A822404
3CB65C8E
BC666A98
3D80AB68
3BD7C048
3DD6CA04
3DCD179E
3DEFC420
3DA5915F
BD2D9C25
3E87C1E6
3DBC116D
3DC812D2
BCDE2214
3DE0D181
BE0F363A
BD872D8E
3D965861
3E098047
3D66B94A
3ED7DB50
3E999514
3E546709
3E90A496
3EACBC2E
3EC2F46E
3EA7BBEC
3EC20ABA
3EC98D70
3EAE53E8
BDB4520A
BE32F577
BE70FC86
BE084F9D
BD9CF018
BE01C758
BD983C2C
BE661706
BD5DF866
3D04DEC7
BCB051ED
BD3CDBA9
3DF0D0D3
3DD90661
3D4F5D6B
3E069073
BD3095AC
BC0F4D12
BD831D79
3D38B79A
3CF42A49
3DB83D4B
BCB034DC
3CB00C02
BD323415
BC5AD853
3D7E0950
BDA28D7E
BD60C763
BE41B556
3A35B9F9
BDCEDA3E
3DEA3345
BC8B587E
BCDEC507
3E566ADB
3DCC4E64
BDC1AB2F
BC226D35
3E74D969
3D10C044
3E0999E3
BCACB743
BC27596B
3C8A82BB
BDF85BB9
BDD51F8F
3E01A544
BB7ADCB3
BD97C6E6
3CC387FA
BD834A87
3DBB244B
BBF4A58A
BE4825B9
BD2BEE8E
3D9CB8A1
BE8541E6
BDDED733
3D67C0C1
BD50A861
3C87819F
3CDA402D
BDA1982E
3D9EE4C4
3BAD68E2
BD7BE478
3D90A74A
BDF03877
3E390294
3E2C82E7
BE534BE5
BD69A80F
BD82B11C
BE356BD1
3AFE74A9
BDDC990E
3DB4B43F
BE6A0579
3E1345F8
3DCD4BE3
3D0A6A7F
3DA97F87
BB668249
3D5A9304
3D930969
BD0972AD
3D752DCA
3CA07714
BD43B35E
BDCC9EEA
3D981263
3DCA06CA
3C9D2DE9
BD87CD20
BD33044C
3D4C0DA5
3CE41BAE
3D818DC3
BE195FDA
BD8114A7
3D49A218
BDC788E8
3DEBB807
BD0FD40E
BDABF62D
BE3E8046
BD8A1E72
BD41B82F
BCDCCD81
3D881461
BD02C2CB
BB6BAE1B
3D689012
3CA9D83B
3CE5CF0C
BE2B2D11
BD0D7F4F
BE982F1F
3DBECC98
BDBE6DF9
3D342607
BBF4F551
3E5823CF
3C38AE12
BE1EC509
BDB7FD39
3CC3F776
3DB10FE4
BC8EA22A
3E1AAE23
3D9F8C03
3C8CAB7F
BDD217ED
3D01B74D
BD0CE261
3D89244E
BD136DDE
3E00556F
BD60C2BE
BDE8398A
3CF0B5BB
BDEB12E1
BE01377B
BDADF5AA
BD8B9EC5
3D953DF5
3E57FCC0
3DF929D2
3DC247E0
3DE84BF1
3E3896BC
3DEBBF5E
BDF85BAC
3A2EBE65
3CB128C2
3DE77C96
3C5139C4
BE402469
BE9FBA8F
BE8916C4
BE865513
BEC709CB
BEAFBD06
BEDD5C27
BEE46A7C
BEA593CE
BE8C6EE6
BE2D14DD
3E3546AC
3E8BD16E
BD803200
BDE364E7
BB084EF7
3CECC6F3
BC948A71
3C8B7519
3CD069EB
3E3C2DF8
BE04DA7C
3B51B1BD
3CD421C6
BD498748
BB163CC3
3EC1DC76
BDA054B2
3D4F706E
3D4F1F2D
3D4AF5F3
BE396498
3B749279
3DBEC854
BD5E8A62
3E372D28
BE209445
3DC268FF
3C678763
BDD980A5
BD14353C
3CA36CA1
3E28AF23
3DDDAFB6
BE9A23EF
BD81693B
BB5CFE33
3E7896A1
BE9222D8
BD64EE4C
3E43FEB4
3D98FA87
3D83FB33
3DE88469
3E1F6FB1
BE1C0379
3E142990
3E5D0FC0
3C2B05BD
3D899076
3E5186B3
BCC8360F
BD78607C
BC549C04
3E7A1A64
3E6ED6F7
BEC0EDDF
3D47591D
BD93BD56
BDAB7E1E
3CCCC55B
3BADAAB7
BBC2FC85
3D8792F1
3C2E78CF
3DA17C25
3DD55B97
BD45DAC0
B98D5D0F
BDA04C3D
BE87684F
BDC604CC
BD129CE3
3CC20BD4
3E0F8785
BDAC9E93
BDD67847
3D32ADBA
BEA637DB
BE1E42E1
3DFB8280
BCC48917
BCBF12C0
BE1DC8AB
3DD65F38
BD827420
BCB541BB
BD9169D8
3ED4DBBB
BCF462CE
3E0770EC
3D504C23
BC0E889A
3D399F63
BE753D57
3EEAE8B3
BD983AC4
BD908C6C
3E6F9FC4
BDA950F6
BE2A6D3B
3E0D22CF
BDDC2BE5
BD68431B
3D182D13
3D8BA649
3D819521
BDE86892
BE07C207
3CC1B4A1
3E01230F
3D1CDEEB
BD9B4BF4
3C519EEF
3D8AEECE
3E1B6AE1
3CE96EDF
BE33F727
BDEB7EE2
3DC55D09
BD178959
BEB06C9B
BD818240
3B9AC4EA
BD345463
3AF2D677
3D62EB55
3E6BF141
3D3B4276
B9E95781
BD821654
3DEE70C1
3E4A5AC6
3D73EA68
3D237C41
BDC8BD96
3B812931
BC0C03CD
BD814B45
3E052906
3CB71302
BDE4F949
BD611485
BE5C1F00
BD3C4764
3E745917
3D77694B
3C873A3C
BC2C139A
3CE02046
3C958944
3D5C8F25
3DE49ACF
39999240
BD1C6DDF
BDE28EE3
3D811FEE
BE4409F9
BDBB4773
BD12614C
BDD76C20
BE89810D
BD1F3499
3DA8485B
3D67BCC0
BC7B32F1
BD61B814
BD0496E9
BD87C3D4
BC81A5D8
BCD0E34D
3E0F65F0
3E50A18F
BE134C06
3DF7DFF1
BD3FE77C
BD7FAF3D
BD172C19
3D281AE4
BC7C6A09
3DB745ED
BDACE84E
3D0635EA
3DF1852E
3D9F71BB
3DB59A39
3D8C6CE8
BBC8F7A9
BE162B7F
BE2E99C8
BC13CB5F
BE3068E9
3E6AD30C
3D110B56
BC366C58
BE274469
BD982909
3E06EEB7
BD86E3FC
3E608B25
3D6CB827
3E14717F
3D852D21
BC703446
BD96B1AC
BCE917E7
3D58847E
3DBDCBEF
BD75941C
3E151AA8
3CEEA3E7
BDE1F2B4
BDDC214E
3D5381EB
BC8AB5D6
BD4F449C
BD2216E9
BDA19A38
3DB4BD84
BE095F53
3D2DF92A
3DF1B4D6
3CD4DF25
BDC7F166
3D8623C7
BD1F3D3A
BDE90B4F
BD993AE0
BE9D5172
BC4E8468
BDA4F44A
BD9CD466
3D9308DE
3E451604
3D2DC0C8
3E196B7D
3E3426A7
BD133CB3
BC5D85F8
BBBEA573
BB8EE07D
3BBC9751
BE884F28
3CD634B5
3DC9B16A
3D37923E
3BEB3EC2
BDED0105
B5AAC102
BC3A674F
BDECE322
3DCB9990
3C796013
3D5DA976
3EC7F6E7
BE01FEBC
3E51004C
BE6700E2
BC40747A
BCBF3113
BD3A0572
3E595550
BDF2E3FB
BDC7A8E6
BDC7F8F9
3D8E1D3B
BD1E61B2
BC93C265
3E1E6433
BCBA6125
3D0266D8
3CFB2CC7
BDE9A49C
BD3C3080
BE621E9D
BE0ACA87
BD676758
BDAF74B8
BE40F8DA
3DCF02B7
BCF2BA72
BDA7CF88
BE2CF708
3E63C177
3E17227D
3D2F73B9
BD54A6BB
3D268C29
3E49472F
BE619FC9
3E1861C1
3E027052
3D5DE068
BD113613
BD1A9B57
3D8AB69E
BCD78715
3CCC4F4E
BE5C29E1
BDFD5F14
BC925B11
BD91768A
BDA693E8
B99CD1D3
3DCFDF8C
BD219E89
3D1EB71B
BCF8A70B
BE7ABAEE
BE006940
BEA6C8B8
BEA7B557
BE8134C4
BD8EA176
BD881388
3D47C198
3D3A4F06
3AE517D0
BC834529
BE49A155
BDE827ED
3D614C8E
3DAA4C9C
BDDB8AF1
BDA4A603
3E1FFD25
BDE5D646
BD91A52E
3D3C334F
BBC4A202
3B52B221
3DA4DCB9
B9BEC2C5
BDE27F79
BE4451AC
3D953CA7
BDF88E95
3D9E1471
BC234C07
BD1AB505
BD92B432
3D69B934
3C1254C3
BE87214F
BDD7F943
BDD0F22B
3E192C3C
3DC903EE
BDCDF308
BD261E12
BE761CF9
BE22BCAF
3CAC5CF5
BDCB8719
3C452B2D
3DC20509
BE34DA4D
3E45EB4C
3B7BE4A4
3DA8F6A0
3E531D27
BD46CE66
BE6720A7
BDCEF127
3DA274CE
3D1B963E
BD422051
3E4E0286
3C0B03CA
3D6A3C16
BDFD6B58
BC9AD1C8
3E0566C9
BDE6AEB3
3DC3C269
3D17C3A4
3D65477D
3DA6AF9A
3DED9671
BDFE2295
3D7090B7
3D77BCB8
BDC1202E
3D1DDF4C
BDBCB5BE
BD67E57A
BE1F37F5
3E5E75AF
BD98B190
3D4EB481
BE02B021
BC58CFC5
3E431481
3E0E5CD5
3BBF6534
3C649E25
BDF9572C
BB510364
BD000F55
BC4B82A0
3CA2CB87
BD8B1C05
3E0323C9
BE052DCB
3D6061E8
3D0ACD23
BD37259E
BCB9B645
BD577118
3D1DE9D3
BD04700C
3D32D296
BCB50E45
BD2C3FDF
BE2E30DF
3DC28FC8
BD291144
3E188BDB
BDCF3A4A
3E02A3A6
3D938599
BDCB1EB5
BD3DA0CA
3C00947D
BE01EC63
BD3BA619
BE2E55BA
3C273BF9
3C7C12E1
BDF9EECC
BD8172AB
BE69A863
3C15D9EF
BE5D8608
3C6BBACF
BE1A9578
BE659EE2
BE19EAB5
BBBBDC40
3E4CD7DD
BD1F3189
BC8D4F39
BD581EFE
3DDC0585
BC23AC50
BDF854F6
BE57D65F
BC683223
3E90EFED
3E76BDAB
3E4BC657
3E5C70EB
BCD63BF1
3DEA70ED
BC20A90A
BDE17B96
BE25382D
BD288B14
3E486870
BC4DE4F0
BDAE486F
BE83548B
BEC28AE4
BEB308D6
BEA5AD8D
BEDAE580
BEEE9D52
BEB43252
BCB51A43
3D27C5C4
BA6BC700
BD8D38C0
3E041AE2
3D2AE628
3DAE36D3
3D174472
BE018E54
BDC80849
BCC331D9
BDFD962E
3C30D0C3
3E3554AB
BDD19173
3E9917F5
BDF5BEA1
3D13F77E
BD89DBE4
3D5CF63D
3DF171D5
3DB0B693
BD0CF1E6
3D7A03AD
3D6D838C
BD219350
BD490AC3
BD0ADE60
3E23DD76
BE28AD5B
3C7BF417
3D953721
3A3A18AB
3E4FD391
3E3B71AB
3E3886E6
BD1EE800
BDF2BC58
3ACD4BF0
BE0E8138
3D8FC066
BD79B97A
3E34E5E3
3D03D3DD
3C59FBEA
BE35905C
BE16BF5F
BDA00DC1
3B9B60ED
3D967217
BBA6C40B
3E42A79C
BDB3CB05
BDF54FB0
3D054D1C
BDB21837
BDDE5EFB
BE1C9815
BDE4374D
3CF51907
BDEB7B79
3D0CA974
3D6F112A
3CA8A09E
3D91F319
BDBBEA08
BCD48EDE
3D587394
3DAB6BD1
BD895F57
3BB492C2
BD102196
BDBEC3BF
BE4E0194
3D8087AC
3E44574F
3DAE67AD
BDD22D51
BD81973A
3DEDF3EC
3D97B719
BD142107
3D1D8313
3DBC7068
BD8F78BC
3E2A9C63
BEE22648
3C1D0DEB
3C320EF1
BE4F5EDC
BD911AEB
BDDB5C2C
3C2C69E1
3C617C3C
3DF3E235
BC5664FC
3CC3A928
3D3E43F6
BBEA9C90
BE0898CE
3D50B575
BDDB4FF5
3D04609D
BC93F723
BD8BD65C
3C9D7A7A
BC44AD03
BDDB771F
3D856902
BE91C10A
3E3A3704
3CA05931
BCC09460
BDCD6FE8
3DFE4119
BD91D8C5
3E36EADD
3D892DE0
BD668ED5
3D9955BB
3D776CA1
BD8B7776
BDB0588D
3C587191
391E0F36
3DD63A34
BBBBD170
BC981A18
3DDE03EA
BD6CBDD6
3DA03573
BDF69362
BD9E5759
BBD53D49
3C832B94
3C065E94
3D959AB9
3E1D6C51
3D3A22C4
3D26DB74
3D8D3028
3D59CA46
BCFAE37B
3B86714F
3D1602EC
BDA39C2B
BD380354
3CCEFA9F
BCECCBF1
BE280410
BCE3C445
BD5ADE15
BE275AA4
BE068B6A
3D4196C6
3E2C48EA
3E806C4B
3E4B99D4
3DF8EC10
BD1363E5
3DA26E79
BE389CCA
BDBDD84D
3D8FFBF2
3D43FA73
3C966852
BD1888FB
BE7ACA29
BE021676
3D9FBCDD
BE50E0C3
3E13C34D
3DA568D5
3D41EA4B
3E0957B2
3DCFF914
3CEB4FF0
BCBCEC3A
BBA98442
3D7FF896
3C1C64ED
3D37A520
BE2790DA
3DCD9C86
BDF54809
BE326E1F
3DD34770
BE0B3DEC
BE10C9EE
BDD8B779
BE07BDE3
3DD1CD60
BD416D63
BC71CE44
3DD32C55
BE2B637D
BCA9F24D
BC939853
3D37090B
3DB05B78
3E90CD64
3CE696A2
3CC18B8B
BDA61ADF
3E16B06E
3E99A0CC
3D0510C1
3E51318E
BE3DD7DF
BE5EFD29
3E0AE58E
3D8D6E65
BC6CB9BD
BC020EEE
BE02A4E2
BDCE7A3F
BD543960
3D6024B6
BDB52FDB
3D5FBC56
BD4885D3
BDBFBA35
3C14C026
3C89E7DB
3DB65E8D
BE03DA9B
BDEF9ECC
3B04C6AC
BD6ABC4C
3E0E4B23
BDA1001B
BD53DBB5
3E0595F8
3CAD00DA
BDC2EAB9
3D7BDEF4
3CDF2BA4
3E9F642E
BC5EDD10
BCD2799F
3D91529D
3DEB5D03
BE5C3AC9
3E31A8B3
3C1D6AA2
BD08674D
BC57D7E3
BD112C58
BDA5F946
3DBD1C56
BE28C13A
3E05E53E
BCF20F57
BE0E480B
BDAE7955
BD695A34
3D8A30D3
3C8E8935
BDFFDEF8
BD4A1263
3DB1492F
3C190883
BE2DBAA5
BE314000
3D9C5FB3
BE134F8A
3E6C458F
3E1F7136
3C5019C9
BDF07C5C
3D2B6F12
3DDE765D
BD622EC1
BDC349FA
3C7C9282
3BFD20D9
BCD7A5C4
BDE06A53
BDFF82F5
3DE75EB4
BD870982
BBADA134
3CD20D08
BD1A2A8E
3D51DD38
3D875429
3DE54450
BB25DCEB
3B126051
3E3D1966
BD922947
3E01D8E8
3E25F337
3DDF9F37
3E01AB9C
BE109466
BD04A84B
BD4C7257
BDA16040
BDE6FEF8
3DC51D36
3E8BB795
3EB3D17C
3E5FD0E5
3E45C55D
3E097B2A
3D51F0AE
3D8152ED
3D842A5F
BDAA47F9
BDD3B016
BD8069E9
3D5F9A3F
BEA5A95E
BE83DF99
3E129D3A
3C36B015
BE2B306C
3D50A983
3D02CA83
BDD7C089
BC562709
3D04A22E
3E7F2CD1
BD004F00
BD82D712
3E607655
3D52B6EF
BE01D54A
3D2A034F
BDC0061E
BD5BCE90
BE57A9C8
3E67BDF7
3DFD7F2A
3D92EDB5
3D9F892C
BDD40E17
3CF50D33
3E6277D8
3E45DF80
3E46D66A
3CD3D58A
3C51761F
BD0986BF
BE18B64C
3DFE62F7
BD7A0371
BD9D57B8
BC2EEEEB
3D730A59
3D9E43AA
BD12BE23
3DF8B2A7
3DB16C30
BDC8AFE1
BD9A1D67
3DD935B9
BD683D86
3E2A99A3
BE733B54
BCD1FB8B
3CA76041
BE32951A
3D15789B
3E2A3EC7
BD945C3C
3D90C886
BE1362DC
3E397EEA
3D1973AA
BE1482D3
BE144C10
3D65E718
3DAAA6E7
BDFD16FD
3DC2A3BB
3DECFF4A
BD218B28
BD421A49
BCC88DFE
3DE2C809
3D675287
3E307F10
3DCE562C
3DA1BFF1
BE132B63
3C806EBB
BD6E536A
BDE8523C
3B5D26A2
3E880BF8
3C408CC3
BE0BFCE5
3DA2D252
BD480AA3
BCC98FD6
BD9228BC
3D07AA03
BCBB40D9
BC9754F1
BC2C81A9
3B5E64E1
3D04B68B
3D3E5B12
3CA2A511
BC876F30
BD599EBA
BDA4FA9A
BC71A9A6
BC79044E
3E8F14F6
BD5B8AC3
BE867203
BB056F6F
BDA41D00
BE13464F
BD93A73B
BE885800
3E90609A
BDAA9094
3D89A6C0
BE1E8E9D
BD95B7EF
3DD49CF5
BE220E8B
BD3E2EA7
BD081EAD
3DB6DBCB
BDCC12F9
BD40767D
3DBAFF65
BE22E6BC
3D5068DE
3D752B4E
BE377C09
3DBD70D7
3E01512B
BD456433
BB23FDF7
BDC9B805
3D11BBC5
BDBB3E53
BD40E3D6
3E080DF9
BD78BE52
BE88F9F1
BE1D53BA
BE0A1EB1
BCCE5B93
BD92C216
BDCC448C
BE302A64
BDFD3EAD
BE36C615
BBAE288A
BCBF4C21
3E1392AC
3D61428B
BE5EFBE7
BE714489
BE1006F9
BE98127B
BE3485DD
3D047268
BE0A84CC
BBE44598
BE412AB0
BD18BBD1
3E31B054
3B8D26F2
3E1B371B
BDE2E1E2
3D9AF16E
BDCE1FA6
3DBD2725
BA93F2BC
3D932EBE
BD236C64
3B7F19F3
BE5247E0
3CAB7006
BE459458
BDA61B01
BDC35906
3D74C290
3CF4DCCC
BDAABCF2
3DBC962D
3DD3FAA4
BD714C73
3E04C914
BDEE987F
BE3035BD
BC117876
BDFD18AA
BDDF03A9
BE76E4E2
3E30B3CE
3DE7C618
BE19D587
BE3F2F70
3BDD2173
BD83CD3F
BDF56CC9
BDBD1C39
3D1823E9
3E4870CD
3E103D79
BC2911DD
3E3692BB
BD8BFA28
3D99BAF3
3E602FF9
BCDC82A8
3A98B930
3C254BDF
3DDD57F2
BE0F07E1
BD230C19
BC05A4A9
BCE3C4A1
BC2B950F
3E18F8C6
3E48CC51
BD546AD4
3E179C69
3E17A179
3D4390CC
3E1A234E
3CEAC952
BDD67290
BDECA750
3E00A541
3D16A5BF
BDD7DAB2
3D50226D
BCA16CED
3D264707
3DEF379E
3C7A7527
3BF06D3F
BE38F748
BDAA3071
BD47293A
3DC23748
BCD04949
BE03E26B
BD395003
3D3664A1
BB4D6607
3DAB09FC
BD858E6A
3E073414
BD17620C
3BA839BD
BDA75E88
3DA4AED6
BE1CFEA9
BD997ECC
3D2CF99E
BE145246
BD9614DE
3D26C2D0
BDC945A9
BD9ADF44
3D8D48C5
3E7A7FF9
3CBC5C21
BDB24EB8
BD296CC6
3DDBA45E
3D99FAD8
3C6E7061
3D14A137
3D9967E4
3CC1CAE1
3D98A9CA
3E2C1A26
3D22034D
BE89A551
BDD4FE95
BD889E13
3E0B81F3
BE64E2D9
BC41E324
BD6304F5
BD449828
BDB00E73
BD99E382
3DB84A8B
3DA765DB
3CE4DB67
BE043640
3D9F10F3
BDB15B77
BDA0BC83
BC872457
3D1B7369
BD381400
BE070F7C
BDD73E18
BE203AFB
BE1076E9
BE942E99
BE8C8857
BDC5207D
BE4F4B7D
BDA1F700
3D24BEFF
3D42CFEE
3E351CD5
3F0141DC
3EA4B623
BE0AB628
BE836B3F
BE1F9F45
BD985173
BE199455
BDA79731
BE7AF768
BE2FF2E5
BDC1D545
BE48991E
BE01DA59
BD3B1263
3E4A446A
3DD8EE1B
3A8F1D36
3D3A4B86
BE6CCA4F
3B12FA6E
BD96C68D
BD85C0A9
3D2C037C
BB9F3FAC
BE1A77DF
3C0551F1
3D969A57
BD62599F
BBA1843B
3E05E970
3D6F638D
BD267087
3D4948C4
BDD34B51
3E0BB052
3C9D8303
BCA05B9B
3B9C02B1
BD8019C9
3D8ADA1A
3C785A8F
3CEF2D5A
BD9B71C6
BE4348AB
3D56D118
BDC5202F
3E15FE83
3E0F6230
3B6F822A
BC9D86AE
3D400BB1
3DCA7517
BC0CFFD1
3D7BDEC9
BDCB811D
BE1CD199
BC8943C1
38A63BA8
BC2574CF
BD8F2031
3D8653DC
3D0358AD
BD9BA53C
3B9655E7
3D6B5C62
3E1D6C94
3DB2EAE3
BDD146AF
3CC17342
BD810477
3D949BA3
BD43AAD2
BDB1693D
3E50EDD8
3C5EF1B3
BD9466CB
BCF8DDF2
3CEB0ACB
BE692DE9
3D889B75
BD0799C0
BD09066F
3E058524
BD0889BF
3D12B7F9
BC379FCA
BD12D491
3E15C7F6
BB7F45C6
3E46C75E
3D1B25A6
BDFA4E52
3D8C8498
3D3B9C71
BE083424
3DF88EF2
3CCB7E84
3DBB838C
3D8434BE
BB1824DC
BC0BA8B2
BE11DBFA
3C18C027
3D4E7E0D
BD9BA9F9
BBEF30AD
BD9DCA9E
BDB64BF7
BE45F400
3B27CE84
3D5FADCB
3D83CB01
BC465F96
3B05E739
BDDC55E4
3CCFD5B1
B9BDA491
BAF7FF00
BDB07C03
3DCD2F00
3C7867BB
BE463787
39C90031
3D92CDBF
3E52C5BB
BCEE9F05
BE6EAAD9
3D66BC9A
3D4223EC
BDD69D23
3AB1B89F
BD9550FE
BD6BF6D4
BD8154A7
3E2DDD4C
BD1EA0D8
3D88A946
3C080758
3D9C7233
3D1B66C9
BCBE8A85
3D28D7F8
3BDF6065
BE5B6E06
3D1486B8
3E528848
3E7CB161
3D115916
3E43AB0D
BD918DE2
BD96A9D1
3E0DC9B1
3DE462DE
3E058DB6
3D96F912
3E48983A
3C8D758F
BDA4004A
BE77DE07
BE415C85
BB270CBD
BCE980A8
3E74F55B
3E09D939
3D860CDB
3E80B532
3E63F02E
3EB37D27
3EBB6B64
3DCC165D
3E011A8A
3CF21DA4
BCECA33C
3CFBCD15
3E21DA60
3E29B20F
3A89295F
BD5D8E33
BE06119F
BC94709B
3DA793A1
BE1B5914
BCCA57C2
3DBF0EE0
BE08204C
BE440145
BD9E6922
BDB652FC
3DC1D328
BD1A641D
3E2C5A02
BD703763
3D3D8AB5
BC996D85
3BAE6190
3E36DFAB
BE4F80DC
BC9C2814
3D3DE828
3C5B4D43
3DE7A3A6
3CF26309
BDFA9AB6
BD3F27F9
BC5445DD
BC5EF6DB
BCA503EB
3D2CCDB6
3DACEE14
BC10A333
BDB13992
3A555A73
3E811893
BDF19894
3CF463A5
BD146B37
BE849CF2
BD309DD2
3E69413B
BDE7D384
BBA0C491
3A8355C7
3D64A6CB
BE75F8A4
3E26964B
BDFB828D
BD90CCB0
3E0A2813
BD759EAB
3CEAF968
BE33A7D4
3DA99A04
BC64C359
3D5C6C65
BDB64D2F
3CB314F6
BD43FA33
BD78373C
3D88221F
3C9927FF
3D5253AD
3DE803CD
3C02091F
BE3A1690
3B4185B6
3E0408FA
3DC37198
BE671CB9
BDFBD1C5
BD605FC4
3DC3A4F7
3D8F0205
3D9481E9
3E04DAF5
BD477FC4
3D480EA5
BBC7B13A
3D162DFD
3D0F7675
3DD37868
3D81D1F5
3D7DEC21
3E159507
3D48E765
BD1225ED
BC89603B
3D63FBEE
BCCE6EF3
BE07FA35
BDFEEB8B
BCB10EBB
3DAE963F
3E6E2E5B
BE5559A0
BC3EAC2D
BDA3007E
BDEF4319
3CA9CAAF
3D41503F
BDCE9C10
3CF5864A
BCC95B23
BD529229
3DF98436
BE581C21
3DE39516
3D4724DA
3D80EBDE
BD81CA90
BD58DEA9
BD94A664
BDA129E4
BCF1AB13
3B64B287
BCE1AC4D
BBE6E074
3D431A2E
BD838F12
3D19A1F5
BDF7CC3A
BE7E0C11
BE5FA49E
BD0BB3D3
BCB9A45C
BE21E83E
BD8AE46A
BD8E1F19
BDEAE579
BC9F1EC9
3C99696E
3DD1D027
BD95DC7A
BE9A7759
BE8CEBD3
BDB98863
BD8A5EFF
BD2EF4A5
BC852ECE
BDA731DF
BD8F998A
3D328D03
3DE8391F
3DCED840
3D1B97E4
3DC93D84
3E7B2E38
3B1F4E0F
BD68A18A
BDE29267
3E3E6971
3DA8D6B4
3CB988D8
3E047072
3E5027E6
BAE93027
3D087E13
BCDF9AB5
BD2F4EB2
BD390598
3D578171
BD5DB382
BDA2CBA5
3CA47296
BDAEA3D1
BCEFFFB2
3DBCA2A8
BDB613F3
BE39AFF6
BD21143A
3D9D6D5D
BD2C8A75
BAB928C5
3D13F98F
BDA30279
3E15AA93
BE39E1E0
BE46F615
3E095323
BDAF5CAC
3DE4AAE8
3CA2129A
BDC137EB
BE12E40F
BDDE0F14
3D133B59
BDBA0213
3DF8855A
3D842DE6
3CD6DD07
3E483C15
BD3BF762
BE1F16E0
BD22D024
BB65F466
BE135D68
3D61E413
BDEA2E8D
BA20EA71
BD9C0BC0
3E6A144F
3DB8CFCF
BB8D6EA4
BDE300C3
3DDAEF70
3E065CB3
3E3E9A55
BE0D97DB
BD2BD904
BD8B634A
BE0498C4
BDC034B2
BE80A486
BDDDAEFA
BC48B835
BE557E38
3E26C0D0
BCA6E994
3E17B557
BB38E8DD
BE6E474F
BE3D8C60
BD9E0D33
BD827325
BCFE38B5
BDCD8A62
3E235E2A
3CA2FE6D
BDBCE15B
3C0E60CB
BDE3C884
3E3C15E7
BD31127C
BE0F2C08
3DF97D2F
3DB7C11E
BC933E71
BE31F34E
3C357DDB
3D4FC2C9
3E94F13D
3C4DCAA4
BD8E7983
BD910D78
3E37AFF1
BC8C07F1
BBE39DD9
BE0D2242
BC81E05A
3D0CBA50
3E15E97D
3E6B7ECD
BDFE9A62
BDB360EF
3D44ED32
BCAAFB77
3CC99194
BE92B5F3
3D743BAC
BDA1B26D
B885B37C
3DA03396
BE38F8CD
BDAFA007
3D215D7E
3D7D8920
BD61FAA7
BDD53D7F
BDB3150C
3B1711BF
BE16D162
BD8E3B62
3D751889
3C0AEF37
3D4E46EB
3DCF12B5
BC8B5FC0
3D74049C
3E0FA150
3E0FD6F3
3D3AEFBD
3E7B7982
3EAE17FB
3EB1D668
3ED173B2
3EC8A49A
3E90090F
3E1D650E
BD98B697
BE7EF991
BCFE094B
3D8E4FCF
3E0D2EF9
3E58069B
3C56B7A7
3E2482FB
3C8859D1
3DCDAB19
BCB2F3A3
BE024D89
BCF21485
3CFE17F3
BDCD480F
BE51A6A8
3C567C23
BCFD66F9
BD84A69A
3E077157
BDBAB3E7
BD5AE9C3
BCE6D4DB
3C916279
3DD02EB7
3E2AE89F
3CF2D7A9
3BEEB0BC
BDC417B9
BB884C75
BE81B824
BDF340F0
BD859D33
3CBA3032
3E07A23B
BD9FA51C
BD275D11
3D86BE80
BE2F183D
3D90A333
BBC29B6A
BE1CB11E
BD04C2C3
BC482DCC
BDA89F9F
3E074715
BDA18582
3E4A94BC
BDA87A0F
BDA9E45E
BE2A629D
3DFB0D88
3CFCE1B8
BD9D4BB2
3CFCB553
3D8B537B
3CD65B41
3DDD9092
BE05B9FD
BE07AEEB
3D8E76A4
BE3DEEC9
BC0DAA37
BCBFE7CD
3E1FCE8F
3D70E4EA
BD812EA8
BDCF7363
3D1A3508
BABE2E4E
BD825325
3C80678F
BDBE8C09
BE27BE69
B9A34FE2
BCE17C97
3E3A26A2
3E46BD75
BDC1D18C
BAA28503
3C053110
3E1833B9
3DC05E04
3DB30C6F
BD044B31
3C2DC392
BDF5B482
BC2AB515
3E1CF76D
3E91DFF6
BE38D3AE
3C91373A
3E0E2175
BE02A1D1
BD3ADB68
BC02BE7B
BDBE03C1
BDC9286D
3DFE26EF
BE25F5FE
3D7EED0E
BD030576
3C93A173
BD26F2DB
BD77EFF9
3C83B861
BCDA3D43
3E3C5975
BDDCC25E
BE1A9960
3CFBC914
BD252320
BD0AE1F1
BDE25DC3
BCACE495
3D96D401
BDAE919B
BE098549
BD44DF15
3D4ADE38
3DB1DA73
BD4E64D0
3D68CA41
3D2C4BF9
BD09272B
3D23C867
3CEF3C13
3DF7E2FB
BCF290D1
3CEC03AA
BDB5B5F3
3DDFA6FA
BE10F388
BD71F9F3
3D91FCB5
BDF738A4
BD28F918
3D4A324B
3DC6D8CF
BD537888
BD05A0FC
BD3CEE6B
BE05773F
BE16E39A
BDB08882
3C2E5B9E
3E0444DA
3EAFA103
3E811E39
3E24D064
3E68EA6F
3E40DD9E
3E39D61A
3D2019F1
3C6B8C96
3D9ECEA4
3DBE01C5
3DDD2377
3D3EB418
BE108AFD
BE8557A5
BEA2125F
BE3C9C25
3E30B992
3F051FAC
3EF85C2B
3EB6D111
3E844315
3ED245C3
3E37A86B
3E811F60
3E4CA531
BDBA2D04
BCC57E9A
BCCC9610
3DB05115
3E6B6DAF
BDDD8F27
3D84894B
3D292276
3D5F70A1
3C14495B
3D4A8681
3E4D38BA
BC583B35
BE36C219
BCA0FA1B
BDD228EA
BC77E7E3
BE296F22
3D67216F
BBAFCF14
BCF8B6E6
3BB1E350
3D50E890
3C2CA4EF
3DA8F165
3D9E4F62
BDA43122
3D0E4B02
3D9A8BE2
BE141491
398DEF77
BD6F3031
3E0B3E0E
3D8A546B
3C21122B
BD7A0222
BD52F04D
3DB17911
3DCE24D6
3E245F76
BE2C44F5
3D03A7E5
BDC9ECA7
3D78E2BD
3C272A31
BE62892C
BC7F607E
3E076D11
BE08A768
BDA65C10
3D654935
BDB89AC6
3BF2736B
BE2683B5
BE085A92
3DD3CAC6
BD4FB3A2
3DACC92D
3E64A24E
BC91E250
3D2446CF
3E5F7E0E
3D8CD097
BB1E7457
BD9E837B
BDF06184
3D256979
3CD4F90B
3D5AFEAC
3DCA6EFE
3D6F8C35
BD38969A
BC2E6584
3C54B52E
3DF66623
BB5799E7
BE007542
BDB2DFBA
BD0AF232
3D757486
BC8A76C1
BDA4AEA2
3CFC9A0F
3DB043C1
3DF2E7A6
BD510AE5
3C0D8072
3CF4CE1E
3D8363C4
3B855335
3D711E6B
3E062040
3D5817EF
3D2432F5
3DB5A759
3DBCEDE5
3CCB9EDA
BB25B5B2
BD86ADFB
3DD40174
BDB357AE
BC581CCD
3DE420EA
3D89030C
BE6E4756
BDDA3A16
BCE0BCC9
BE2F16CC
BD9CA840
3D339AFA
BC34DABE
BDD50713
3DF81A4B
3CDB9EF2
3D63584A
BD891B75
3E025E14
BDEA719B
BD03AA6F
3DA56FCA
BE3EFBA3
BD0F1747
BC962CD3
3BB548C8
3CC826A5
BC5470D0
392FBD3F
3D1B98BD
3E0B894A
3DDB5A71
3E94C401
BD553DDA
BDC6F581
BD095BA9
BD92D49D
BC9B8CA3
3DBDEFC1
BD664704
BCC34E5E
BD932A27
3D300F5F
3D8BE5D0
BC129A3E
BCF2BFEB
BDA3B551
3D947B9C
BC87C973
BC73DD27
3E18646D
3C702B8C
3E9C2894
3EFC12D9
3EEDFBC3
3D5A6884
3E80F546
BC8CDF77
3D9E7228
3CE3C95E
BDCEAA6D
3E2B0FE4
3E29DA45
BD8E0C56
3D3F8686
BE392627
3E4379CC
BCE3D21D
BC8B0AE6
3DDD7B20
3E353799
3CAA9D0D
BE15B93A
BC58ED0C
3DBCED37
BE24A409
BD4BE5EA
3D9195E9
BDF7FCC7
3D7DE269
BE4D1D41
3E5829AE
3E0057B0
3E1FBE48
3E47EBDE
3E1442DC
3E8C6EE6
BD2275D9
BD013928
BD48E534
3D89C78F
BDC9B299
BDA5A105
3E1ABC15
BD43FE1C
BDE1C45B
BDA11509
3D480265
BBEDE82A
BCF332F3
3D88CD48
3C124F1F
BDD56481
BE0A2B1E
BE2055DA
BBDA956D
3D610670
BD5D1468
3BCC615C
3D3B1E92
3DEA5F42
BE01B011
BBC193D6
3E2E66D8
BE0E917F
3E2B0058
3E15D2B5
BB970078
3D416E1A
BCAAFA5F
3DD6BC1F
BDA4F5B0
3E5071A4
3C1F72EF
3DA2A14D
BD6AE28F
3C435D98
BC8C1CBE
BE15A03F
BC448617
BBD3A97E
3E9C58C6
BE38ABC8
3D5757E6
3DD5E694
3BF1AAF1
BE33FBA3
3C887F20
3C1B8853
3C7FD248
BB09E99F
BE548D99
BE46EB0B
3DE3405C
BE45CD2D
BDA60BEA
3B915E46
BD256AC6
BE50E813
3D6202E7
BD8C914F
3D9C621B
3E3A23CD
3DC62768
3A9734CC
3E0E6468
BDE20E8B
3E636941
3E219575
BCD7F103
3BB3BBBE
BDFD5404
BD2E92AD
BDE0AE2B
BDB1A186
3D95A9BD
BD27D2AD
3E4125A7
3C210E61
3DC35F86
BE067382
3DFC8F32
3DD20EDB
3E4BA168
3D1B9E21
BE1ED246
3E048E69
3BD6604C
3D770218
3E8BD234
3D89461E
3DDE8BF7
3DA52BD4
3D87CB07
3BFC40DB
BD4FC34F
BDE15B3C
3D5ACEC8
3D2BD409
3E85786A
3E06C977
BDB751F9
BD33B38E
BD977283
BD100879
3E2D8FF7
3DD12B94
3EA2327B
3ED49A6E
3EDDA91E
3DBEAC68
3D68BA23
3BEB7E6F
3DB211BB
3E65C3CB
3E5FF6E7
3E5EF02F
3E29897A
3E7542E5
3DCB297B
3DD20210
3A4A6438
3DE0EF06
3DDC986C
BE033FFE
3D366F9B
3D7AF806
BCA67C5B
BC9AB644
3DB2A055
3BE0D538
3D0A56F1
BDEC192E
BE2F6A51
3B33C435
3CC792C6
BDDA0458
3E2BEB04
3C709757
BD9D62E6
3E14416B
3C9C17F9
BD87ABF6
3C8CF211
3CD6B6C6
3D9D0B95
3DC7BFE7
BE3B55D4
BD6CC37D
BD40A039
BD637995
BD9114A9
3DD8924D
3E07297D
BD06B60A
BCBA7425
3BAA07AA
3DDE1A68
3E7FA6A9
BD36115F
3D927B74
BE11FA04
3DADE772
BE227894
BDD725B6
3DC8BB30
BD706AC4
3DCED8E1
3D916C8A
3CD80F30
3D3DA04C
3E05B185
BDB73A30
3C1A828F
3DE19D82
BD2741C8
BD989DCA
3DC9FF59
3DC62F91
3E074DAA
3BE63C6A
3DDA25D9
BBD8BFAE
3D26678E
BE2BA97B
BCA31CB0
BDF43E96
3DF80072
BCD1D7DF
BE239A61
3D5AD05B
BD3C8715
3D39FD9A
3B847889
BD30A918
BCE4B5C2
BD3F108C
BE2D7C70
BD4C9A73
BA8402F3
BE500F2E
3D2B81D9
3DB30DEE
3C3CB903
BC71187C
3E3A0289
BDAD8AD4
3D41C014
BD9E956B
3E3B7FFB
3D1DE398
3D4A87BB
BD7603AD
BE0E1EF7
BD54AAE8
3DB3F0C0
BC9CC69A
BCA1E5F9
BC97101D
3C01FA1C
BD385B00
BD551020
3D8F6DFF
BD86E08C
3DA77B52
BD15873E
3D9216D2
BDCB4E9F
BD8954CE
3E30245C
BD8D38A0
BE478239
BD294FCD
3E721AA1
3DC95133
BE2F6A9B
3CFF373D
BD90812A
BC9370D0
3BB5EF21
BB37FF2D
3E5F1C61
3DF9C4DB
3E162A73
BCBE05B5
BD09C76F
3D91DC3A
BD7C94C6
3CF5C30B
3DF88A12
BC9476B0
BDDC7C52
BD5924F2
3AA43713
BE0B186F
3DD58058
BDA178A1
BDD873E5
3DBE06C8
3DC0226B
BD363201
3C8FD372
BD04A902
3E41B647
3E5C8917
3E3506F2
3D296871
3D91CE8A
3E55AED9
3DA16C0D
BCEE189D
3D1F2959
BCA17779
BC579B7D
3E0F7894
3D4DAA3A
3E167536
3E3D2872
3E42F1D2
3DB04477
3D0D6C2C
BD2F0336
BD73DF0D
3E272EB4
BE180ED6
BDD5B7C2
3A9A4CA5
BC1BCEEF
BD334156
3E0B90A1
BCABB8D1
BDA65FC9
BDBF4EC9
BD0A6F45
BBB534ED
3C13612A
BD865D34
BDDF64A7
3E5C593F
3C862BE4
3D8189B7
3E0A285D
BE2464F0
3E5BEBCD
3D21F7CA
BE494A68
BB278D5E
3E0E415C
3B896BA4
BB89D9B3
BD9D470F
3D7CCD63
BE97B986
BE33823D
BD8678EA
BD3920DB
3D538296
3CDC796D
3E39EA07
3DEF553D
3C87A2A7
BD182A23
3D262289
BD7A6E56
3DA10161
BDBB602E
BD6B95E8
BCEC2CB9
BCEE4776
3E15AE60
BCB9F051
3CC621DD
BDD6CF5D
3E31A01A
BE13AAC4
BD5E1A22
BDA7514F
BE962963
3E43E93C
BE068DB9
3E1ECEBC
3DA974A1
3E40D761
3DAB73F4
3DF94904
3CFFFA81
3DACC21D
3CC43B13
3D9FE58B
BC8A8CAC
3D6B3C9F
BE852041
3E0070F5
BDDA42BC
BDF4BCA0
3CCFA727
BE077F72
3D0F972A
BDCCD9E8
BB47CCFC
3CBA2D88
BE043C9F
3D995ABA
BD01DC1E
3D0E4245
3D39EF4D
BDE94C6D
BC5FDA1B
BDBC7743
3D85BDCD
BDF6EB77
3D877C92
BDCE750E
BE5BA725
BDBE9467
3D289B9D
3D5BE13F
3DAC7F5D
BE2BD51A
3CB4A300
3E0E4B9C
BE46176A
3DBECB28
3CFF3052
3E12157D
BB5A828F
BCC5F471
3D8A8AAE
BD1D3A8E
3DE6EEC4
BE8688ED
BD7E2CA4
3E3A4485
3B65F0A8
BDE2AC5A
BDA78B09
BDE50ABF
BD1F8CE9
BD96C50B
BE3B1BF9
BDFAB0F1
BDA4E0AD
3CAFA681
BDA68BC1
3D998665
BE940BD9
BD8385DB
BE0C7B67
3E96AD49
3E40FA23
3E850B9F
BDA9198B
BE429CE3
BD405538
BC820EDE
BB156358
3D5A6AFB
3DAD6266
3E8B8335
3E0FAE5E
3DEB5B05
BE37D7A8
3C5FCAEC
3D91FC38
3E49D77E
3C9EED3B
BD9865EF
BE31C836
BE6EF5C4
BDE3D245
BE5CFF51
BE41DEE2
BCA774F9
3E1E49EE
3E32F888
3D23959C
3CBA9EAD
3E301D77
3DA08F27
3D0A4249
3B4BD8C2
BE2481A5
BE3D5FCF
BDFD09E1
BE3EE038
BCE20EE9
3D836EB6
BDBB75AE
3E0A1BF7
BDFB564D
3DAD3996
BCED8DC8
BD31AF45
3D66C1F1
BDADCA69
3B95449C
BDFFF7E0
BE109E4F
BD7BCDA6
3E3F8DB5
BDB6D8C7
BCDE4875
BE445D71
3D85A7E6
3E23C9DB
BCF461A1
BD7BDB8E
3C85AFF3
3E2FE627
3D1E49CA
3D88BC0C
3E9B1617
3D58B95D
3D1124C6
BDA7A270
3DD7C4A0
3D5C382D
BDC52B96
BCD10561
3C28D1D1
BEDFE470
3DC2D832
BDCF6131
BD9277DD
3DEF8917
BE058984
BDA3A348
BDD7199A
BDC87392
3E06E222
3DA2CCD3
3E2470D7
3C6660D2
3DB766C2
BDB0BF47
3DD058D0
3CEBFEBC
BE0B822F
BE3ACFB1
BDF365BE
3E7BFA10
3E5E2505
BE15DFB6
3DB9C730
BDC47BA8
BDD64C80
3D5FCC5E
3DE170BB
BD96C33C
BD414827
3D83C0E4
3D0CD81B
BDCC016F
3D084777
BD1A0BCD
B9FE836F
3E9EB61B
BDB93818
3E97845C
BDCE32E4
3C53C2F6
3CE87001
BE906643
BE803B9D
BD166CD9
3D10F9B0
BCE7D15B
3DCD7F2A
BE07CE31
BD8EC324
3C99BD20
BD8B5D94
3D3FCFC4
3E19E1A3
3D9248CC
3DC823A9
3D5AF39F
3DB3DE8A
BC1E0AE7
3DDF840F
3D0DAAAE
3D563B28
BE422821
3E9678BD
3D80B02C
BDF8840B
BC615052
3D67E25A
BD2121BE
3B56906C
3EABCCA9
BD3EAE8F
3E476478
3D4DB486
BE62AAA6
3DB0724E
3E8B4868
BD278959
BDC6C79D
3E4102DE
BDB41E4E
BC98BB78
3DF168A8
3CFD7A6F
BD6E079D
BCF28848
BE433149
BE214B8F
3E1B2D2C
3DAB83C6
3DD9EECC
3E23FF8B
3D65C978
3DA7665A
3CFFFB3D
3DE497C5
3D5446F2
3E4D6254
3DA9F8D9
3E5A179D
3DBD0EDA
3D59A51D
BE3E7AED
BDA76D90
BE6F9EF4
BE8664C6
BEA887CA
BEADE40D
BEDF8B7D
BEC757FE
BE8AF336
3E851F09
3C7C437D
3D002E10
3E2E3E58
BD8DBC26
BCB9376F
3D5184A2
3DC429A6
BCA576FD
3C35C8C4
BD9C92E0
BCD3DE09
3CB30AB4
BE0F5A24
3CF71302
3BD7A37C
3D1EB3BA
3D70CBBD
BDC0AF02
3D82C94E
3CF93C2C
3CCEB81F
BBF3283A
3E0CBB5E
BCF4FE0F
BD10C7FC
3CF182E5
BDB740EA
BD95A910
3DFAC952
3DCAB6B9
3E9857A6
BE20DA7F
3C1064DC
3DAC0523
BD6BAAB3
BD0519A5
3DC8DA52
BD1EC517
BDCC39B5
3DE74016
BD605555
3D854A7A
BD9B3D82
BCE6E28D
3D5C6E22
BDA2BFCA
3D952AA7
3E29FD08
BDA42C2E
BE396B4E
3DA445FD
BDD5875E
3DAE9C65
BDB04241
BD1B2BB8
BDA0BBF1
3E05163A
3CB85C73
BEAEE020
BB70CC4A
BD392E4F
BD032328
BE86C9C7
BC3307F5
BE728595
BD2BA779
3BB9F847
3DAD32EE
BD6F18CA
3D587CFC
3D961EE7
3E9AE236
BE35418F
BD5707EF
3D01F779
BBA21F7C
BCC81E3C
BDF4E7EF
3DDB4FE8
3DB32782
3D62AF8A
3E86A356
BDC45555
3D210264
3D5A3253
3CE88D42
BD991903
3D32B511
BCA2192F
BCE65FF1
3BC4306B
BDBB04C9
BCAFD713
3D68F1AE
3DEB1F0B
BE029C7E
BE0FCE5A
BE23C34D
3E335943
BDBB371A
BE123CEA
3E241FDD
BDD7AC4C
BE12A1C3
BE65BA62
3DAA6D59
BDD975E5
3CC1D537
3D63789B
BCEDADC3
3D4EA6B2
3DCBD23B
3B0C4E60
BE392875
BB9A0BF2
3CA3BE40
3D2AE07C
3E848FC3
BCD9C645
BD0F02ED
BDD1F8A1
BDBE7A4F
BD8BCEC6
3BB72B49
BDE75E63
3D93971A
BCC21A11
3CB34CDE
BCBB1428
BBC82F91
3C92BFE6
BDFAF8FA
BECCFCAE
BEAE2A65
BF0620B9
BF02E8B5
BF2598C6
BF3522D4
BF225102
BF12797C
BF01FE80
BE7AC5DC
BE5260EF
BD3FA66E
BDB30DC1
BC51F022
3C881E87
BDA209E7
BE0EE045
3D71D08D
BDEA776D
BE3D8326
BE015BDD
3D3B3BD6
3E82F7EE
3C282C9A
39A13C31
BD493E80
BE44CED2
BD56B6F1
BBBEEFA8
BD2B1916
BD6D297C
BCF38FBF
3CD3FCBC
3D192C11
3DBD17F5
BCC35CF2
3DCF14F6
BE616B7D
3D51C6BA
3E0630FA
BD173975
3CE681F5
3D8B7EB3
3DF43010
3DE2FB35
BE04294D
BD7D0A8D
BE0E068F
BD11F4C7
BD0FAA88
BC4DF830
BE09F502
3D81D320
BE03AAD1
3DCA9C39
3DC7E7C8
3C8F6A41
BD6FBC10
BBA568FD
3E15D4E9
BDC7D63C
BD6854C6
BDB220FD
3C9661A1
BDCADA30
3D77D605
3E21BF4C
BD0C0448
BDAFD7FF
3D55DF32
3D2EA89D
BDE5E1EA
BC8622EF
BD2333DF
BC2E4751
BD726644
3DD79CF0
BCA03316
3BA6A785
3D868DE4
BDF79DAB
3D31ACD9
3D292EAD
3DA4F0AF
3CC80AB1
3DF2F710
3E204216
BE226A15
3CC197F0
3DD9141E
3CBCA014
3D159360
3DD33C02
BBA458B6
BD1D3697
3C4C424E
3CF5308E
3CCE0E5B
BD172B20
BDAE29AF
3D4A2E5D
3D223CA3
BB0A8F2E
BD33FC59
BD435A15
BD57E257
3D1E7010
BE480C16
BE4BB71C
BDE43534
BD8111A7
BDCA0581
BDA2BC60
BD12D29E
BE2FE51B
3CF1913D
3DE556B7
3D566C03
BD667014
3D14E639
BD0FBE7C
3D618CA2
BD9C9D70
3DD1A2E8
BDAC6D15
BD906948
3DD84BA1
BE0DB42B
3BC27724
BC3FEED8
3DC722E7
3E1C2C1B
3D31157F
BBFA23EF
BD77DDD5
BE444567
3D57E999
3E351612
3D8CB2ED
3D5CE533
BD3E28D0
BDC87877
3B8C25B7
3D9CCB98
3B83FB5C
BC3301C0
BDCE60D1
BD9F0DF2
BCB8137D
3CC5CF9D
BD7FD0E3
3E373252
BCF05716
BBB25A8A
BC31B956
BDDB5BA6
3E2FAB2C
3E2055E1
3E179E3F
3D3FE114
3E05926E
3DB57610
3D4FD9F2
BD6B0331
BD21B56D
3DDA6CA0
3E818EDA
3E9B0589
3DEA6076
BD09874B
BDE659DF
BE1B16E3
BCC43B84
BD1A22D1
3BB8EA71
BCC2792C
3E277730
3E7AA2DD
3E7E1713
3E019B83
BD7874F7
3E22D59D
3C57F6E2
3D8D2A13
BDDD5F14
BE0C12FE
3DB2542B
BD994C5B
3DB9DA49
3CA772EB
BC4B0252
3E8E6A58
BDAB3D93
3DC50E1E
BDA09FC7
3CF78766
BDD0B326
3BE3A6F5
BDBC9F10
3DD64A4C
BD9A0E58
BDC368D3
BDB08C57
3D8E121F
BD5BBA6B
3CB76212
3E3DAE96
3B803CA6
3D6E53C0
3E1E42C0
3D507D94
3C289535
BE42F8D9
3DB5067A
3C6FB20A
3DA588B0
3DEE1B16
BE5C43AC
3D227A89
BD9C5080
BDC1C311
BAECC848
BC817672
3DA86B2D
BDC8DE53
BDEC9B84
BD4F3BDD
BDE48479
BC93E57B
3DBCB92A
3DD780D5
BE0744C0
3D0868EA
3E7F0A15
BB1723D5
BCEAF8FD
BE37156F
BD4AC1F6
BDCA46FA
3DB434E7
3DAA8027
3C9F648F
BD1A95FE
3B91CAFF
3E3A7F36
3CBD7A0E
BE33AD41
3E5A6E7D
BD962AB2
BD3BA7E4
3B86A36E
BD1CA382
3CA72625
BC476321
BDE635CC
3DFCA644
3DFFAE51
3D47E05C
BE322DEC
BCCC1623
3D5AF285
3E5A1A1A
3CD728F7
3D98D4E8
3D555816
BC9060EB
BE431551
BCC8B5AC
BDD07802
BD9D4242
BE1B4550
3E8AA176
BE367063
3DD937C5
3D5F0C17
BDB8A5D2
BDD826AB
3D31E7AC
BE19FE87
3E34A496
3D3D9A98
BD6F8AF0
3CD5F845
BC6A0E3C
3D388349
3DFC7F4F
BE2FB070
BE456975
BE615238
3E57FA5D
3E0BFA2B
3DB7E5F1
BE173AE5
BCE0479E
3B34CD38
3D2A3652
3DB419D6
3D62E8F6
3E3F8437
BC26834C
BDC5D0AA
3D24090F
BD9EF833
3D72F75E
BCE47D08
B95B4DB1
3BD019E5
3CDC679A
3E15FA87
3E2784A9
3E0B9475
BCF4DFFC
BD010752
3E050ED6
BDC8AA12
BD2D056C
BDDDC868
3D307942
BDAD364D
3D4D8993
BCE01D7C
BDC181C3
BD98258B
BDE85257
BDB44688
3E7A551D
3EB10046
3EB5927F
3E673A94
3D935B83
3D99F4E0
BCBE98E8
BCA11A21
BE15C7E8
BE175474
BE343C92
3C1BD79B
3D99A677
3DC074B4
BD8CB68D
3D666306
3DEF5EC8
BD8BBC96
BBA65B2D
BCA6D3DF
BD54C242
BDEFFA56
3D940E16
3D77CC9D
BE7A0D64
3DDC11E4
BD240BC9
BE27DB3F
BD8B3621
3DD57BFE
BDBEEFD8
BE4C9936
3D190786
3DB4A892
3D87A60E
3D6F198B
3DB43F98
BDEB36A2
3C47E775
BD8E8BE8
BE5AF592
BD9C1365
3D9D24B6
3E88FB3D
3E263C4D
BE1D68A5
3DBADB14
BD2DF767
BD547CC7
3D43C8D0
3E340698
BDB93450
BE05BFAD
3CD56DBB
BD5BFB0E
3C76FC2B
3E05DC1E
BCEC37D1
3D73D49E
BE03743D
BE966744
BD2AA921
BB41FCF6
3C024A16
3DA5248B
3AD049FC
3D1B13C2
BDB56970
3DED755C
BC0A9217
BBDB7131
BD1CEA9F
3DE859C9
BE32DF3C
BE041BE8
BD1C3B5D
BC2378B6
BC0709E2
3DA85960
3D6EFD4C
BE3D4E9D
BC6CA03C
BDFF73C1
3C877D7D
3CCB8179
BCE53122
3CACA153
BD79F81C
3D997DB3
3D86A344
3C7150D0
BDFD3A7B
BE69C4C0
3C38F2B0
BDCC7AA6
3E46800A
BE50A2DF
BE7B6B1E
BD1FDC71
BE41E9C3
3D456811
3C14BA1C
3C87DE7B
BBACF462
BD823EC4
3C1C49C9
3E2A49BC
BD400F0F
3E111C7B
BE932B59
BDC6BBF8
3D1AE175
3CA26256
3E4B7D70
3D7FB906
BADF4234
BE2EF848
BDC5CEEE
BD3B4937
3A0091A8
3C5DE111
3B14727A
3D1E5DB6
BDAF8851
3D8E07DE
BDC8BF31
BE2B6D5F
3D0340A2
BD4F538A
3DD89177
BE914966
BD962ABA
BDA8DECC
B99776FE
3DF676DD
BD80D8B7
3D9B69AC
3DFC4736
3E0AAB69
BC9FB6DF
BE9F1D53
BE7FD6E5
BE0731FB
BCD46CFF
BDEFB2E1
BE20631E
BE53172D
BDF48055
BC7A6CF9
BD14B34E
BE129274
BE5DB74A
BE004190
BDACE840
BCA72A16
BBEE1D2C
BDB09362
BD1661B1
3D31B1B6
BBC61B65
BCBA795E
BD25819F
3D44B7BB
3D00A59D
BDE5B490
3D1F4215
BDAFAFEC
3D06D313
3DAB835E
3D9F55BB
BD859130
BE4DF414
BDB6B35A
3D8C3E2B
3DBFB24C
3D3D1E8F
BE7CF07A
3D3B9768
BDD068C1
3CB716B8
3D26CED7
BE109459
3DA29609
3D34BF52
3DF45712
BD40F53E
BD4DD627
BDCB2531
BC4EC0CE
3E4FF4FD
3E005887
3D5C165C
3DBF16C8
BE6D84BF
BDC5DC8B
3BAB9556
BE706192
3E4FE31D
BE0C9943
3E01F08E
3E186093
BD108310
BE076EE7
BD6E0475
3E10AB2E
BDADF859
3E6A72A1
3DCC4FAF
3D2363F3
3CFB76E4
3D7B7138
3D2AF277
3D217AB4
3CC9AF06
BE8C451A
3D0F5599
BE0D34CB
BE327C8A
3E0B959C
3DDF52FC
BCD5584C
BE27D4D3
3D6AB233
3E365BB4
3D84BE2F
3E1E52B7
BD33741B
3D05895A
BCB66949
BE7484B6
3D88E7C2
BE890F08
BC607F31
BDD8A449
BE30573E
3E58AAD0
BD1A7F9B
3E151132
BD993831
BEC14753
3C5058E9
BDD4ECF7
BDC92357
BE1596B4
BD9ABA03
3E030AE2
BCB73EDC
BD3BB372
3C89E9F4
BDDD11D9
BDAA1768
3E305E52
3DF391AD
3E674BFC
3C930B80
BCD63048
BDBF7820
3E05E5F3
BCBD1F76
3E440379
3E8F7186
3D8948D4
3C8D8407
BD031056
BE77911D
BDF18D5C
BDC5D781
3DC716FA
3E01B676
3DBB21C0
3DC157F3
BE9F4961
3D03EDB6
BE17D277
3E57A0CA
3D1BAFEF
BE5B0532
3E29C2EA
3E163D7B
BC08E5A3
BCDD52D2
3CD3B381
BE0F9FC4
3E1A5A6F
3DFE65A4
BE0420A0
BDD59F61
3D843E11
BD923003
BE4E1C15
3C698722
BC5CEFDB
3DDF3692
3D33F2BE
3C5AE3BC
3D56FABB
BE15AB77
BD29808D
BC2AF166
BDCE9608
BD1CCE2A
3D504578
BD0DFFDB
3D2D24D1
3DE367BC
3CF68395
3DBA74E4
BD945410
BE8A81B7
BEBA5BE3
BE69F4DA
BE7B5D39
BEC94C0F
BEDBDFAA
BED6BFEC
BE22A249
3BCA365A
BDC4C644
BE14F631
3CB86A90
3DBA3CF0
3E919EFD
3E442792
BD4DFA3C
BD89E2AE
3D81B1E5
3C5E9B6C
3E69499F
BC920A79
3D8C0521
3DCDFAAF
3C339A4C
BDE6402E
BD2BE335
3D6AFF90
BDE5276C
BD427D33
3E1FF3EA
3CA41B4D
BCBE5119
3D3107A5
BDD66E44
3DA76022
3D739B93
3D13ABCC
3E059437
BCAB20CB
BD840892
BDD67614
BE7CA09A
BB7CDDD9
3D2244A6
BDCA624D
3C9B0F30
BD3F5474
BE0B5A6B
3CCD3FAF
3E091E3C
BD85453D
BD8D4A09
3DCFB423
3DB92619
3D32854B
3D8C8445
3D93C8E2
BDFE21BF
BD547CCF
B8BDD719
3DB817EA
3D91E573
3DCCA2C5
BD568784
3E21B520
3D66FC91
3D7C4860
BC691171
3D0FB93E
3CDC8DD5
3D9EE751
3D60E68D
3DD7ED85
3D07C185
BD4CDE07
BE0976DE
BD90BF94
BD0838EF
3D991B80
3DF5F9B7
39C65996
3D236215
BD0BDF9D
3CE4B96D
3DA97C35
3D15EAE6
3CE8D734
BEA05B04
BCF7503E
3EC95C7F
BCA5C343
BD6AAA2B
BCAD6CA5
3DFA360C
BD1A25C3
3D0E982C
3DF94FE3
BD0035D8
3E4CB967
3DC153A0
3E2B8815
3DF6EF4B
BD6A3111
3E07C78F
3DC4F24D
3D3A49EE
BD5B8D0C
3CF093E1
3D8CEBA2
BD17DBB4
3E2277ED
3CCC9C25
3DD3C23A
3E0D34FA
3CCB1694
3DBB19A8
3C488C8C
BE1E1042
3C96C4F9
BDF98718
BDA88F48
3CF70BD5
3DA711F4
3DF41398
BE7CCB26
3DD1B60B
BDAD1D96
3E42A49F
3B3391E4
3D40C5B6
BD16838D
3DA7BCB8
3D4579CF
3DD2A943
BDD8AFAA
BD8E9887
BDBC968C
BC7F9227
3DB656DB
BD586CFF
BCBC7BD2
3DC3F652
3BF18C4C
3E6AEF26
3E4FC789
3E272E85
3DA45DCE
BD71B036
3E8791B1
3E68FE70
3DA1C670
3DD37D20
3DB060CB
BD24361D
BC6954E3
3E34C9DD
BDC53D48
3D2D2F0D
3D046C7C
3E114EE4
3E1AA194
3E6660C4
3DD964DB
3DD3B8A2
3DA3E562
3E2087DF
3DECBB3D
3B988172
BDF3DE03
3E4A44BA
3D4E2689
BE1B7D34
3DF4D1CF
BD713E31
BDA7C585
BD8BFDAF
BD9F12E0
3B7320D6
BD13C9EF
BDABB65A
3DAAE9C1
3D56EA78
BCC00188
3D2A8ED5
BC81D90E
3D9B2EA8
3B6E870B
3D981812
3E4BA5E3
BD576C2D
3D90C96E
BD2AEFFE
BD80E6A6
3CFBCB07
BCE07E70
BE8AED67
3CC478AB
3E186F05
3D332049
3D504F5E
BC558909
BC384C37
3DDD3ACC
BD06CA5C
3DDBE0EC
BC1E1817
3E852A15
3D1A4BA9
3D49A7FF
BDE7DA11
BD888465
3C7B51A5
3D593411
BC23B8D0
3D9B1C3A
BE13B1E5
3DB80253
3C838383
3D502B13
3E171C0A
3D81965F
BE10CCF2
3D9F3EC2
3C868C7C
BCCC3634
3DF3CA82
3D82A596
BE42550F
3A04AFA6
3C8D49C5
3D9AED80
3D90AAB3
BE389EA6
3C8D9DF8
3C8C4FEA
3D39A5BE
38B12DA0
BE4AE2CD
BD1037C6
BD19C965
3D7611B5
3C94CD6D
BBB541CE
3DB4E6EA
3D904BA0
BD7726EE
BCFC8EC7
BB6698F3
BD8FFE53
BD854A61
BDACB37E
3E10BEA2
BD47A746
BC42B2B8
3C12987A
BDDEF813
BDB437F4
BCA399BE
BE73D274
BD218AB7
BC3FFD26
BD11DD60
BA725785
BD343B10
3DB7EE64
3CBA741A
BCF1086B
BDE9DAED
BAF2B821
3DBEF252
3E03FEE3
BDA624F9
3CDA44F5
3D8DD811
3C89DAD0
3DA4F43D
3E2DBE0D
3C817602
3D6EF310
3CED836C
3DDCB3E5
3D48C404
BD1331C6
3CA78783
3CC1DF63
3E73D281
3E0DA8F3
BCA4B231
BCE27A4E
3DC0F63A
BD692F8F
3DB6D966
BCD2AB38
BDF7C3AE
3E513B77
BDE58A4E
BA56DC5F
3D3EB621
3E017F9F
BE44A1A7
BD4AE206
3991ED06
3DFDF15A
B99BC827
BE0736C1
BD207B28
BE121335
BE099A70
BE7CB8B2
BDC3CB7B
BDC34664
3B88E209
3E7E8526
3E6BBCCD
3DF4E8E0
3D7020D5
BC92E037
BE08739B
BE0D500E
BE171788
BD7DC5AE
3BBAD155
BCCD01A1
BD70039B
BDAF9A96
BC9F615A
3D30BFF4
3D5AB84B
3E02405A
3C2A091E
BDA4CAC8
3AD20195
3C192D5E
3D5E0C38
BE1948D5
BDF10A8C
BDD673AA
3D4FACD4
BC669B75
3C394BDC
3E23497B
3D9D0FDD
3E3D7724
3B23C12E
3E1389EB
3C88414D
3D9A12C7
3E19488C
BD8464E2
BDD95AA2
3D153C4A
BD002F98
BDAABFAE
3C37B9D6
BC0C25BD
BD450D8E
3D15F331
BD7A9341
BDD68082
3B8E819F
BD8F3827
3DAA8D10
BC84DC48
3E3D6324
BC653010
BD0502D4
3D3EBCC4
BA43BA56
BBB5F8E7
3DB719BC
3D911A4A
3DF8BB40
3CB09152
BC328107
BDFC7509
3DF6E603
3DF39D5E
BD819D15
3BCF7734
BD1B34B7
3DE14ECF
BEAFE572
3E173B72
3CA8CCE8
3D5835BC
BDC3BCEE
3D85078F
3D27F5B5
BE670A5F
BDE89CBC
3DFD2D02
BD9A45E8
BD988B11
BD6D93BF
3DFA4FF3
BE0F1D38
3CF705FC
BDB0C4B0
BC899BAA
BC0F0D97
BD3B92FE
3E0F9599
3E23A3A9
BDFC94B4
3D06782C
BC0AC8E2
BD9A6089
3E645020
BDBDD915
BD4D7A4F
BBE69DF3
3DBE6994
3C68A3AD
3D2260A5
3DA0E016
BE1884AC
3D18089D
BE1708D3
BD8C532C
BE0A78D8
BB8C2A14
BE4CCF65
BE822CB4
3E18AE90
3E066EC3
3D4E7D54
3DC6393E
3D1E9CDC
3DFF440B
BDDE0B5B
3D40E88B
3E7A324D
3C812148
BE79DFC7
3C187A1B
BD85AF9F
BD9387B2
BB4EA979
BD030DA7
3D632AF8
BD96D07C
3D793DC4
BCE40F5F
3C5B9649
3E15112B
BD40BA07
3DF25EB5
3DFB92CE
BD9ACAED
BC2843AB
3D63E024
BE1F6D76
3C96C102
3DBEDFC4
BD6AD696
BC0E71A9
BD9B8082
BDABDDF6
3E18036F
3E1EFDD0
3D9AD021
3D17B3DE
3CA52A87
3E498F89
3E9EC736
3EB3A9C5
3EB1FD0B
3E9F9CDB
BCB867C0
BE5FFC8A
BE7076BA
BE2B3E43
BE67F8B0
BE20D901
BE4F0CC2
BDDF35C8
BE1E1C37
BD3E90E7
BDD28771
BE6C7DEC
3C676493
BE199AB3
3CF6EE29
3E429033
BCBEC7C1
3D858F29
3B78FCCE
BE076A8D
BE708B8A
3D82277D
3D1D8801
3DCC0164
3DEFD885
3E1F0BBC
BD7EDB78
3D8941A1
3C638A7E
BCC73605
3DACA752
BD79733C
3DEB5CCD
3E678F26
3DBDDCDA
BD181DC6
BB264071
BE3C6BE3
3DC43953
BD42A07E
BBFD8323
BCD10FCD
3E19DA74
BC38B299
3DB4B400
3C8D1527
3E42025A
BDAD2D11
BDE4D55F
BEAC3EAE
BD0E0A37
3E209A17
3E468471
BD820ACF
3D77C2BA
3D1FA4A3
3DCDF414
BE201AA9
BD23E94C
3CA5FC29
BDB76EAE
BDEB1CF2
BCB150A0
3BE564FF
BD8BC238
BDCCE7C0
BD6FF0AE
BE82AD59
BD14BAB8
BE0041F5
BD8F7DFF
BE2FB077
BE479B99
3E1EA3D9
BAE9BDA7
BD6F8DBF
BDBF3B15
BDDE6D74
3CDFA05F
3E2C13E2
3E5170F8
BD2EB6E8
3E0F8367
3DB3E777
BC48D86C
3C0C0CA9
BE01E357
3E65F4FF
BD3615CC
BE59AD35
BCB38AED
3E19CABA
BD0FA130
3DBF838F
BCF26DFC
BD8E7739
BD8300BF
BD3A6A95
BD7E275D
BBBE8D9C
BD55A2CF
3E1FEE04
3DAAADDD
3E1589F0
39033192
BD8ADD11
3D3EA4CE
BCDF54BF
3B70D969
BDE6FC9C
BDC6A510
3E3621F4
3E41D80B
BD32A5BD
BC6BD048
3CB23FEE
BE51D812
3DE1AD57
BD29B58B
3DC77879
BD233806
3D5C1F0D
3D98E2AE
BC7CF5F5
BE42D5DA
BE6BFE05
BE3B0F28
BE4D6268
BD0ADDED
3D8ECEBC
3D8F1AAF
3E1E368F
BE062EEE
BE1CD1B4
3CAB12EE
3DB64167
BCE55FA0
BDB8C82E
3CB93CFD
3CAD207A
BC6050C3
BBEBDD33
3CE3CBF2
BDF49716
BE2879FA
BE50BD74
BDB27445
3EBFD355
3E80C7F0
3E1B6F4F
3E155992
3E69FE5E
3E88BAC4
3E3C45AA
BCB328AC
BE36E434
BE37481B
BE021504
3DB877DC
3DBE743C
3D0B28F6
BE605575
BE33CCB6
BDC81895
3CC5FDA6
3DAB4429
3CB8380B
BE49E3DE
BD9820EA
BE2F05AE
3DFE7AD2
BD8B9D04
3CBA7E00
3CA3E664
3DEBEEEC
3DE88E87
BD88A533
BDC752F5
BD968493
BCF4C9BC
3D22C349
3D013770
3E5DF5BB
3BC7B51E
BD27EBF2
3CA16DCE
BD6EF8EF
BDBC19AF
BEADF4B2
3D5CCCC7
BD0F7566
BE09F857
BD3BE9B3
3DF2848F
3DC91E86
3E0014A1
BD4E09CC
BDC465FD
BC8492E7
BD84DF1A
BDCC0F6D
BD5720D9
BC050B35
BDCB7FF6
3D6A965C
3E87744A
BDF2DE01
3DEFE47A
3DFADA77
3E0ECE79
BD90EE27
BD9765A0
BC2257B7
BD78810B
BDA76CDE
3D53BBA4
BE2264D7
3E45E6CA
3DEF5566
BDC157FF
3D72550A
3E23F07F
3D690C91
BDDAC38E
BC792E95
3E1E09F8
3E1FC994
3DDE2301
3CD3A7FE
BC1808C5
3DB62417
3C690FE4
3E4C67D2
BE0AD447
BD588CB7
3DB875C9
BDEED0A6
3E322C23
3CC0FD16
3B311AA2
BC894549
BD4B3B32
BBE5B3A6
BEAA304E
3C662914
3DE9B406
3C8499DE
3B9BB1AD
BD6B4558
BDC8B7C1
3DA206DF
3DF2F937
3D5CC3A8
3D9E781F
3E26AF04
3E577A77
3CE098ED
3C064769
3CD49AF7
BCDD15C5
3DA37A28
3E2C545F
3DCEBCEF
3B9E16CE
3E15F253
BD3A24FF
3E5891B3
3DEB94A4
3B0D0906
3C815F41
3A6E73D2
BC63A33E
3DFB2EFB
3D05E14B
3E58F536
BD8E0173
BD27FFAE
3D7A0024
BD76B622
BCB80F66
BDE5BA47
BD9C7CEB
BCEC70FD
3DFD293B
3C945CDF
BE286F2D
BDD20E48
3E006F70
3DB25480
3DB99F26
3DAF772F
BC3B4591
BD5CC1FB
3D102227
3CDC1B8A
BCDE1819
3D1AAC71
3DBA4FBB
BDA72016
3E23AF17
3C89A6AD
3CFF46E2
BD8A25F0
3E465ED3
3DF7A4F5
3E0BA9E6
3E190C1F
3B6FFC97
BD5D7158
BE1F6457
BEA8F030
BEED50E2
BE81B7E1
BDEC87C0
3CB2A48D
3D86E086
BDD987EE
BE073F02
BD9CFB96
BCBB7C02
3D614F43
BD5FDD33
BDCB304D
BD11520D
3D35788D
BE035E6D
BE886D9A
3E5B3E6B
3E459E3A
3CCC0C2D
3D8EC366
BE077828
BE992811
BCDE0F0F
3E2A65B5
3B433830
BD9D5915
3E2D3A96
BC87FB57
3D689352
3CC70CCA
BD2FF1B8
3E561276
BD1135BD
BDCDA66F
3DC75C67
3DDC65E2
BE2CAEF1
BDB891AF
BE053B73
3DD3DC13
BDBAA91E
3CFB026A
3E265F74
BDD1EC26
3DBF48A5
39EBC71C
BD91843C
3CEE3B3C
BDA80FC1
3D71ACF6
BE9F29D7
3D388085
3D2E18E0
BD4744A0
BDC03DB9
BE0B8455
3CCC8E08
BD738E25
BE115C6A
BD42F347
BD1C2110
3E2CC2EB
BE4C599D
BE80D4E0
3D6D97C6
BD5AF244
3D2C5271
BD1790C3
3BE76DC3
BE364474
BD17DA52
BE057009
BD841DA1
3DAF0E8B
3D9F1FF9
3DCAAD15
3D992BB7
3E0EDA37
3E26DC28
BD2C9590
3D5E48E3
3DF795CE
BD9C5B88
BD483C57
3CF895F4
BC11A213
3BCA00B3
3CC95E83
3E13F7CF
3E8833F5
BE8EA7F3
BC8E5A4B
3E2846F6
3DC28349
BD78089D
3E0618BA
BDDC73C7
BD0F1EC4
3DC7F16D
BE5C9DD3
3CA078D7
BDBF322F
BDB1A29F
BD7F3669
BE1200E2
3B35C78D
BD8A82FE
BD1F3C2B
BE843295
BD5F29A9
3D9935A5
BAAA9DBD
BE332FBD
BB716F03
BE290B05
3D90179D
3DEB6F42
BDC1D375
3BEF10CB
BDCC4234
3D2016B1
3CC9CBC1
3DDDEC0F
BDDA9725
BE0D8736
BD168BB5
BB80CB6A
BD9F6657
BE93997A
3E853272
3DA2C474
3D50BC71
3E079223
BDE4D694
BD320830
BDF73223
BCD7C38B
3D3C0585
BE43241A
BD18B97D
3D71424D
BCC03B39
3D8997E9
3BAC1A00
BEAB61B1
BDA0B753
3D95F0A6
BD665402
BD790B09
3E24E3E5
3E052BC6
3DABBFF1
3CCE6A06
BC6DD24B
3D3E3D05
BE190815
BE3509F5
BE77FBB3
BE32DDAA
3DCA48D0
3E83FE13
3E469F42
3D83E7A8
3DB49904
BB14E70B
BE0B4EC7
BE27FBDC
BE49980E
BE62BE2E
BE1BD2B7
BE6CEB9A
BD2E5BEE
3DD0CDAE
BDC166E8
BDB02B40
3E01A367
3C240A61
BCE379A2
BD87B627
3D3C5658
BD83B64A
3D9556F3
3B88FC66
BE5C63FF
3E46E6E7
3D09AACC
BDF10632
BD960B0A
BC925FAE
3C76EC7B
3D1F7B4D
3B0B64BC
BD6B04AB
BADC3B91
BDAF7589
3E18C52F
BE405A56
BD2E2140
BD169393
3D1343A4
3C8AFABB
3D2ACC2F
BD631602
3D9C488C
BE3BEA5C
BE15B50F
BD977611
BE15FB50
BE2BD2C4
3E418626
BD57C2D2
BC82B054
3CE534F3
3DB8C122
3D63F4BF
3C90B9DC
3E09C0A2
BCC4C6AE
3DBD9504
3D8D9CA6
3D98C205
3D2A11F2
BD9BB87D
BD87936E
BB9B46E1
3DF2D06D
3DA43C85
BB21F27F
3DEAB98A
BE71FBE7
3B6EE6CA
3D32CEDF
3D94A674
3C973617
BD172FF0
3CC34A83
3DA08AA9
3D9DAD6E
3DBFF854
BCAA9B95
BE00FC5E
3C019C14
3DDFF2A1
BE051450
BE680757
3E63C4C5
BBAF4238
3CFB5ABF
3D8E4BBD
3D6AB200
BDE16FD7
3C3B3A08
BD880948
3DB7DBCC
3C9AE3F7
BE324E96
3D585417
3D01C374
3DAD9F73
3E47778E
3DE73421
BD7C8D0C
BC266AAE
BE6E826C
3E5882A7
3DC5FB34
BE090D39
3E3A2E0D
BD973FF5
3D0A7F70
3CFAEA06
BDF84571
3DE7B726
BD048D56
3C1A0B6D
3D0F37F9
BC146298
3D7F88FF
3E57776C
3D5265C9
3E19B124
BE178408
3D1C6CD3
3C80DCCA
3DCF38EE
BE362CF0
BE10A83E
3CF477CC
BE0B30B6
3D9BDFD9
BE5FD842
BDD8C0A6
3C5D5DA9
BDB3AEB0
3E1DBB38
BD33B717
3E6D4CFD
3C277B9A
BBD6C977
BE189C79
3D3E9188
BCD3633A
3CC8B0DE
3E7DFBE4
BCC74D77
BCDA7039
BBDBA79E
BDA7880B
BD955E93
BDD812E7
BD944E41
3E147BE0
3E1D5AC0
3D861CE5
BCBA8E16
BE0FF829
BDD8DDBF
BE1ABDFF
BE0FE854
BCB987AB
BDB1C749
BD4AC7CA
3C91010A
3C9F04C3
3E6A8FC1
3EA20BAF
3E2EED0A
3D4AF65E
3DF94E93
BC175171
BD838D05
BDD1F4B2
3E6B8257
BCCB3C39
3D938B15
BD870F86
BD844E24
BD5C54E5
3B7F370B
BE3B2DBF
3D3342DE
BE0B04B9
BD1EACEF
3CD3325C
BD0539F9
BD87E300
3E201267
3E08F401
3E1116B6
3DE9ABF3
3D8DCE09
BD4FC837
BC8A9A28
BCBCDCEB
BD533704
3C9FBF38
3E514A5B
3DA98D26
3A35673D
BDE02836
3DC4E949
3D4698F1
BD195219
BD39E7E3
3CBB0D37
3D657123
BC91972C
BD7333A1
BDF3CA75
3E3CD3AB
BCD3F139
3E0F8AF4
3D0280D9
BDC6EF2A
3CC2354A
3D9E251B
BD093F82
3C68AD28
BDD98D62
3D9C9BF1
3D355653
BD9BDBC8
3DA6FB50
BD9E748E
BD5F8D24
3D4F7AAF
3DD4285B
BE21B14C
BD862B88
BDF3D641
3C94D24A
BD8FF737
BE03672F
BDE1F510
BC852869
BD6AD8CF
3E2AFE9D
3CAFF343
BDA48A37
3E2AC8E0
BE043EAA
BDB6C0B1
BDA35A3E
3DA4DACF
3BF592EC
3E10E95C
3E4A28F1
3DF42AAA
3D85592E
3D59866F
3E6445E0
BD8C7ACE
3D3E2829
BD99E320
BCCD26E5
BD82777F
BDC14419
3DECC7FA
3CA068D6
BCBE6F57
3D3EB8CB
BE1AA73E
BD2CE48A
BD7B25C9
BDA6A555
BD4772AB
3E5B6065
BDD577B1
3D4AF66B
3D0A3D96
3D74F8BB
BDFA7887
3CADADE9
3DA95F9E
3D2B6AA2
3E28BA7D
3E34693D
3C7D51A5
BD4E7990
BEB96CBC
3D3979F7
BE3BC87E
3D7369A7
BD8AE8C8
3D6FB1EA
3E1E79C6
BD1566EA
3D7CAA78
BCB6A45C
BD72A9FC
BE1037D6
BCBBBD05
3D4A5DEF
3D59F9F4
BDDAB3D3
3E910650
BE00E98B
BDAA9B93
3CD4866A
BE1B640A
BD0D641F
BD7917C9
BD4B519D
BD635DE9
BD823AEB
BE660F3D
BE30FC7F
BEA375B1
BE96770F
BE083C44
3CA5BD1E
3DB5703C
3DB51B36
3DBECE30
3E4D11F4
3D6C4461
3D21652D
3D89A36E
BCEA8301
BD04D9FA
BD58EB21
3C9A96FA
BE60B066
BE8E5E72
3D3A145B
3BCBADDE
BE1726A8
BD84CA66
3DC75D5E
BDA36703
BD977042
3C9673D5
3D538E75
BD04E562
3D94195F
BCD2CF35
3D1457AE
3CC32E3E
3DAE7894
BDF7C010
3DD4E7EF
3DBE4799
3DB2047D
3DAC8013
3D4CA770
3DB562E5
BE32C669
3DBD2B0C
3DB312EF
BC5EE533
3D3DD563
3D793BFE
BD0F61A8
BD7BEEBC
BE980E61
3E063E15
BC1894DE
BE0B4579
BDB54501
3DD0917D
3D2E2D95
3E0A58C1
3DF8C85B
3C8FDD1D
3D994C1C
BD888A6E
3DE05002
BD5A04A3
3CE0E78C
BE30D5AC
3D5161B2
BDC9970F
3E135FB0
3AA1AD20
BD798410
BDE4058B
BD87A6A5
3B5DDC83
3DD23798
BD83EABD
BE3ACAB6
BD2E9D82
3E0F61C5
3DC5AA03
BCA503D6
3D06ED88
3E3205A8
3D58AAFF
3E0A373A
3DDFAC53
BC435D58
3DA8D30B
BCB6CEA9
BDC66F0D
BD5FF9EB
BE577B1F
3B8388B6
3E50A3DE
BB05E7CC
3CDC3850
3DE9FE5E
3E26F424
BD26C34E
3CD842A7
BD4F7338
BD6050B8
3DAD092B
BE70F451
BD77BA2E
BD68B249
3D5EF4BD
BCDB7B26
BE233AB3
BD514976
BDC6BF01
3E277355
3DE5C4B6
BDE8C310
BD0F9B97
3DE7F71D
3DC4547F
3E665FCB
BE18316A
3E08B5BF
3DA29475
BD7C1173
3D90A1DD
3D8BFD09
3DE2D037
3DA1FECC
3D195053
BDD7788D
3D730C6A
BBFAFD05
3CC84A1C
BE04B550
BE16700C
BD327F2E
3D64115F
BDA74E44
BDE4EC20
BE79543D
BDCC7130
3E66A551
BDBF4AD5
BD10FA51
BDE53170
BD12A696
3D2C76FC
3C1EF364
BDA99981
BE09C293
3BF9BDFA
BD830E3E
3B34B753
BD366E41
BD7851E9
BE7198AF
BE8BAE54
BEA7C0E0
BE3904FE
3D40E104
3D799A23
BD43C5F0
BE00EDA9
3D610CFE
3DB4F557
BE3326D4
BE6278A2
BE6085BF
3C72E317
BD8D5FA7
BC992048
3E2EE873
3D48A01A
3E6DD0A3
3E11C01C
3D70E92F
3E80ACBA
3E5808FE
BC9A8166
BB4A04A4
3E28616A
3CFA2642
BDC55FEE
3DB6B4B5
3CC7B429
3D94C893
BDC5EDED
BD01A549
3AC31058
BE4FD3CD
BDC09792
3E690709
3E224F8E
3E18A46B
3DCE024A
3D3B28E0
BE3C52EE
3D489601
3D0B3B55
BDE93A71
3D094086
3A80903F
BE7E3107
BE2F3F10
BE1607EC
3DBB06DC
3A43A240
BC89ECC3
BD76E64E
BDF0DC41
BD94A24E
3E2DA18E
3DBBB8C5
BD40FCF3
3CABEE05
BDFDBBE0
BCF3EE64
BDE1E7BF
3E0B7217
3D379F03
3E0C1136
3DDA12EC
3D1D00BF
3E9B8DE0
BD5F8B2B
3D937406
3E2996B7
BCA780F3
3DE470F9
3D86C654
3D1E6383
3D15AC88
3CD13A0A
3DD31E12
3C1D1AFF
3D8F0BBF
BE4AE0D6
3D110D54
BDFFB8F5
BDBED28B
3D36EDE0
3D88F25B
BDB28E22
BDAB68D0
BDF5F3B0
BC0FEC17
BC776F58
3CBDE259
BD16115A
3DDC607B
BE5F9FB0
38A58458
3D5D5E88
BD4079A0
3C948131
3E2E0EB0
3DF65EB1
3D066BFA
3D6E63BB
3D862FF5
3CBCCA05
3C00EDA5
3C345D14
3BCC9361
3D4CABF3
BCEB9F86
BD4E7DCD
BDB3356B
BE360235
BD7127BB
BCD22770
3DF831D5
3C054E76
BDF5CABD
BDB93534
BB58F072
3CE8BA59
BD0BCC06
3CD00201
3DBDFC68
BD1275E4
3DA6D5D9
BDED95DD
3D2CF8CC
3D0A6514
BCD70D48
BC636D58
3C8FCA4D
3E789CA8
3C36BE99
3DB8846B
BE94EE07
3CCEF0AE
3D71BFA0
BC6BC8A6
3D80C071
BCDD9953
BD3E63C6
BD38786A
BE61992E
BDD065DF
BCFE6C07
3D6F5494
3D88CFC6
3D8413E6
3DC369D2
BDCFB88A
BD0A9395
3D8A59EB
BD98CB06
BE07856C
BE4E6F2F
BD70CA96
3DBFECE8
3CC5551F
BD67AACA
BD7CA5CE
3D3384B5
BD7B69A6
BCA2BC1D
BC6B60E2
BC8C48A3
BDAC184A
BEA35689
BE73CEA0
BE30B037
BE5A757D
BE9CFFC9
BED6F0C2
BE975438
BE169150
BC425A2D
BDD1E3DE
3C6F3DFB
BCF7C081
BCB6E86A
3AACC593
3D98AB8F
3C965C99
3DFB7415
3B893381
3C2C46E6
BD6403BB
3DE4DCEC
BDEFD439
3E2CB472
BE5AE6A1
3DD4D90B
3D67A8A9
BD9162B6
BD6D9646
3BEDE6AB
3C4816DB
3DA842D9
BDA42511
3DA81631
3BD6F77A
BD043B84
B9F2A2FC
BE2C4FCF
3E13F95B
BD9EE45C
3D979850
3DBF1525
BBF694F7
BD834F8C
BC864285
BD2BDF7C
3DCEBD75
BD2AF547
3D690133
BE16625D
3D76168D
BD5D273D
3DC7AA1E
3DBD12B9
3D3B595A
3D66C9E1
3DF89DE4
BDDB98FE
3E520005
3DA93289
38E66FF7
3E3CF476
3E28D87A
3D7CE81B
BD338EE6
BDE5C140
3CA47093
3E1A94B5
3D6CA2DE
3D2A4287
BE0C944F
BCC908C3
3D7D776A
3D6E17A3
3D8E902C
3DB93C57
3E039E50
BE2FACF4
3D0FF7F8
3DC3D715
BD475689
BDD9D529
BD8CE252
3D52D057
BE521181
3B965487
3E90B465
3D38526F
BD8E1E25
BC243122
BD9D067F
3E094E7F
BCB4662E
3E491673
BE55DC47
3DC513F3
3D492090
3D8D5CF9
3E1222C1
3E139325
BDC8BD80
3D990979
BC6C49F5
BCED58FF
3D8CE83E
BD5FD429
BE226916
3D5773E2
BD9A7F09
3ADA2B27
3C903BAD
3CFF72B2
BC682C8F
BCD76B82
BD18D1CB
BC5CB4B7
B9FE04A6
BD10C6B5
BE0F03D8
BE1B29D7
BE0620E1
3E58F9F4
3E00ADC0
3CE67A48
3DEBC368
BBDE9BA2
BE20948F
3D9B7E77
3D44CA27
BC577918
BA89AEC0
BB9B1FA1
BE23EAF7
3DCF4609
3DDF3867
BE0DF7E1
3E4B3588
3D981AB9
BD815E30
BE624D89
3D4E17DB
3DC620E6
BE7749C9
BDB4896C
BE1C269A
BDB9DB83
BDAFA986
BDB821FC
BE0B1AED
BE14F130
BDD515E9
BDB806F6
BDC31553
BDFCDC44
BCF69A26
BD2902FC
3B302F48
3E4F5A67
3E407655
3E02B5CA
BD6EC583
BE4C9D96
BCD6E900
BE0AA86C
BE1F51BA
3D4FA9F4
BD9FEC6B
3DB825F1
3DF00A04
BE677F2F
BD9D2DE1
BDAC0255
BEBE4287
BE4807AE
3E1D9F11
BAE20D0C
BDE9131F
BE29088E
3D25394A
BD1C2F9E
3DDC71F1
3D892036
3E23A03A
BD2B84A3
BDE3DFE7
BD80E3F0
BBCC4883
BD2D1034
3CF4F45E
BD006B0D
BBDADC5A
3DB67C27
3C909AC2
BD713867
BCAD5223
3DEE3758
BDA697B6
BDC1A8C5
3D8B107F
3DEF7D23
BD5A470C
BD7D530D
BA8C6293
3CA13331
BE242FE1
3D18F6CC
BA840AC5
3D4DE0E7
3CEF9A47
3D703585
3E8DE87B
BDEA1067
3E05D17A
3BD1AA3B
BE419D45
BDCF7454
3E00B92E
BD734E54
BC1A239B
BD39EBC2
3E1F308A
3C01378A
BD4CE32B
BC51A6C6
BD690A4B
BD67C612
BE060E59
BE1BB371
3CFF46C2
BDA8424F
3BB56CE3
3DBABE41
3D0512CF
BCCAFCE4
BC76AA8C
BD1C644F
3E389148
BCBB64D6
BD651E83
BDBD81A5
BCF2089C
3DBD449F
3DEB0A55
BDBE1CB2
3D932A31
3DF1FA69
BCFD0650
BE00FE91
3D822D41
BDC418BA
BE1FB12C
BE291905
BD31F35D
3C86BA4F
3D7BE488
3D937BDC
BCD1E281
BB939531
BD9A4DD3
BE4446A2
3D123196
3CF94368
BD717F8F
3E91BEDD
BDBABD83
3DABEFC5
BE16059E
BCE7F248
BBC93605
BD39489E
3E067DB4
BDA1A4CA
3D825294
3C9D6287
BD6D80BF
3E74BEB2
3DB1949C
3BE1BB83
BD367768
3DB636BA
BD8F70E9
3C88E8F8
BE2AC874
3CF474CC
BD6D7935
3C332008
BCCDC7FF
BE6276BF
3D65CCBB
BE2FF37F
BDE485FF
BDA21845
3DC39BF5
BC243635
BDC230C1
BD2BA255
BD0F6EE1
3B3BEA63
3D2CB44B
BE0A3323
3D29A0CB
3D9F9485
3D4B4995
3E07D11A
3E0D38B3
3B610C05
BE1F7C17
BE5A9352
BEBFA3C0
BDD475A3
3D924BE6
BD868B52
BE0A5164
BE0A4C62
BE4C6944
BEC2BF69
BEB339ED
BE6B730F
BDBA4AB3
BD255BED
BC9CEDCC
BD91CE5C
3D9DFFE7
3AD3B5CA
3E00C5CA
3D0DBF03
3BE08EC9
BC3CC974
3E620B7A
3D096044
3D897FBA
3CCDDAB9
BCA20A36
3C6833A6
3D4707FF
BE382E37
3E52494A
BCF352A8
BDE8FA37
3E464408
3CED38E3
BC6CF2BD
3DDDF846
3E202200
3D20FB40
3DDB44A2
3DB719E4
BD5B34EF
3DBD14C9
3D08F537
BE142A16
3D95EC6D
3C3F3D0C
BE5EAEE2
3D854A6B
3D83BF0C
3DE1BEBF
BDA681BF
3C9BFBA4
BD6A133F
BDBEA361
3D83186B
3D26F971
3E17CDE1
BDD57852
3D854E26
BD60F315
BD966D56
BCBABFF5
BCF01E61
3D12BECF
3D5AA3B8
BD9DF370
BD645D3D
BC99D9B0
BD99B8F7
3E372171
3E2D7577
3D29E05E
BB94B015
BE139D6C
BCAB4889
3C6E07DB
3D98AEEF
3DAFAA7C
3DB2880A
3D10BD4F
3CDAF118
3D479652
3D4BFCB3
BE0B2251
3DA1EE1C
BD82F89C
BD0E8FB5
BD835804
BD229104
BCBC3D68
BCE283C3
3E4E97A8
BDBC485D
3DA57CF9
3E3BD4D7
3E090ADD
3DC2028D
BC13F332
BD864B8A
3E1E2216
3CA2F3CB
3DEA5234
3D0FF759
3C05D4C3
3CEE196E
3D9BC3FB
3D2E7E86
BE0A7D82
BE37E1E8
3D4C827D
BD87D032
BE01F03D
3D0E0BFF
3CAC364F
3E074D7B
3D7BBCDA
3DC27285
BBEE7A5A
BDB593AE
3C99641A
3D80439F
3D800C9C
BD6FC944
3DD5796C
3DC7B757
3D836C3D
BE3BF1C1
3BD61CCB
BD8DC6C2
3DEA0DAD
3DC931FF
BC9C8ED2
3D485521
3E5647CF
BD67E8ED
BD181AD9
BD65960C
BDE4B67E
3DBBB9C4
3DBB0A6A
3E27CFDF
3DED3309
BB4099CA
3E0C305A
3DC1707A
BD42637D
BD0E21A9
BE302A0C
3D810D37
3DD227EB
3E78F46C
3E1E5442
3E432138
BD8CA176
BD8A9C13
BC0AD842
3D2DCC31
3DCF2629
3DB3D314
BE489826
BE71B040
BE7914BF
BE8408E0
BE5AC322
BE656290
BE85246F
BE9FE50D
BE8C653A
BEB973DA
BD90D241
3D2FD1DD
3D2B851F
3C82F94F
3C33BAD8
BDC5B333
BDB5FF40
BE0347B3
3EAA46FB
BE2219F9
BD9BC7EB
BD228D1E
BD53A952
3D2A7633
BD95F1DC
BC89DAAF
3AB5CEFC
BE35F2BE
3D44871B
3E0299A3
BC077B19
BE1E1A9D
3E333BC6
3D2FC95C
3DE215D4
BE217072
BC7E9C68
3D247C4C
3DA44764
3DA83ED7
BE5F19D0
3DAF43C1
3E01C4EF
3C923475
3EABB9A4
BD6C50CE
3CE8A6FE
BD2C0C7E
3E1442C1
3DF18739
3A5E39FD
BDB740B5
BD29BF0E
3E3FFD46
BDD9C1A8
3C92E8E0
3CCDA1DF
BCF164F7
3CAB25BE
BC55ED52
3E114F2D
BC6C331A
BDBC930E
3CBE02F5
3D7B191E
3A1D217A
3DAF6870
3D94FD86
BDA72EC0
3DE9A78C
3D96A2B5
BD07FE9F
BE3F5013
BD8EB8F8
3E495259
3DE39BB1
BC1FE0F3
BDE09338
3D055679
3DD5E402
BC1D342C
BD589A76
BCDAECE1
BC2AA749
3CC8111C
3E580A54
BCE5B40F
BA5A5E41
3D68D6DC
BDFB9B09
BCC24DDE
BD180804
3D097676
3BA8D233
3D34686A
3C936034
BC8170DE
3DD198D7
3D1EBFEF
BD23C575
3BFD4D71
BCC0B3B4
3D548D2B
3D17F537
3DB4D1EB
BE14595A
3D863816
3DF05C54
BDB7C12B
BD7F4677
3DB69F31
3D83170D
3E6D7F1C
3CC3A683
BD5645BF
3E2443C7
3C816590
3D9039C5
BE47F3D6
BB57EBBA
3DBD200F
3D701061
BCEF8300
BE588FAE
BD0A7450
BE0304E8
3D8A5FD0
BC9C49C8
3D9B35AE
BC9E9C02
3D1272FF
3DCB4B22
3D1EE82B
BD03ADEA
BE08EF56
BDA7CD92
BC9FC218
3DB25B09
BD9F27FC
3D7F16EF
3D023A07
3C59CF7F
3D05CF8D
BE05F585
BE23B7F3
BEB70A81
BE6793F8
BD744405
3E385ABA
3E05825C
3DDCBF1E
BD20CB01
3D943848
3CE3A806
BE5E242F
BE543E4C
BCD182CA
3DD5C1FC
3E44E65C
3DA9244E
3D55FF1B
BC1A3900
BE077B91
BE8E9977
BEA5DA74
BE4FE989
BE2A4CE8
BD4FAB5C
BE3E0A4F
BD245ECF
3DCC6882
BD190077
3CD96DD0
BC9E0DBD
3DA9284E
BE578AE6
BDD52172
3E0E95B8
BDF8EF27
3DD4BB94
3CFF2524
BD9A48F8
3E9A9128
3C89FE97
3D925B3E
3DAE0088
3E0D3898
3C88E76A
3BFE7852
3B724699
3D908700
3DCDB32C
3CB18B28
BC578111
BD472F7F
3C1360E1
BD5C0071
BD9F8492
3DFE7C3D
BD301821
BDE090C2
3BE73BBB
3D098BEB
BCB91FF2
BE3E308E
BD591B09
BE294912
3E1E3DC5
3BB27372
3E307259
3DA097BB
BCEB7B29
3BB5AAF2
BD7AD2B4
BD828FBA
3E0F6CD5
3E250D7F
BDA69BEF
3DA25DC0
BDF1DC51
BA52025B
BD167979
BE02F1F4
BE959BF9
BD8059FC
BB955C62
BD57E3D2
BD2A28E3
3D5A2F00
3E410419
3DE863DA
BE0A2333
3D40445B
3CA27678
3E6EAD63
BD14865A
BDBBF889
3DC78B85
BE0F47D1
BD1A26E3
BE183A25
BB23494A
3CA5AC82
3EC9F7F5
BDD15641
3D6B48EC
3CEE4436
3E38F2E0
3D61C740
3CD0E429
3D1259C4
3B967FF8
3DB8B303
BEA3D142
BE37D5C5
38AFFBC0
3D10B359
BD50EADF
BE1100D9
3CE4DCB4
3C816D02
BE031B87
3CA300DC
BE14FB2C
BC9783DB
BD8394B6
BCFAA1C7
3DCFE9FB
3C226FBE
BD8346F3
BD9C3D40
BE3F9BF1
3DCD924D
BCB5FE29
BD0469D5
BCCCEE7B
3D76E75D
3E8D46E1
BD0CFD94
BD477A30
BE1DC289
3E0C1066
BCA394B0
BD83FA30
3C3FA4DC
3BB30DE3
BD2C3862
BA075019
BE21608F
BDD17F84
3E189184
3D04413B
3DA1CCC3
3D1043F0
BD40F15C
3D3A99AF
3DBCD46E
BC7B8DB5
BE0F0C3B
BE45D815
BE46F0A1
BE7681FA
BE13640A
BE04154D
3C30FF92
3DD4AE1A
BB771228
BD39B89E
3D1E122F
3D2CEF29
3DF8A8E6
3E3BBB33
3E7E264E
3E7616A8
3C845C10
BD86B260
BE350AB1
BE7FD7D0
BE3B0C82
BE4584AB
BE1B0A1F
BE429AD1
3C9546FF
3DC83370
3E189309
3E8F8591
3D8D3B10
3E06F028
3D9C570D
3DB638B5
BD197999
BD3654F6
BDA83DE4
3D91752D
BD706398
3E2420A0
3DB44821
BD0A64DB
BD978D21
3DF9397F
BCD73856
BCF844C0
3E1DADD3
3C6571AA
3D23CEA4
BE1561AC
3DB1D39F
BE694750
3D0E52FA
3B8CF3AE
BDF30BE1
BE48E8C9
3C120EE1
BDE0F055
BD8A9B34
3E7AE5BD
3E224A6B
3D8EF6F5
BE15B028
3CAB0A95
3B5BA0FF
BC8EDE1F
3D6D0A52
BB075041
3E22FA2F
BD1183C1
3D98146E
BDF7B500
BCEBDF92
BCEE5D71
3D30B024
3DC00853
3D806F58
BD70D8C3
3D992E28
3DF5342A
3DAC2212
BDF83BE6
3E17CDBF
BDD64B16
BDA50D6E
3D67B5D4
BD3DB1EA
BD8ED207
3A2EF1A3
3D6C5615
3E22FAA1
BE21169B
3D82EA60
3E33503F
BD82E46C
BD7F0BEF
3CDF70F9
BD534E7F
BDBBEE70
BD36F011
BE16FEBB
3E535668
3D948482
BE5C29FB
3DCB93E6
BD959380
BDBA996D
3C0DC4ED
BD3CCBFB
3DBF8E23
3DD2CA80
3DAF1D21
BD410AE5
3E47E33E
BC8D38E8
3DA32BA4
3CC00AC2
3D0FEF87
3B79A9D8
3D9D3992
3E031401
BC145D9F
3DC6EB76
3C866B1E
BD80C003
BDEE613C
BE238F9B
BB854AC0
3E0BF918
BE3A8DE4
BE3335E6
BDCB9B7C
BD6DC055
BC2B0344
3C952581
3DAABB4C
BE2D920A
BD9022CB
BCA0FA46
3D26B2DD
3E35776E
BD4C2400
3E59DA74
3B6EED62
3A566352
3D0AF8BA
BE0E8F1C
3E3A3F03
3C98AAAC
3D93F52A
3CFD9AAB
3C3668B2
3D2602C1
BD91A7A8
3D635D1A
BCE3671D
3B18FFFD
3C46C683
3D1CF3B9
BC7691CD
BD759DC9
BE78AECC
BC998227
BE47084D
BE95AD6E
BE347C59
BEC708EB
BE5FB594
BE344439
BE81DD1D
BCBE0564
3E0211CB
3DC6407E
3DDDEFBA
3D50BB64
3CD3F312
BE20F401
BE4FD827
BE80AF0F
BE84D2E2
BECDEA7F
BECD18AD
BE4F542A
BE55B68E
BCF70D68
BDDB1748
BDAC2940
3E66F1F0
3B06E0D6
BC01A8A2
BCAF6B93
BD60248E
3E13F8D5
BDEDF49A
3D86E136
BD90E097
3BA70781
3C961F3C
BE7ED4A2
BC14736A
3CC16FF2
3CC0DEB8
3DBA2051
BDEC4D30
3D8967F5
3D3E06AE
BDF6F56D
BE78ADAC
BE001E62
3CB20500
BCC9EEF7
3DA81C75
BDB41976
BD5BF369
3DA8AD27
BD24CEC9
3DCB8FD6
3D05E5F0
3DEA6414
3DE28856
3D52771E
BD56562E
3D9136A3
BD6A4896
BD87637B
3E689841
3D54954E
BE6B5782
3E5F61B8
BD1B0463
3CAF540B
3D1051EA
3D682302
BDB4856B
BC935A90
BD694CE8
3E3995BF
BE0890A0
BE74EBF8
3DABA9BB
BE873330
3D626672
3DA8B3BB
BC92F388
3D1B4B5D
3E081B07
BB652357
3D69BE07
BE210F08
3D85559A
3B289768
BD7A3E1A
3E40A6DB
3D14FA13
BD3092F3
3C42D1A1
BE205ED1
3B24D97A
BD911F05
BE27630E
3DF92A23
3DA8CC4B
3CFB1372
BD11604A
3D57789A
BE30928A
BB434FBA
3D596834
BDC5526C
3D343C15
3D2D3738
BD3A9C59
BD8C36FB
3DBDF3FC
BCC1872F
3DD26FBF
BC788B62
3D8B65D3
BE49AB6D
3DC38CCE
BCA463C2
BEA2F83E
3E6CB49B
3D75FF03
BDA8FCC0
3D8066B8
BDECEC5D
BD3547F6
BD0BE5DA
3E062091
3E27AC09
3DEA34AF
BE08F444
BC619F8D
BE28C07E
BD5E4439
3E351D18
BC3920E9
BD8DD6E2
BDD6A289
BDB17E9D
3D657535
3D343AD0
3D3C0E43
3D2D6F6F
3E1F4978
BCD0FCDD
BD014B4F
3BD7173C
BCCB0ED7
BDF7C06E
3DCD3BF3
BCD3666F
BDEDD533
3C2BF734
BE9FB62E
BE85A349
3CB472CE
BE11684A
3D42AE9C
BD461771
BCB30BAB
3D9AFFD5
3CEE0A34
BD950CC6
BE3C9E96
BD7252B6
BBDBD416
3DAE1DE7
BDAA69FC
BE0FD0FF
BDEECF71
BE417713
3D4866D7
3D88B996
3DF2F13F
3E3AB5B6
3E64E7E1
3ECEAF8D
3EE2F090
3E8D62FB
3C32ACC6
BD176A32
BDE316D6
3C572F67
3D467F43
3D5731D3
3E2D0D72
BD06FA7E
3E99AAAA
BE123DFE
3DD58454
BC53864F
BE791856
3DEAC3A8
3B63B506
3E2169AE
3C598CD9
3D8EFF8B
BD8E60C6
3E010145
BDBB5C4E
BDF67B5F
3E0896D0
3CD0BD3D
BD565379
3EAC0311
BD8694E3
BDF7C7AA
3E01DF33
3DB43968
BDF86FF6
BDBBB567
BE38BCF4
3DEC3654
BC38652C
3D54D179
BE71AEC1
BDFC0FA3
3C8AF490
3CEE11FC
BBFCD0DD
3D28BFCD
3DBBEDA3
3D7D44CA
3C21AA0A
3DA3FDDD
3DE43A64
3DB54CAD
3D3DB5D9
3CF06269
BCD6A6A0
BC82E02A
3E66945B
3CC17B0F
BE7C5338
3DDC304D
BE1CDD22
3D3A926D
BE114311
BC14F761
BE136036
BD9D9389
3C80B542
3DAF496D
3E22951A
BE575DBC
BD22B9C4
3DC14010
BDC5ECD9
3C47F9BF
3D894358
BE089DAE
3B4AC63C
BB879C3D
BD9F57DC
BE14148A
BE8DE625
3D4588E3
BDC177B6
3DE80F3B
3DCEAAB0
BDB4BBDE
3D4D77DD
BD476158
BA7A6666
3E32AE8E
3AD11212
BD05F85F
3DD19E66
3DD24951
BD9111C6
3D177760
BE3EAAA3
3E15E390
BCA6E06A
BCE353D2
3E4047E8
3C5F689B
BD8CF812
3C5BB283
BD6E2770
3C93F68D
3DE4F441
BD558DBC
3CAA7316
BE051B49
BBADF1A2
BD220A9F
3D83A080
3E4EB65B
BE17CF01
3D45F20F
3D736A45
3DEF703D
BDBBA6C7
BD7E3A2A
BE97138F
BE50EEC9
3D4E9C35
BEA59ED1
3D78A385
3DA9E34E
BE03D7E1
3D4D685B
3D11F992
3E016788
BD65B193
BE302822
3E19246C
3E0369B3
BC91C18E
B8D19FA5
3CD27CF0
3DCB8267
3DD67423
3CA4D786
3D6EB20D
BCE67331
BDDFD86B
BDD98103
BBD06763
3D22E82F
BD4B2AD1
3DA93841
BDBD9346
BE3792CA
BDF5C118
BD80B8FB
3D7435F0
BC8941B8
BCB34CF9
3DC840CC
3D80D851
3DA72CBD
3D32E8B0
3EA6B837
3ED4B0A9
3E04896E
BDDE75A1
BD7E8816
3CAE6B18
3E063D6D
BBB4D997
3EA38286
BE1B75B5
3EBC7421
3C4C4655
BD925E34
3D80005A
BD345BD2
BD15329F
BDAC4B71
BE2D35BC
BD9EFD94
3D50E29E
3D833A2A
3E28BB8A
3EA6FD1B
3E0ACA9B
BD4AABC3
3CA14108
3DD33EA1
3D40AE84
3DCFE769
3DFAA3FE
BCEFE17F
BCACCF1B
3E287083
3E03554E
BE623E47
BDACCE62
BDB9078A
3C8C2D6B
BCDEAC68
3DE7A2DC
BDC9AFC8
BCABA38D
BE356DA0
BD927847
BDBCC55F
3C195E6D
3D62666F
BE1DEF6A
BD49748E
3CE6E760
BDFDA1EC
3E2D7258
BBBBAD96
BE04E6B3
3DFDCC71
3DA2EF1F
BDDA648D
3E378B37
BDEE0B9F
BE158F49
3E36710B
BDAD70B9
BD841F86
3E58DC2D
3E5E1148
BCE8812E
3D679B90
BC08E352
3E039D80
BDD26055
BBDEF15D
3E68AAF2
3CA1B3A4
BD5934F8
3DB630EC
3D2E8CA8
3DCC5DBD
3D308A64
BB135997
BE011CFA
BDEAF75A
BDFD25C6
3B3CC520
3D833335
BD904EC4
3D97641A
BDE6DC43
BDFA657F
3DBA5605
3BA1ACCE
3E53E0EC
BE17256D
BE81A866
3D490319
3D9618E4
BDB6D51E
3D711292
3D0222CD
3DC671A8
3B10C7CE
3D48899C
3DDB61FE
3D53D966
BE31530F
375FBB7E
3C806AE4
BAA2F278
3CD0A7C8
BD271406
BDBA6CDF
3E369806
BE00C4CB
BC955770
BE390E45
3DCF5ABF
3E097E64
BE60794B
BDCD8F78
BD86DE76
BBC6A5C3
3E2AE3C5
BDBB735F
BDA9A974
3E2CF822
3D11D2A9
BDEE6CE0
3D78780F
BBD13C24
BE533C4C
BE5BF68D
BE4B8129
BD13561B
3C11F240
BB422C46
BDF874BC
BE11154C
BD75739A
3DE8566E
3A39E87B
BDCFF3C9
BD706E5A
BD8CFE8D
BD9BC6BD
3C05547A
BD3C4D13
3DD2503C
3E4AE8D4
3E282788
3DD90B19
3DD03496
3E072006
3D661756
3D4C43F6
BDF4D9B9
BE84E62D
BE162669
BE362BC2
BDA55235
BDD47743
3E15DF30
3DEC0394
BD465B1E
BEF3D963
BD8DB3AE
3CD1BA17
BE4003E8
3C499F10
3DE81FB1
3DBCF3AC
BD80AF5E
3D36A0AB
BE0C5D13
BDC54A05
3DE3F119
BDDC017B
BB96C742
BD875C42
BDF15202
BE76F83B
BC48E8E8
3D4D9B19
3D19FC0A
BE54029C
BE88FB55
BD93C04B
3C33FFE2
BC0E351C
BBA6727B
3E24BD0C
3D354D31
BCA64B59
3D45101D
BDA2A1BF
3E18D6B2
3C712A3A
BCF68111
3E1A27BC
3E3063DA
3E3C8203
BD2D279E
BD1C8EEC
BDA33D5E
BE485ADC
3D1A394F
BE13E33B
BE356CFF
BCDED106
3C6F2FCE
BDDC0F45
BD4AB0B3
BD2D7185
3E208B83
BE39FC53
BD0E943D
3D81AC0B
BD13E8E6
BD37FC33
3E126A95
3DD5D745
3D311E8B
BD6F660F
BD4EA418
3DF0DEAA
3D9ED258
BDDCF993
3E64D566
BD3AF6CF
3D81EC75
BD76DD4C
3CF8333D
BCBA0199
3DA74718
BD746C91
3D735906
3E205DE6
BE21F24F
BD9AD4E1
3BA1B864
3D49D09E
BDA69A0C
BDBD9ACF
3DB4BA68
3E2B2A2F
BDF73B6B
BD38C912
BDA74D36
BE1C97CB
BD296E1E
BBA70A86
BD557FCF
3CF7F7D9
3E667E99
3D6DDAC4
BDBC57FA
BE0A7AF7
3A87E6AE
BE61DBF3
BD290919
3DDA0ACB
3DB21D5D
BDD2AED1
3CFF4169
BD8003E3
BDF49972
BD1BA4F4
BE5F0B9A
BC1B683F
3DACF33E
3C879D89
BD76A322
BE105ECB
BDB3087B
3E3042D2
3DF6088D
3E7AD723
3D408F09
3D5516AB
BE68840B
BCD00B56
BDAFFD98
3C1AF3A0
3DE9AA61
BE451189
3B19EA7C
3DC7354B
3BEA2A36
3E006537
3EA6C54C
BD96F8CD
BDCAFE24
3E12A84A
3E698B9A
3D8CC096
3D8EC876
3D3BD4C8
3E4E058A
3EF365CF
3F136D99
3E8BFEAD
3D8BC7C6
BE6D7BA6
BE41E53B
BD2AECBB
3D8875D1
3D6BCE4D
BE1C907B
BE3DCFC6
BDC2F07B
3D0E98BA
3CA8B012
BD235344
BE9986E5
BDB1C9A9
BE6EDE33
BE36238E
BD038731
BC5F6E7B
BB951F59
3D98F8FD
3EA253C0
3D8B3FAA
BC342577
BDE98FBE
3D19ECA3
BD9733F9
BD62A20C
BD9884BF
3D4E52FF
BCA0FC0F
3C949F7A
3D5C7F60
3CFE4738
3C43131A
3DBC9E69
3D7FCA80
BCC78DD9
3D93C8EE
3D29C818
3DF3EA55
BCE91CF5
BD113371
3DAE468B
BD068215
BE69A402
BD9ED40E
3DCC6C0A
3D451729
BD935F38
3E2C6AF1
BB6719EF
3E1C7B61
BCA24829
3D9CCD8F
BE05BEB5
3C73B1E9
BDA53F07
3E4C62A2
BC1ECBED
3C508A5C
BDC78802
3E6BF01A
3D0DAB7C
BCA7908D
3D9A339D
3E1ABB9C
BE1CFC40
3DF10922
3E81F878
3D59BAA1
3E31EBFE
3CD7E77D
BC6BE267
BDA978CD
BD4B2ECA
BD0DE51B
BB2B9FCA
BE9131BD
BC666072
3D6FBD68
BDA31216
3CDE0A92
3D02F9F8
BD1EEB30
BD8CDCDF
3DA0F8C2
3E057618
BE34E260
BE09E95F
BD1983AF
BD93DE5B
BDBDE931
BCFDDF54
3DBD2289
BD82F6E3
BCFF2336
3DF4C1EC
BE116CCD
3E999A2D
BC29D653
3D68D816
3AED10F6
BDB9520A
3CBECEF3
BD38B4B5
3CBA553B
BDF4104B
3DCDDA06
BCFF8BE1
BDFD16C7
3D1CD424
3CEEC34C
3D97B962
3DEBBACF
3D578CAC
BD8B2704
3CC982D6
3D369934
3DF1F8BB
BD430EA3
3DFE1600
BD883DA9
BE09FF64
3E02E5C3
BDC2CA7B
3E1D24C0
BD67315F
3DC19DBF
BD91755B
BD47DC58
BE2DF373
BE298846
3E24A09A
3C9070B6
3D9E363F
BC98CE98
BDE21519
BCA8AF51
BDCFD22D
BB85605F
3A314245
BE075093
BD98A290
3E3EB9EB
3E2D0416
3E4254C5
3D2BA50F
BE654D25
3D2EA22A
3D8B2F99
3C8C6FA0
BD861F9A
BDA3DF04
3D0B0B21
3E293243
3E4E7BEC
3DBE1F2C
3DB423EB
3CF0962B
BDAEE113
BD5CB362
BD9F607E
BC5F3D48
3D724C66
3E8611E6
3E8697B9
3EA7ECAE
3E931FC3
3E4E8DBF
3EC18365
3E9CC708
3CA8A6C8
3E0C4AB3
BD502DB5
BB0AE98A
BE69040C
3C6F3212
3D36D371
BE11F86B
3DA3A4B5
3C5B3B9B
3D93E6F0
3DC89B86
3C96AC5F
BE3AFA14
BD503420
BE365662
BDADEF06
3B21E1D2
3DB14BFB
BCE6EEFD
BD54501E
BDAD8252
BE6F0FBF
3D081901
3D9CB95D
3D6DA72A
BB45003F
3DBFFD76
3CF0EB04
BE28EDBD
BDDE4B37
3E73552D
BC084B41
BE7E4DBB
BDA5C547
3E71CE36
3DCCE71F
BC41100B
BD0DDFFA
3BD6B3D6
BDDF9046
BDF029C9
BCF892AE
BE035C5B
3D744D4F
BC82054E
BE4978DC
BDCC35C1
BDB1CE11
BD2F2148
3AD77B38
BE929F75
BDC22DDA
3E8A7E31
3C831AC7
3E56A7D5
BE3670BA
BC72E154
3DB2B9F4
3CD5426D
3C341982
3CB1289C
3E060E7A
BE361628
3E62B2C0
3D0C8A14
BCADD2DC
3E285DE6
3C756FEF
BC430B0D
3B68200F
3A98BA18
3E0763CA
BB8EC829
BDE7FCFC
3EAC6895
BD8A9DAC
BE22D0C4
BE66F6C3
BDD10287
3E3B8F44
BE29DBA9
BD23B9A6
BD3B3C41
BDEF8B15
BE196BEF
39EDD80C
BE385165
3D99344D
BD342D36
BE12A10E
3D0DBF28
BE0DC4D7
BDC2900D
3DB9763E
BE17BE5C
3DFAA781
3E2B18E8
3C7F6820
3DAABFB6
3E45AAA0
BD6C2B7D
BE4030BC
3DD9CD59
3D74A95A
BC9DF3C1
BDCE1438
BE342063
3DFC3281
3CEB1609
BDA630C3
3D838C1D
BE1583E2
3DCE30B0
BC03AAEA
BCE0D14C
BC6F4EB8
BCCC76F1
3E5ADD09
3E0ADC67
BB9763DF
3DD3300E
BDFAA92E
3D0FE8C1
BE44F43A
BCB3BECF
3CE06C37
BE6EC992
BECA5ED6
BD84527D
3E01B915
3E121BFE
BCAA7F55
3D03BE7E
BE14CBCE
BD5A0F18
BD42814A
BDE772C8
BEA2651A
BED561F6
BF02FC77
BEB5C6DC
BDABA457
BE0C068A
BDA64BD0
BC8DFC93
3D5C9D3A
3E4D4A14
3DB11E76
3D2EA3D5
BD8A1C53
BDDB813E
3D6A44EB
BD82925C
BDBB954F
BDB825B0
3BD8B563
BDD25D73
BD0BA1CC
BC98B675
3D27BC14
BD03ECB4
3C2F8056
BD929B25
BAE54A3F
3E1BEC68
3E175DD0
3D160A4E
BDB5B577
BE320C07
BC83A591
3D1944D8
BDA2BCCD
BE00F2D3
3D4607CC
BD27D918
3D37F19E
BDBA7928
BCC8ADB4
3DE1EBC8
BE58D808
BD4F09D3
3CB42FC8
BD827413
BD31944F
3DA1F416
3E05B248
BD6ACE88
BCDD0605
BDDF21E9
3E0C7A62
BD42B758
3D47A8F9
3C8E3537
3D9A4CC9
3DD955EA
BDCED6F0
3AC0950F
3C8E6757
3DB4180B
BAB14CFB
BC106DF4
BCDF8E56
BCACC3E3
BD06DE69
3DA4121D
3BBEEF88
BD270E9D
BE221F9C
BDD3175C
BDC79CCD
BD57ED82
3D8C56D6
3C22BCA5
3C55E54F
BC066B31
BE254DA5
3BCC0A7A
3CCD77B8
3D18E349
BC5D020F
3D456862
3E0530C1
3DD576BF
BDADD37D
BC40C9F5
BDBE1FA8
BDD821BD
3D09CA77
3E0FF5A5
3DF42F6F
3BA2A404
3C306B6D
BDA43DFB
3CFBA944
BCFD7A49
BDADEBA1
BDBF7E19
BCD856EF
3E21FA7D
BB5A7D2D
BD1AE226
3D86C790
3D376816
BCF9FC70
3D9925C2
3D5EB433
3D42846F
BDC42787
BB8642A5
BD0781DA
BC32D718
3E30B213
3D1D9B01
3E191ADA
3D083348
BDC750D3
BD9F0765
BDEC5693
BDE58E22
3E6BB002
BDB0C069
3E41C695
3DE3A132
3E22C23E
BDFF0D41
3D0E87EB
BCC49378
BC966476
BE03D50C
BB7CDFDC
3D66C7F0
BDDC7B2B
3D2B662B
3E02411C
3E00C092
3DC8528D
B9A0EE85
3D933919
3D98CBD2
3B4861C4
3DA20056
BD3CE74F
3DA636CA
3E5FB3E0
3E42D2C9
BE1B4F8A
BD8DEF5E
3DA624C2
BE569630
BE895CFB
BE8A7BC7
BDDB3538
BE26321A
3CBB30D9
3E036284
3E89A7BB
BD163CD0
BE516DCC
BE91F6B3
BE6E89DE
3BC3EC3C
3E0402F3
3E05214A
3DEB5D61
3B3F3820
BDD0795F
BC3DD065
3C451FF0
BE60E2C8
BCCD898B
3D8243C6
3C5F13CC
3DEF4DF4
3DAEF999
BE187C8B
BE204CD6
3D3664D4
3E05B0C3
BDD1716A
3D6596CB
BDCD576C
BB2A85EA
3DA59069
BE007A5E
3D1592FF
3CFDA20D
3DC7798F
3D083693
3B4FAF0C
BE252723
3D0C4B50
BD88CED0
BDBC10F8
3D89FEFE
BE06314A
BE162CA6
3CB297B2
BD39FD65
BDB4529C
3CAA19AA
BE1F7F0D
3D834933
BD4DF135
3D2497E8
3E1B615D
BD9761D1
BD9C5622
BD7523B9
3D8D4EB7
BE0962E4
3D512514
BD6A021A
BE178423
3DC58922
BD25D64B
BC0FAB65
3E438866
BDB27F46
BDC2F78B
BDFB1748
3C74A7E8
BDBBA818
3DC122FF
3E9619EB
BD61F510
BE1C44E8
BDBA00B8
3A6BD781
3D7F3E4F
3C9AF351
BD99B46C
BE08F86F
3D8F5570
BDF6A678
BD86123C
BDCD5729
BD27820D
3D7B9DA3
BE597BF4
3BAF6243
3DE2CE11
BE283A54
3D8FAC89
3DAB5DBE
BE661AB1
3E186892
BC8484B5
BDF9CE80
BC3CC32A
3DF50DFF
BE0E1E99
3DFDC65C
3C82FD8B
3D38AABC
3C15CE81
BD9A86F5
3C5B8C2D
3D97E55C
BC862035
BD636FEC
BD2D16DA
3CC4B546
BDF07F24
BC89F9D4
BCDEC9CA
BC6AEF2C
BE19A474
3D2C1F7B
BD098319
3E2CC327
BE2D2250
BD2C6E5E
BD64C054
3CEEF97D
3E2030EB
3D7B3050
3E327D6E
3D03302E
3DDFE4BD
BD0FDA0D
BD8F0E39
3D82AAC1
BD60D6D8
3DCF3EBF
3E0FD347
3D126276
BD78E831
BD086C45
3DBADB13
BC7E28E5
3CF9FE29
3D220ADD
BD23CD90
BDBDDF0F
3D340F6C
BD49879E
3D269032
3CE211A3
3D20619F
3DC557DB
3CC25E4F
3C8B73E7
3E1E9E65
BE4B20BF
BD3A35A1
BDF536E4
BBB55980
3E42F9B6
3E3DEA75
3E37C02B
3E6CCAB4
3DDC9B5C
3E077EE5
BC126EE5
BE824734
BE097410
BE321EA3
BE309FEF
BDB818A2
3CA6D0DF
3D92D32F
3E2C238F
3ECCF6AD
3EA46AD0
3EA66047
3ED6D854
3D62186E
3D0EA1E1
3E3891E2
3E110994
3CE5751F
3E237982
BE6D5806
BD974975
3E700D94
BCBF5657
3DCD6063
3E8E8A89
BE261DF8
3DBD38AC
BD038302
BC8E15F3
3B21D1E2
3E057A3C
BD9CC84B
3CD31CAD
BDA5F228
BDE95D92
3E3C5635
BE3CE3B6
BDAEC618
BC15A953
3C8AD277
3E53A2CB
3C23AF1A
3CF769AE
3E3A1152
BD4CB441
BD20C108
3D82F059
BD6023E2
3C176288
3D8FB549
3CE4FED8
BC6A74C9
3D646AD1
3D6B3DFF
3D9C91C9
BD7C1CFC
BE9D90D5
3DD0EBFB
3D92DC70
3C2A6AAD
3D90B751
3DE9E4FE
BA2D4E4B
3D5C19B1
BD6EDDF1
3D99D85F
BD33B353
BDCB14CB
BE1EB14B
BE47AD3E
BE6DF202
BD0B6BAC
3DD0399F
BCC2EB67
BCEF1887
3C536598
3E0DFEC6
3C524466
3DCF004E
3CC10C2A
BBBBF61D
BC024F39
3D427F29
BC619ED6
3CB884BC
3BB38123
3E9C3B24
BDC25DE1
BD991325
BE4E4B23
BD757FFC
3D7C9A0F
BD165A67
3DC0C653
3D3C1758
BEA8B553
3DFD2964
BD7E2255
BC39199C
BE139B3F
BE479386
BC623A92
3CC927A1
3D5029A9
3D148256
3E3430AB
BE8135B6
BD87A653
BD107612
BD83C8C9
BD9AAA37
3DC11FD4
BD5D20F3
3DFB9A83
3DE71AC1
BE5097A6
3E05930F
BBC6CA5B
3D698722
BA1A4F19
3E1B1D1A
BDA9D247
BCF2CB7A
3E5FFA7F
3C947771
BD2E58BE
BE3032E9
3DA67123
3DD180D4
3E25B6E5
3E857DF8
BE347CED
BD672563
3DA501FB
3D9C5D45
3DABE6FA
BDF78C6C
3E201E7D
3D61392B
3D0CBB37
3D88B0F2
3DABA7A9
3DB9D4D1
3DD1ECBA
3E048A37
BE0F9CAC
BD6AF88C
3D93D312
3DD2C062
3CA95AC2
BD92B8E4
BE3B085E
BD089E24
BE8225DC
BE2D535C
BEA1BC1C
BED09C8D
BE017651
3ABD0FAF
3DF48AFA
3E5603AD
3E48E8CF
3E1798F4
3B58AA03
BD88B054
BE335844
BE8B7444
BE504718
BE9F7967
BE909488
3CE22B69
3DFD3C79
BC95E7BE
BC88B3A8
BD8297A7
BD4B4D30
BE48918B
BDC83CA4
BDA30F59
BE863125
3DAEB0B6
BD1DEA49
3DC4FFEB
3C71E08D
3E02D157
3D35BDDF
BC40C639
BBEEE5C7
BE1F9DDA
BD6E3921
BD0E3895
3E0916C4
38CF7890
BADC96EF
BCD6868F
3E02B0CF
3C36F5AB
3C2036AE
BDA1E256
BDACD8A7
3E024F3D
BE41A262
3DEF5DFF
BD172CCD
BD8419DA
3D1613E1
BE039438
3C9E216E
BD6E5CBF
BD2584A4
BD4D90BF
BD3E38CD
3C94A05B
3D6A6915
BD8359E0
3D3674C9
3D544C7B
3E5C3F7A
3D04B1CB
BE394205
3D8A54BB
BDDA68DA
BCBE4403
3C298986
BD7F8AFD
BC518894
3E1249B5
3D972F3D
3DD1545E
3DC29CFA
3DDA9479
3D45C978
BDDECC81
BE1E0CE1
3DE97A25
BCF74074
3DA30671
BD2915BB
BDFC2558
BE38C495
3D58C135
BD16C036
BC73FECB
3E1C5423
3D9E26F6
BD234367
BDF24E09
3D27EAA5
3A78D7C8
BE012345
BD1B89A9
3D6DADF1
BD38021A
BD9BEBA0
3E3F9E7C
3DEBC0F1
BDC33073
3D914D7B
3D9F25E5
3DA704EA
3CFF91A6
3D0C8CFF
3CB7BFCA
3DDB700B
BCA15B90
3E320649
3E4A1F95
3E1B3F2E
3D5391E3
3B91F80B
BE23B702
3D42E469
3D93D2ED
3DDE5B78
3D9D6D95
BE724E3E
3D8E8BEC
3E0882E3
BDC698FD
BE0EB47E
3DBF4907
BCBD2E3F
BD82BE86
3DC8E28B
BE03A521
BD8F743E
3E6C2E3B
BE174F79
3CFA12C1
BCB62093
3D5BD869
3DDC8FD3
3D48E06F
3C4BC92C
BD1B8D07
3D02D8A8
3E4C80E9
BBF48DFE
3DCE2A4A
3E0E8307
BE68DAE4
BE77E4C3
BE0219CA
BE57F67C
3BBB51E4
BDBD90E2
BCBB1FC1
BD32CA27
3C8E6E12
3C4762D6
BD75D722
BE04CA56
BE0B7627
BDFE1C73
3CCC3741
3CB39AE7
BD85E6E5
BDF1EA86
BDA16A14
BDF46C76
BDAE3706
3D00FFF5
3CCB4583
BC7344A6
3E8F51E9
3DBE7067
BE6A08FC
BD7650AF
3BF7F83F
BE517F63
399A53A5
BD278EDA
BD349E8D
BC9EA435
BE69C3BA
BDD06855
3D304222
BDEA1280
3C75FD32
3D4D1AD0
3D42D230
3E37E7C7
BCF0AE2E
BD5FE243
BE343611
3E26D71F
3DD77B1F
BE3D5503
3E3B5E60
BD1E323A
BDF0DCD5
BDBEC175
BE195175
3BE87948
BE984C64
BE05509B
3DE57D0A
3D1CC528
3CAD041A
3E1ED7F6
3D409C3D
3C620F3F
BBE47605
BDD0E32D
BE359685
3CFD17B9
BD0E86AE
BE088E0E
3DCF77E5
3DE95F90
3C8BF165
3E161AF4
3BCC9E89
3D265E9C
3D38D806
BC7CFFDB
BDC938A1
BC620045
3E56E683
3BB1A43B
3DA2CFB6
BD06605C
3D497E29
3E4CB93E
BDEEE866
3D8D4F50
3E4F3BA7
BCB32B61
BE1026D3
BBC2FB39
3AFCEE30
BCE45016
BC374257
BD120056
BE2AB303
3DCA7508
BCFE857C
3DDAFE2B
3DC1DDEC
BE13FB31
3DE0B913
BDB6281D
BDEA6A5F
3D1F34B4
3E61374C
BE25D272
3E015853
BD56C7AA
3D6133A7
3DD4A135
3E4E05E8
BDAFE17A
BDAACB11
3D02D90E
BD25AD23
3DA503B5
3DCC86A9
BE2A63A2
3E0481D4
3D6573CD
BD56183D
3C655108
3BAB3893
BD526B2C
3D6DB842
BE863729
3C55B823
3E860A67
3E0BEE66
3E6A2A7D
BA925D0F
3E228F34
3CC9BE9B
3E4C3EE7
BE056649
BE7DF494
3E0F6329
BDCC4469
3CD96592
3E0EF8B4
3C728BAE
BDB550D5
BCC63D56
3DD11B2B
BE5BB8F2
BB2B2692
3C5CBB17
3D278065
3C7685EE
3D30C601
BE386445
BDC1CE17
BBD05058
3E634613
3CD320AF
BCF4E687
BD0D360C
BEA4B0F6
BED515CB
BECF0959
BED6903A
BE684E18
BDCA68DF
3D728B9B
3DD10BE9
3DE8964A
3E034A81
3E2E8BCF
3CE54915
BE19CA8B
BDF57F4B
3DA3CBB0
3C51A5E5
3D279708
3DCE7310
3D272C9F
3CAEE49A
BCA20BA3
3D981E8E
BE11BEF5
3D456163
3CDE20A2
3CF5745B
3DFEEC11
BCBE3692
3D80B448
3BA5A58A
3E0FF470
3D49D010
BE04F546
3E4D1D12
BE4D48B7
BE374E6C
3E8EB02B
BE6353A1
BCAA171B
BE0FC59F
BDEFD1C2
BD9DC7D7
BE1FEA74
3CDBC304
BD164FA3
3DFB395C
3D06CE36
BD382E7D
BDC5CF62
3C838800
3D99E9C3
3E4DBE35
BC94E45E
3D89912B
3D35A427
3C98576F
3D479726
3D263958
3D6E598A
3C18070C
BD5D87F0
3E74B4C3
BDC86BAA
3DDB4A4B
BEA456F1
BDB016E3
BC739C90
BE3B026A
BC50F65D
BCF82EBB
BE265252
BC947AC1
3C8050E8
BE3ACDAC
3E02AE23
3E10EA55
BCB2BEDF
BD20F42C
3BF743D5
3DE67671
3D3DF628
3CA61706
3C8EA930
3C522DE0
3BA07AC1
BC857C87
3DC97F9E
BDD52AE2
BC391677
3D280CD2
BE3986E2
3DA6592F
3E0346D6
3B0A6052
3DB7CFE7
BD34E88A
3D138CD8
3CF20BDC
BE90E9E6
BCBC3FCC
3D99D9E2
3DE2FA6B
BE01981B
BE10EB39
BCF07893
BDC0E24B
BCD9509E
BDA0666F
3E61C5F4
3BF63DB7
3DA83E5B
BE54A248
BC0DADAA
3D9F6C8D
3D934CF3
3CC4D674
3E50818D
BE07F661
BD973D13
3D1635F2
3B5DBF4E
3E0F953B
BE01CD02
BDCA06FA
3D9A5562
BCE283AE
3D4DD0AB
BE03B0E6
3D73464B
3DA74D28
BDC43EBA
3D9600C4
BE48CB3E
BE447630
3E0C57CE
3AAB163B
BDDA1BAD
3DA58671
BD1F9E56
BE19EA9A
3DD4DB67
3CE13763
BC86CA09
3E634345
3CCA9C5B
BDF71583
3D20C22D
3C2F3F28
BD7F298C
3D55C940
BDA132A4
BD9ABC94
BE1049C4
3E1C3386
3E35E2B3
3E9FFE6D
3E53DC99
BDEDE87E
BE606148
BD21357F
3DBF75A3
3E18C7E3
3E9E60C0
3E90D643
3E10BB0A
3DA9F30E
3E355C31
3DB00A35
BE04802D
BE20F656
BE29766C
BDE6CCCB
BD57E788
3C9EE5A9
3CB31612
BD394152
3C6919BF
3E29DE7E
3D31294B
3D851098
3E3266F0
3CE2346D
3DA8C29B
3D56DB44
BD0631C3
B67292C0
BD5CFA41
3CA55224
BCA779F2
3DADA795
3C85EAC0
BC5EAC73
BB904F8E
BDA88E37
3E858A36
BCDD1FFC
B9593CFB
BC3F2A83
3E0071B8
BDBE656F
BC46705D
3D8A80D0
BD6C85E3
BD1E80E2
3D800E89
BE0FFD2B
BE2811FC
3E70F04F
BE1BE511
3DD15B9A
3E8414E1
BE9BBCDA
3D33C3EF
BE12C3AF
3E27DEF8
3E9F548F
BD40A08C
3DE0A3F2
BDBFF2A3
3E348473
BE29A76A
BD935B41
3D2165CE
BE0441B5
3DF814FF
3E01B973
3D9EDBDD
BE09CC89
BC93BC90
3D3BC154
3E88D87A
3DABBE5E
BD66F49E
BE33D599
3DB389F8
3D9495C4
BD54D8D5
BE047E43
3D7F91FE
3D200894
BD905767
BCBE5D83
BE2F924B
3D3E69A8
3D7CCC57
3E13F5F2
BD1D0108
BE0B5611
BD5FCFDF
BC539945
BCEF500F
BD62544B
BD385EBC
3E1C6541
3D2CCEAD
3E59C008
BCAFDF76
BE16B994
3DD9A614
3BAC36D7
3C538D86
3D11D354
3C983E6B
BCE96C4B
3E424272
BD9DFB03
3E7C5A7B
3D50705E
3D21D7BC
3E205272
BD35BC1A
3DAD9233
3E36DF0A
BE932049
3CC10E18
3D15C707
3DF8576D
BD9FA3B2
3D222673
BD8AA2EA
3CC62472
3B078DAD
BD3E341B
3D2A047E
BDB4922A
BD07F0D2
BD9BB584
3E314A61
BE2860BB
BCEB7071
3E72FCE2
3E2797CC
BDF481F5
3D8FE4E4
BC5A9974
BB17D4A6
3A059E46
BE3D64BD
BCC6BE9B
3DAA4A51
3DAD5B69
3DB34BB6
BE1504B0
BD0E5848
3B53D265
3E2A3649
BC8EA7A3
BDDD7A64
BC35CC60
BE7EFA6F
BE78233B
BEB8B718
BDD15882
3DD7C1B0
3DAFFB38
3D10F302
BDDC6808
BCE7204B
BDA8B3C7
3CE61BB8
BE30CD7F
BDE069E8
3C1CEE61
3E7491C4
3DB815D9
3DB87DDA
BE77DF78
BE5EEACF
BE5B174F
BCA1F70B
3DCD3C36
BCCA7422
38D8C90B
BC03D0BB
3E197DD0
3D2C36F8
3E3E695D
BD48F827
BD0D864B
BCE0EF44
3E3C5C65
BE05F7DB
3D8A9224
3E254EBF
BC9E405D
BC1870E1
3D1B14C1
3BDE253C
BD6F2374
BD1470E0
3E823822
BC00C402
3D920652
3D2815E1
BC1DF181
3C0EBA30
3DEAAB55
3E01EA1B
BE17FDDA
BDD0F8D4
3D13388C
BBAAF523
BCF17F14
BDC3C8CE
BDA7984C
3DFE2B2F
3DFCBCB4
BE447C23
3E05D4C7
BE833A94
BD8024C1
3DD31983
BE44527C
3D9EA3C5
3B3D6A1D
3E31DDEA
3D2F310B
BD1A1558
BE1D6649
BE1CC1C4
3C6F8D61
3E897AFF
BAACD11E
3D2A30FC
BD025FFC
3CEE7498
3E8ECFEA
3E331085
3D1AB259
3D94E607
BE4EF63D
BCEC961B
3DAA6587
3DDE1389
BC75E778
BE10E700
3D859CA3
3E030468
BD5C3479
3E3330AF
3EA615E5
BD67ECDC
BD5AE6AE
3DF385EF
BDD3EB98
3C0BFE8A
3C8C90BD
BE1C9CB9
3D16C879
BDA6E3E5
3C215564
3D2E0F7D
3D890499
3D7F15B7
3E1DBB6E
BE06E0C5
3E6BD6DB
BCAA45FA
3E38D14C
3D22842C
BDAC9A62
BD538B68
3D9B7E88
3E4802DB
3E108469
3E0233A3
BC81D8AD
BD834388
BD418421
3DA802EA
3D88AC50
3C9912A1
3D3CEDE2
BDEAC29C
BE156565
3DC7E6EA
BE00D81D
3CC149FD
BD197C8E
BDA99893
BD9FBA55
3D7082E2
3C29348C
BE0EAF97
BD523087
3DD43724
3C85EC43
3E17D0FF
3DBAC2D8
3E281B72
BDF427A0
BE08E31F
BD9077A9
BD91EA32
3E27F8F9
BDF106B9
3D7FC49F
BDC0A5C4
3D21FC4C
3D873D3F
BE2B8873
3D83A57B
3C8B8961
BD8AC5DB
BD67B54E
3E2C798B
3E22BE6A
3D341B2D
BE939625
3CB8D56F
3D36BBE4
3CF6E2A5
3E03257D
3E4B62AD
3E1F339B
3E3F6DDB
3EB49FE8
3EAB0C31
3DF5F89D
3D92632A
BE191B32
BDE486D5
BDA83474
BCCDA453
BE3570DA
BD83F4FF
BD8DD197
BDCE42E1
BDC90E8B
BE077363
BE233205
BD1FFEBB
BC8B4D46
BCEE1C2D
3E2E4EF7
3E0CB5F1
BD828867
BDAE5EBD
BE530E1B
BD6F9A1C
BE187D69
BD501727
BDBE2563
BD2EBFD1
3DF09D21
3CABB590
3CD73BE7
BD8DE912
3D8385BD
3D857D97
BC65CF68
BE525955
3E58BA33
BDA7C60A
BDDC3697
3CFB6531
3D109AC0
BDB1A186
BDB59E95
3C97741B
BE030F50
3D307A11
3E08595D
BE4409C4
BDD465E9
3DD9DB73
3E48278F
3CC5C71F
3D8EB1A7
3DC8B39A
BD3E7363
3C33EBC0
BCEE6EEE
3DE900FB
3C7F8485
BDB25EC1
BBFEABD3
BE201E54
BD1C41BA
3E21CD0F
3DDF5141
BD0F707E
BD8B6D98
3E0D4456
BDEB658F
3D8BB565
3E050C73
3E5D6606
BCB77522
BE0553C0
3D34F075
3D0E021C
3E0849D9
3E0096B5
3E1AA568
BD881A04
BD0A3DA1
B9055DBE
BD6E1D34
BD6A97F4
3CE69576
BD947D78
3DAC3103
3D37A7CD
BD896D6B
BE50156B
3C18982F
BD5C018E
3D4FDED0
3D65B22C
3E0654F1
BCC95051
3DB93554
3B958F7F
3D817011
3DCECAFC
3C8B7930
3E34ECB4
3D89F7A6
BDA4F852
BC757AA1
3E16FFF7
3D9E85F8
BD41E072
3E45E2BA
3D973547
3E4DC52E
3DFDD477
3E045DF0
BE5B0D66
BC890832
BBD17EFD
BD955ACF
BCD844AA
3D232693
3D857D88
3D613E84
BEB23048
3D6A7A3F
BE279A94
BCA458D5
BD176BBD
3E4C251B
3E051ADE
3DC1C1CB
3DA87EE7
BCDD4CBD
BCD6181A
BD83CA36
3E653459
3D94FF86
BDDC6CB3
BE57FAD6
BDB5F7C5
3DE0D6C0
3AF4352D
3BAAC681
BD8D6783
3E00B37D
3E73E667
BC4E6533
3DACC1BE
BD3A45EC
BD8AC9E6
3DDEBE9D
3DF14588
3E207CAD
3E29808A
3E847E89
3E91E8D5
3E8C62D7
3E48A691
3D50E279
BE29126A
BE2166A4
3BC79AD4
3E387896
3E3CF52C
3D9E06EB
BCDC0FAB
3D60FA36
3CC77D2D
3E0BC410
BD98C6E2
BE3E66F3
BE1D1216
BC4BDE25
BDC9799C
BE42607D
3E392619
BDE86DB5
BDBB9539
BBBE3D61
BE026004
BDAF2930
3D7BF7E8
BE2DBA25
3D8728E4
3B106191
3DDDD723
BDFC1242
3E38F34C
BE27C8B7
BE3F425D
3CBBF782
3D53F0D6
B979CEC6
3A921D12
3C3882FE
3BE3870E
BC8881F5
BACBDD05
3E58CF25
BD223A85
3D2BD05B
3CFF97D0
3E18712B
3DADE615
BCC63010
BBCA6819
3E2F53B1
3CB4B90A
BE3D21EB
BE5356CD
3E05B5A3
BDA0CF46
3D583C14
3D0E36FD
3D72519F
3C87BF77
BC024379
BBB6E0C5
BE2E696A
BCC2F192
BD363EDC
BE5FB36E
BE20B42C
BC2B591F
BBEE7CC2
BCAA8F4B
BE35C0CE
3C0D4C2B
3E04A086
3CAECA89
3DA34BD7
3A620958
BDC18D4C
BDAD01FB
BDC34B40
3DE62846
3DCEB3F8
BDD24FB6
BD447A96
3CD7BDC7
3D8B90D0
BCB9DD77
BC6A8DB3
BD4A1CAF
BD24077C
3CA19195
BE0D899F
3DEA063C
3E6430B1
BD9F4212
3B9AADA7
3C4715DE
BE2413B3
BE32C394
3DAC9B8A
3CFA3520
BD2179FE
3DEC7905
BE178F18
BD109D2E
BDD27DD9
BDAB028C
BDDCF9BB
BD134A02
BD4F55AE
BE22380A
BDD720E4
BDD4AA1E
BDCC5491
BA915BD5
3BDDDFB8
3CAEEC57
3D01C656
BE4E71F6
3DBB8A6E
3E200970
3D68D17B
BCFBD4F8
BDC80071
3D4809D2
BD34FE57
BD369904
3E0DF38E
3D0F896D
BDCADE6B
BE0C9F08
3E19EDF5
BC2D3730
3E2EE16D
3D8C828D
3C9BD0B1
BD6B9B77
BD9E6590
BD827F41
BD20DC36
BD31AA90
3C96F098
3D27D656
BD57E666
BCFF323A
BD60BC30
BE1F6344
BBE9264E
3D118229
3C726F29
3E41B336
3D73CC5B
3DA9F96F
3DEB3271
BB3CD750
3BE777FF
BD4D0498
BDAB1CB7
BDA438B8
BE55150C
BE892A98
BDC283D3
BD3838BE
3CFFBEED
3E3AE5D7
3D894C63
3D2FB476
3D539D94
BE17D029
BD6A2C26
BE5D7C84
BD859ED4
3E186C6C
3BBF68B4
BC4B23C0
BDEF1603
BDA425DE
3D8A0B6B
BE5669FE
3DF2B9D4
3D950C30
BCEFC0D3
BDC6DCC7
BE08AD18
3E0A5171
3E2E2A15
3D8E8AA4
3E0748F9
BDF5E991
3D5FC426
3D0D767E
BE204A51
3DCB3854
BDB5E2EF
BDEBA3CA
BDD99C03
BDB48E12
3DB448ED
BD8DFE37
3DAD239A
3DA3ECD2
BDDEEED9
3D5B9969
BDB85646
BDCA52AE
3DED56BD
3DEA42F2
3E41DD1A
BD793F29
BC872853
3D1C2B3F
BD488966
3CBC2BC0
BE2D2271
3E0C1ECA
BD8431C5
3D12D7EF
BD86F578
BDE6CD36
3DFD325B
3D9E8D72
BE0575BA
3D5937FA
3D7A80BD
BD500ADD
3E25A724
BC357AE1
BB69FC15
BE7514C2
BB918CFB
3E8D9C0D
BDE0C558
BDF713A0
BC7F977A
BE14D8E9
BD1A2756
3E3D455C
3E06F409
3CD7EF65
BD286F42
3E349584
BE251612
3D9CF196
3DD4F342
BE400417
BDD004AB
3C5E5226
BDF26395
3E24FDC5
3DE56DC8
3D121BD9
3D7A7D07
BD8A9185
BD8D0EF8
BE1415A4
3D9DA7F1
3DB54FB2
BADD3F47
BDCA8057
3DB29C37
BD13ACA0
BD9190A4
3D8D6758
3E4266DC
3E8B8D1A
3E8BEED8
3DD849D9
3E83B0AA
BE082B0B
BDA497B3
BD2C3AC6
BC4FB4C9
BDCE3F79
3D8F20B1
3DC512E2
3D8785D7
BDA9F247
BE0D205F
BE445613
BDC898CF
3E99EFB4
BDD05B62
BDCB55F0
BBBEE7B8
BE04989B
3E92DC50
BC42CA95
3E844E0A
BD03E83F
3D5A23C0
BE4199E3
BD920A27
BD8AB67B
3CE1B2FE
3D9ADCA9
BDD21251
BE2AC161
3E03D853
3E821BCB
BE1FB04F
3C54EC8C
3BDDAA55
BD37D640
BE4505CA
BE614560
BE58E384
BE0BA97B
BE4E7F0B
BE86BBBA
BDD897EA
BE7656EF
BE774228
BD66DA9D
BE0660A2
3CCA7661
BBA358A0
3E058652
3D895D58
3D7204FB
3E603086
3EA383F1
3D905EB6
3C9F12CB
3DAD7F38
BD03343A
BDE1D1FD
BE9AC299
BE305180
BD901EA2
BDE53B81
BE55D690
BE350566
3DE6DB29
3DA403CE
3E2C9646
BDFC7780
3C50BC05
BDC17157
BE124DE7
BDB59F42
BD5A1961
BDA7F144
BC7962CD
BE6D22F7
BE0DE1C8
3D126987
BD85734B
3E22DAD5
BDB6F175
3E3BE327
BCC0480A
3D1DCA38
BD63B881
BE36B5C7
3CEBBC21
3D516D83
BE6F9025
BD00154C
BD2999A7
BD4DE993
3E0AC02C
BC7619A2
3D253A54
BE3401ED
3DD3AF3F
3D5E39BC
BBAE9D37
3D80F0E8
3DF724D2
BDF06325
BD1E3C5B
3DAE76C3
3C952B50
3E30657A
BDCCD424
BD1B76E4
BE521C47
BB356E7F
3DA021D6
3D912A2B
3D7E1531
BD4BCEA3
BD5047D7
3E18FA16
BE7A43AE
3DB0C578
BE0328D2
BE18B64C
3D6CE6F1
3E167686
3D078936
3DE0B88D
3DC31F68
BE7FBAA3
BDDE3E1C
3BDCB9E4
3D229226
BD0AF3CF
BEA2F343
3E0AB819
BE083FFD
BD9ACAEA
3CBF89D3
3C816611
BE3EED0A
3D64E146
BAEC583F
3E09A0F1
BC14E920
BCD9711B
3D91B3E6
BDAB7F16
3E26ED90
3DEE85FD
3D227500
BCD51F6C
3C135398
3D79A743
BDFC045D
BD9A5AF2
3B22552E
3DDD54BF
BB229D6C
3C972398
BD94D0A5
3D728AC4
BCA906FA
3B47E997
3BC5CD1A
BD9C11AD
3D32DB5A
BC3DBF53
BCD8B1C8
3DDD4E24
BDDA2DEC
3C183A66
BE117311
3D5F4FC1
BC30FED1
3BC64DD8
BE0C320E
3D0824BF
3D9A04E3
3D0447D6
BE221837
BDE9DF62
3EE26B43
3E17FE53
3E16A51B
BCE243D2
3E45EC2A
3C885C6B
3DB7AAB1
3DEB0044
BD091459
3E1FBF8A
BDC7E746
3C907091
3E046D46
3E8655D5
3D93C5B0
3DB15B88
3D5816B5
3C581743
BE1C01D9
BE50B4D4
BD24B51C
BE449CF5
BE57100F
BE1A47AA
3CFDD9D0
3D439363
3E30F20A
3E479746
3DC52524
BD1ECA30
3D177B5A
BDF4AFA0
3D1B5E48
3B4B45DB
3DE94FE3
3E9E796F
3E68B5C5
3DCD5454
BE031A09
BC61A04E
BD236E29
3CC6C0BF
BD5F4119
3D587146
3D1DB8FE
3D63F167
BEA60D4F
BD2CD15A
3E27B20A
3D6A61CB
3E49DFE8
3DB2CD1F
BD1A230F
3D316D38
BD947C44
3D0342C0
3D945685
3DDB015E
BC655CDC
BBEED3A8
3D170D0D
BDEF6BAE
BDDCA12E
BDBE4D91
BDD26868
3D4ECDB1
BCE05BCB
3B2CEAAB
3E2DE07F
3DFC73C7
3CFC0A57
BDD21393
BE8513B6
3E4483B0
BD840CDC
3D9C795C
BDF419FE
BCA3B66E
3C096CB7
BD3BF2DD
BC8A3E88
3E26955A
3E25FD0B
BDC8286E
3DE3ED1D
3C8D1D85
3D33B44D
BD93AE83
BD8F6A7E
BDA9BCD2
BE2DB461
3D91438C
3C6079B3
BB51ED37
BDEA1024
BC19EE5A
3D1A4CA5
BC9AF8FA
BDB1554E
BD0A78A5
BC648855
3B8A56DC
BE18A63A
3E0276C5
3CFAF9F7
3D4D770C
3D1BE12A
3E05D57D
3CD9FBAA
3CAE9B49
3D25DDAA
3B1DCCE3
3DAD329D
BE7ACB7F
3D60F0C3
BD0DCABE
BE68293C
3C212607
3DF2CA58
BDE67382
BDBD7201
3D03D1AF
BDDFBA38
3CC72E4D
BD844F97
BC174ADE
3E090D1E
BD0E20A5
3E6A3818
3C6C9EDA
BDACB910
3D64360D
BDE55DCB
3D631CAB
BCA737C2
BD3DFDAA
3E19BD84
3DB552DE
BDEA8255
BDAFB32E
BE7DD8DE
BD363417
3D1B24F7
BD808234
3DFDBC74
BE3FB5F8
3D2BA304
3B80F623
BD208FAA
BE1ED1E8
BBA011D0
3E6820ED
BD8D024E
3E2BF4F3
BE00EE36
BE0A69E0
BD1430C4
BCF03FB3
BD0B81C4
BD58F6EF
BD80BD70
BD8688BA
BE200588
3D8EA8C2
3D8B208C
BCB8AFCF
3BEF2D75
BE3D5787
BDE8CA82
3D8060F0
BE0E6FF1
BE2AFA8D
BE85A413
3B891204
3C87FCE4
3C9F3ACE
BCBB48D6
BE1D909F
BE752264
BE0807B5
BD27265D
BC39E1CE
3E2EAD92
3E5DAAC9
3E67DA69
BCC9F831
BE19B9A9
BE1F1C83
3D1CB17C
3DB7C225
3E5B71E8
3E88A6A5
3ED02013
3EAF4430
3ED52A37
3E442DEA
3E68D831
3E3D0D8D
BE087358
BE591BA4
3CFF6F3C
3D8DE6D9
BE53AB65
3DF0BD95
BD3BCA56
3E67237C
BC001C36
3DDB6369
3E2518F4
BDB3E6E4
BDF65E03
3DA97CF8
BC9C2906
3D2056A8
3D2AFB56
BC212AB7
BD770D78
3CCD9DBD
3D2F99A1
BD23B336
3D529576
3C4A8C56
3E91725B
3D376758
3DA142AA
3D0B304A
BD927B29
3DE6BC04
3C8A2771
BDF6AFA5
3D386C80
3DD63A84
3D8F1588
3D2EBF05
3CCC014B
BDC16842
BD913401
3E5154EB
BDDF738B
BCAE17AB
BD721FB0
3C422FB0
3C24C9B9
3CB22A5A
BD85606C
BD072E85
3D7F500D
BD212483
BD9F83D7
3D12D7A3
BD169A5E
BDF9E7C5
BE0B80CB
3D3F0511
3D0FD1AD
BD14AAE5
BDBA6EFB
BE021372
BDAD3D4D
BD9CC3B1
3DCDE58E
3D5202EA
BE41948A
BBB2AD6B
BDE1F030
3DF1EA50
3D0C62AA
3C67818F
3DA0B559
3E171066
3E38BC9D
BCD15F69
BD11DE21
BD22D161
BD7157AC
BD10CF05
BCD26BDE
3DBD50C9
3D1E1486
3D5C5739
BD23F97F
3D831E69
BE021E53
BD995894
BDA6C0F9
BE0A90C0
BD89BE5A
BE2766A5
BDAE9138
3D152FDD
BC931079
3D1FE1FD
3E690E9C
BDE0DF3E
3CCF938C
BE4EFC37
3DB64BFD
3CD73891
3DA2B2CD
3E11013E
BDA76C8B
BD07F6F5
BD9D5BBD
3E02A165
3C8B3EC8
BD571533
BD10084B
3D39AB2F
BD58CDC7
BBD97B42
BD95AD10
3CA67311
3D7C0156
BD0E4AA4
BE0405FD
BA6002D9
BD067E67
3D5F011A
BA938FA6
BAEEE175
BDB82D3A
3D184516
BDED4BD6
BE26EF01
BE55509B
3DD75FF6
BE132548
BD3A6DF8
BE19E5CE
BDDFBDE3
BE312FB2
BE8E5E35
3DEFCE24
BE179C19
BE43CBAA
BE82CAC0
BCE82D7B
3E526A87
3E0957E1
BC075FBF
BEB4DFC7
BE667AE6
3DD27914
3E0D9897
3E1F0684
3C89A607
BD2C71C3
BDC91A5E
BE3240CC
3D6B8B49
BCA335BF
3E45919E
3D95711A
BD73E446
BE6A6D20
BE6D16F6
BC970D18
3D2F1DF3
BE31842F
3C4D6213
B9D913F7
3DCF7FB5
BD1BAA80
3E1BF1E2
BE83A707
3DDF7A77
BE2ADFAE
3DC37B8B
3E0BC32B
BAE7E6D1
3B42E0BF
BDF4949F
3DCDCD2D
BC3C293C
BDDD18FB
3DB901C0
3D18FE31
3D8C1869
BB226FA8
3D9F0142
BCCACD99
3D5651A9
3D6B0B31
BE2066AF
BD4941D3
BD1491B2
BCF11A4A
3E4BD56A
3E7FA40A
3DF05F94
BE050911
BE7626FD
BCE93C9F
BE19CA1F
3D91F3AF
3D1FC85A
3E3074F1
BD909ADC
BD3B2E17
3D9BCF17
BBE25CBB
3DBF338F
BD74933A
3E0ECD01
3D56FBB5
BDD98875
BD926DE2
3E129FB8
3DED622B
3B9F2FDC
3E0AE22C
BD5FA8FD
BE3FB5D7
3CB5B54E
3CE57A99
3DA1FE3F
BC66207B
BD1954EB
BBA6F95A
3C8DE591
3D714AFC
3D137A23
3D28E27A
3D4581BD
3C69CD64
3D28C6B3
BE0F023F
BCB0218B
BCB29B73
BDDDA314
3E0BE851
BE12FF16
BC8A9814
3E4D8C59
BDCBA37E
3E0B18CD
BE744319
3E526BC3
BDEE24FF
3D86C3A0
3C930C01
BD4C9819
3D09803F
3DA61DCF
3C5CFF75
3DA88CC9
BDC5FB94
3D8D4A84
3E385B2C
3D8B0C68
3DCCAD05
BDE40FED
BD04578E
BC1FEAD6
BE0462E5
3AD95083
BB405512
BDC3506E
BCE380BE
BE35B5B0
3E3F7143
393288FA
BD845E1A
3DC2B9F3
BDBFBD08
3D373008
BDFE5BFE
BCBA008D
BBE52EB0
3B7E20CF
BE20207B
3D987CAA
3E5776FA
BDD32138
BE315494
BD7B834E
BD8D5381
BD95D863
3DB46D1F
BD678F08
BDD0700A
BC8BB43E
BD8DA61D
BD98ADD9
BDAA49DA
3E3625F7
BDCF55B6
BDA2866E
BE0C8F5A
BE7DFDE2
BEB91B35
BEB1EEE0
BEB2E5FC
BE9621BB
BE5B84AD
BD028358
3D622643
3C25E191
3DA9F141
3BFCFC15
BD981862
BE23B61D
BDD4C6E7
3DBC6E8C
BBEC59C8
BDD1AB66
BDFC4271
BC1B413F
3DABCBEE
3D382360
3D289481
BDDBB3FE
BD732442
BDC412BA
BC27C9DE
BD220BC9
3C2C0582
